<unk>	0
<s>	0
</s>	0
▁a	-0
▁i	-1
▁t	-2
he	-3
▁.	-4
▁the	-5
er	-6
▁is	-7
▁s	-8
▁o	-9
▁in	-10
an	-11
▁c	-12
re	-13
▁b	-14
at	-15
▁,	-16
▁w	-17
on	-18
ed	-19
nd	-20
▁of	-21
▁l	-22
as	-23
it	-24
en	-25
▁p	-26
ar	-27
in	-28
▁m	-29
al	-30
ic	-31
▁and	-32
es	-33
▁f	-34
or	-35
is	-36
un	-37
ro	-38
▁d	-39
▁1	-40
ad	-41
▁h	-42
▁n	-43
ion	-44
▁co	-45
▁g	-46
il	-47
am	-48
ated	-49
▁was	-50
et	-51
ir	-52
oc	-53
▁st	-54
el	-55
▁wh	-56
ol	-57
▁al	-58
▁le	-59
us	-60
ac	-61
ia	-62
ay	-63
ers	-64
ent	-65
ap	-66
▁un	-67
▁j	-68
ich	-69
ot	-70
ation	-71
▁loc	-72
ort	-73
▁by	-74
rom	-75
▁as	-76
ur	-77
ity	-78
▁air	-79
▁it	-80
ch	-81
ing	-82
os	-83
▁has	-84
▁which	-85
em	-86
ter	-87
ag	-88
iv	-89
port	-90
▁located	-91
▁r	-92
▁&	-93
▁are	-94
▁lead	-95
ish	-96
ut	-97
um	-98
▁from	-99
▁coun	-100
▁2	-101
▁19	-102
ce	-103
▁count	-104
▁airport	-105
ates	-106
▁an	-107
▁k	-108
and	-109
ri	-110
▁re	-111
▁whe	-112
▁v	-113
le	-114
ited	-115
▁at	-116
▁ch	-117
▁united	-118
▁leader	-119
▁where	-120
▁on	-121
▁-	-122
qu	-123
und	-124
bl	-125
ak	-126
▁com	-127
▁am	-128
▁states	-129
red	-130
ber	-131
▁sp	-132
▁te	-133
▁to	-134
ian	-135
00	-136
all	-137
▁gro	-138
ain	-139
eng	-140
orn	-141
art	-142
▁ad	-143
▁fo	-144
res	-145
▁be	-146
ip	-147
▁ar	-148
▁e	-149
▁se	-150
ig	-151
hn	-152
▁city	-153
lo	-154
ational	-155
io	-156
▁he	-157
id	-158
apos	-159
up	-160
▁ne	-161
ok	-162
▁ser	-163
th	-164
▁ab	-165
way	-166
▁ind	-167
eric	-168
ang	-169
ell	-170
ry	-171
▁(	-172
ra	-173
▁)	-174
▁county	-175
ivers	-176
ul	-177
st	-178
ith	-179
▁univers	-180
▁pl	-181
▁for	-182
▁with	-183
▁3	-184
▁pu	-185
ard	-186
av	-187
▁new	-188
▁run	-189
ishe	-190
▁af	-191
ct	-192
ab	-193
tern	-194
ov	-195
ant	-196
ong	-197
▁runway	-198
ient	-199
▁serv	-200
▁ing	-201
redient	-202
▁university	-203
▁ingredient	-204
▁0	-205
lu	-206
▁et	-207
blishe	-208
▁born	-209
est	-210
so	-211
▁found	-212
▁jo	-213
om	-214
ey	-215
▁mem	-216
▁cre	-217
▁mar	-218
▁reg	-219
▁americ	-220
per	-221
▁intern	-222
▁international	-223
quot	-224
▁american	-225
ore	-226
▁con	-227
are	-228
blished	-229
▁part	-230
▁group	-231
▁man	-232
hnic	-233
▁ethnic	-234
age	-235
wn	-236
ital	-237
rit	-238
▁eng	-239
▁country	-240
▁ap	-241
▁region	-242
▁cap	-243
▁ac	-244
angu	-245
▁langu	-246
▁dish	-247
ame	-248
land	-249
ist	-250
ack	-251
▁di	-252
▁its	-253
op	-254
ill	-255
▁capital	-256
▁tex	-257
▁play	-258
▁met	-259
umber	-260
▁texas	-261
▁mad	-262
▁gre	-263
og	-264
63	-265
▁language	-266
▁ro	-267
▁de	-268
acon	-269
▁gr	-270
▁bacon	-271
▁oper	-272
▁th	-273
▁who	-274
ate	-275
▁bak	-276
ines	-277
▁one	-278
pl	-279
▁also	-280
▁number	-281
▁des	-282
oken	-283
▁spoken	-284
▁ground	-285
chn	-286
▁or	-287
▁alan	-288
▁us	-289
vel	-290
ollo	-291
▁me	-292
ie	-293
▁mon	-294
▁leng	-295
ect	-296
▁pen	-297
▁rom	-298
anc	-299
▁engl	-300
▁english	-301
uth	-302
▁length	-303
au	-304
ipp	-305
olog	-306
if	-307
amp	-308
▁name	-309
iation	-310
gin	-311
▁ass	-312
▁main	-313
ary	-314
▁char	-315
ove	-316
ign	-317
ive	-318
▁sc	-319
▁above	-320
▁11	-321
od	-322
ark	-323
▁comes	-324
ton	-325
▁techn	-326
▁bat	-327
lin	-328
ones	-329
ool	-330
ork	-331
▁ak	-332
▁cal	-333
▁arch	-334
▁india	-335
▁so	-336
urk	-337
▁sea	-338
▁archit	-339
ust	-340
▁bu	-341
▁y	-342
▁20	-343
▁bar	-344
iated	-345
iss	-346
sh	-347
▁ingredients	-348
▁metres	-349
▁apollo	-350
hus	-351
▁level	-352
ric	-353
▁/	-354
▁can	-355
▁indones	-356
lub	-357
ran	-358
▁ital	-359
adem	-360
▁pil	-361
▁manag	-362
▁pilot	-363
▁8	-364
▁published	-365
▁4	-366
▁club	-367
▁pres	-368
ris	-369
de	-370
▁bl	-371
ns	-372
▁aar	-373
ute	-374
▁technolog	-375
ace	-376
▁john	-377
▁inf	-378
▁aarhus	-379
▁americans	-380
▁den	-381
▁national	-382
iam	-383
ten	-384
▁served	-385
▁turk	-386
ument	-387
▁monument	-388
▁sch	-389
asa	-390
▁pe	-391
ren	-392
plet	-393
▁nasa	-394
ast	-395
▁writ	-396
rin	-397
▁operated	-398
ue	-399
▁u	-400
acter	-401
▁character	-402
aj	-403
ow	-404
ire	-405
▁col	-406
ett	-407
▁est	-408
▁location	-409
ien	-410
▁written	-411
000	-412
▁member	-413
▁ald	-414
ah	-415
▁ori	-416
▁origin	-417
▁add	-418
▁5	-419
ania	-420
▁mal	-421
▁sau	-422
ial	-423
▁sauce	-424
ern	-425
▁aust	-426
▁pro	-427
▁mat	-428
▁:	-429
ama	-430
634	-431
ge	-432
▁bo	-433
▁indonesia	-434
▁serves	-435
▁crew	-436
▁aff	-437
▁will	-438
▁brit	-439
▁esta	-440
▁established	-441
▁malay	-442
adu	-443
stit	-444
▁instit	-445
▁stu	-446
iz	-447
igh	-448
bers	-449
▁6	-450
man	-451
▁institute	-452
isc	-453
▁flo	-454
▁cur	-455
▁members	-456
ti	-457
▁1634	-458
▁fc	-459
▁cont	-460
▁aj	-461
ative	-462
▁york	-463
ond	-464
▁william	-465
ico	-466
▁affil	-467
ersey	-468
▁av	-469
▁spain	-470
▁jersey	-471
▁sand	-472
dent	-473
▁long	-474
ly	-475
im	-476
yl	-477
▁school	-478
zz	-479
own	-480
▁ph	-481
arya	-482
mark	-483
▁ach	-484
▁12	-485
▁groups	-486
ba	-487
ott	-488
▁acharya	-489
▁denmark	-490
▁pre	-491
ka	-492
▁affiliated	-493
▁created	-494
rid	-495
▁austin	-496
▁peop	-497
ding	-498
bur	-499
ae	-500
zer	-501
▁gu	-502
▁inc	-503
▁fran	-504
▁madrid	-505
▁inclu	-506
arian	-507
▁design	-508
▁people	-509
▁sw	-510
ert	-511
her	-512
▁architect	-513
vil	-514
▁curren	-515
▁that	-516
▁scien	-517
▁book	-518
▁193	-519
blic	-520
ident	-521
▁gradu	-522
ick	-523
shire	-524
▁phil	-525
gan	-526
▁italy	-527
▁malays	-528
▁7	-529
▁mend	-530
▁designed	-531
iforn	-532
▁californ	-533
▁president	-534
▁15	-535
▁9	-536
▁she	-537
▁sh	-538
▁philipp	-539
▁mary	-540
ais	-541
ington	-542
▁california	-543
oy	-544
▁squ	-545
▁infant	-546
▁kn	-547
▁bean	-548
ena	-549
ome	-550
▁technology	-551
14	-552
▁anders	-553
▁hall	-554
ron	-555
▁there	-556
▁leaders	-557
istan	-558
▁auth	-559
▁infantry	-560
ine	-561
▁ell	-562
▁aldrin	-563
▁black	-564
▁mendris	-565
af	-566
▁made	-567
▁academ	-568
gre	-569
▁shep	-570
▁mendrisio	-571
ose	-572
▁ant	-573
▁manager	-574
▁graduated	-575
ical	-576
▁assoc	-577
ax	-578
▁call	-579
▁comp	-580
▁nort	-581
se	-582
▁originates	-583
▁known	-584
ita	-585
▁z	-586
▁called	-587
▁floor	-588
▁author	-589
wer	-590
ave	-591
▁they	-592
▁wash	-593
▁akita	-594
▁student	-595
▁10	-596
▁aw	-597
sert	-598
▁196	-599
▁played	-600
▁public	-601
▁dessert	-602
▁shepard	-603
ica	-604
▁washington	-605
son	-606
ice	-607
▁comm	-608
▁died	-609
▁sandw	-610
▁192	-611
te	-612
▁18	-613
tired	-614
▁state	-615
▁retired	-616
iot	-617
ence	-618
▁see	-619
▁elliot	-620
fer	-621
▁comic	-622
▁jul	-623
▁buzz	-624
apore	-625
▁miss	-626
▁sing	-627
▁contain	-628
▁bel	-629
▁complet	-630
▁singapore	-631
▁17	-632
▁square	-633
▁afric	-634
▁14	-635
▁lar	-636
▁1963	-637
▁plays	-638
ams	-639
ura	-640
ment	-641
▁pop	-642
ure	-643
ague	-644
▁completed	-645
ite	-646
▁191	-647
▁test	-648
▁23	-649
aya	-650
urn	-651
▁var	-652
pe	-653
▁town	-654
ou	-655
▁north	-656
ced	-657
ef	-658
▁bus	-659
hio	-660
▁beef	-661
▁sol	-662
▁have	-663
▁regional	-664
▁ban	-665
50	-666
ago	-667
ins	-668
ato	-669
olf	-670
more	-671
▁journ	-672
ylv	-673
▁gree	-674
▁penns	-675
▁whose	-676
ylvania	-677
▁journal	-678
▁sandwich	-679
▁pennsylvania	-680
gh	-681
▁sum	-682
raz	-683
▁li	-684
▁ram	-685
▁south	-686
ference	-687
ino	-688
▁198	-689
▁home	-690
hens	-691
▁malaysia	-692
ase	-693
▁ex	-694
▁pak	-695
▁athens	-696
iana	-697
ene	-698
mit	-699
ilom	-700
▁great	-701
▁popul	-702
ons	-703
▁students	-704
▁philippines	-705
▁sri	-706
▁britain	-707
▁academic	-708
▁su	-709
▁200	-710
aceae	-711
br	-712
▁but	-713
▁adams	-714
ej	-715
ason	-716
▁alc	-717
▁jav	-718
att	-719
▁195	-720
iness	-721
▁business	-722
▁variation	-723
ana	-724
ages	-725
▁afc	-726
well	-727
▁gl	-728
eral	-729
▁pakistan	-730
hem	-731
otb	-732
▁ni	-733
otball	-734
▁football	-735
use	-736
▁2014	-737
▁el	-738
▁their	-739
▁led	-740
▁pais	-741
▁span	-742
▁force	-743
bai	-744
rev	-745
▁ve	-746
▁paisa	-747
bb	-748
lant	-749
▁atlant	-750
ves	-751
ales	-752
▁own	-753
▁vis	-754
▁eu	-755
▁abb	-756
▁sport	-757
▁league	-758
ara	-759
arn	-760
rad	-761
▁area	-762
▁food	-763
▁figh	-764
▁abbrev	-765
ces	-766
anco	-767
▁contains	-768
cio	-769
▁acc	-770
▁car	-771
▁calcio	-772
▁par	-773
der	-774
▁27	-775
▁ay	-776
▁min	-777
▁includ	-778
▁accadem	-779
▁po	-780
ster	-781
▁mississ	-782
ippi	-783
▁lan	-784
▁accademia	-785
▁arem	-786
▁mississippi	-787
▁mex	-788
alore	-789
▁euro	-790
▁sciences	-791
▁association	-792
▁ten	-793
pleton	-794
▁appleton	-795
az	-796
burg	-797
itzer	-798
▁baku	-799
▁bang	-800
▁switzer	-801
▁switzerland	-802
bn	-803
tle	-804
ress	-805
ville	-806
▁july	-807
▁asian	-808
ake	-809
▁bangalore	-810
▁ajax	-811
▁isbn	-812
▁organ	-813
ob	-814
▁all	-815
▁pol	-816
ions	-817
irst	-818
▁bir	-819
▁bro	-820
▁art	-821
▁bion	-822
▁der	-823
▁bake	-824
▁floors	-825
▁bionico	-826
▁architett	-827
▁dr	-828
▁african	-829
ev	-830
▁ayam	-831
▁white	-832
ft	-833
aba	-834
▁ob	-835
▁ajo	-836
▁bakewell	-837
cy	-838
gor	-839
▁architettura	-840
ids	-841
▁france	-842
▁greece	-843
yet	-844
▁act	-845
▁soc	-846
▁2000	-847
▁native	-848
▁currency	-849
▁road	-850
▁turkey	-851
▁alm	-852
▁akron	-853
▁penyet	-854
▁atlantic	-855
ried	-856
aka	-857
onsin	-858
oth	-859
▁ii	-860
ship	-861
▁ful	-862
▁both	-863
▁buil	-864
▁baked	-865
aff	-866
▁iss	-867
▁airb	-868
▁wisc	-869
▁addis	-870
▁staff	-871
▁wisconsin	-872
by	-873
▁ag	-874
▁pud	-875
▁issn	-876
▁ababa	-877
▁pudding	-878
iet	-879
lint	-880
plos	-881
▁dem	-882
▁flint	-883
plosion	-884
▁airbase	-885
▁fighter	-886
▁explosion	-887
olfo	-888
raft	-889
ao	-890
▁gov	-891
▁eric	-892
ham	-893
▁bin	-894
▁har	-895
▁acta	-896
▁adolfo	-897
▁conference	-898
ail	-899
eja	-900
▁band	-901
▁full	-902
▁hamp	-903
▁obama	-904
▁bandeja	-905
▁hampshire	-906
alli	-907
▁pal	-908
araya	-909
ignit	-910
▁british	-911
▁this	-912
▁barack	-913
ane	-914
jan	-915
▁alp	-916
▁season	-917
▁visves	-918
▁binignit	-919
▁includes	-920
les	-921
aska	-922
▁stre	-923
varaya	-924
▁lanka	-925
bal	-926
▁250	-927
▁bav	-928
risis	-929
▁hong	-930
▁kong	-931
▁crisis	-932
▁bavarian	-933
▁township	-934
▁visvesvaraya	-935
▁technological	-936
eron	-937
▁mexico	-938
▁street	-939
ere	-940
idge	-941
▁reb	-942
▁ridge	-943
cc	-944
▁bell	-945
▁rebell	-946
ira	-947
eler	-948
▁social	-949
ola	-950
▁asad	-951
▁popular	-952
▁rebellion	-953
▁28	-954
ants	-955
▁hot	-956
arnat	-957
▁king	-958
▁baraj	-959
▁karnat	-960
▁italian	-961
ys	-962
apan	-963
pool	-964
▁barajas	-965
▁romania	-966
▁authority	-967
▁blackpool	-968
▁–	-969
esh	-970
▁ut	-971
ister	-972
▁govern	-973
werp	-974
▁nov	-975
▁dist	-976
▁alaska	-977
▁antwerp	-978
eet	-979
▁eg	-980
inese	-981
ass	-982
▁21	-983
aren	-984
▁ang	-985
blanco	-986
▁ajoblanco	-987
aul	-988
icken	-989
▁serie	-990
▁chicken	-991
atric	-992
▁rome	-993
▁fried	-994
ty	-995
inc	-996
96	-997
▁dav	-998
▁ice	-999
▁were	-1000
ilomar	-1001
▁asilomar	-1002
iva	-1003
▁maryland	-1004
▁dep	-1005
▁java	-1006
rew	-1007
rie	-1008
ilene	-1009
▁vers	-1010
▁andrew	-1011
dom	-1012
ouis	-1013
allas	-1014
▁louis	-1015
▁order	-1016
▁alpena	-1017
▁battle	-1018
▁dallas	-1019
▁kingdom	-1020
▁karnataka	-1021
ru	-1022
ann	-1023
▁adm	-1024
▁ohio	-1025
▁abilene	-1026
▁chinese	-1027
choy	-1028
▁egg	-1029
ating	-1030
▁batchoy	-1031
▁spe	-1032
▁asam	-1033
▁camp	-1034
aw	-1035
ese	-1036
▁br	-1037
▁sy	-1038
ered	-1039
ium	-1040
▁sar	-1041
hemat	-1042
▁current	-1043
▁spanish	-1044
▁turkish	-1045
▁mathemat	-1046
cem	-1047
ont	-1048
▁big	-1049
▁azer	-1050
▁syst	-1051
baijan	-1052
▁colle	-1053
▁derby	-1054
▁poaceae	-1055
▁derbyshire	-1056
rd	-1057
▁ped	-1058
ondon	-1059
▁teow	-1060
▁alcat	-1061
▁london	-1062
ier	-1063
▁vi	-1064
▁now	-1065
▁kway	-1066
▁prov	-1067
▁versus	-1068
▁college	-1069
▁england	-1070
▁alcatraz	-1071
▁azerbaijan	-1072
▁ed	-1073
▁ras	-1074
▁agra	-1075
▁champ	-1076
hann	-1077
▁adv	-1078
▁1932	-1079
ens	-1080
▁ah	-1081
▁pedas	-1082
ietro	-1083
▁libr	-1084
▁meters	-1085
▁pietro	-1086
▁sportiva	-1087
90	-1088
yr	-1089
▁chie	-1090
▁frank	-1091
ies	-1092
▁tran	-1093
ingham	-1094
ics	-1095
ict	-1096
uss	-1097
▁az	-1098
▁600	-1099
▁press	-1100
▁andrews	-1101
▁abbreviated	-1102
ilk	-1103
ected	-1104
ition	-1105
▁airc	-1106
▁preced	-1107
ering	-1108
▁way	-1109
▁evil	-1110
lc	-1111
ased	-1112
▁100	-1113
▁librarian	-1114
▁sk	-1115
abat	-1116
▁vir	-1117
sterd	-1118
▁cate	-1119
▁amsterd	-1120
▁categor	-1121
▁preceded	-1122
▁ge	-1123
▁aids	-1124
▁hard	-1125
▁award	-1126
▁owned	-1127
▁science	-1128
▁aircraft	-1129
erona	-1130
▁mars	-1131
▁star	-1132
get	-1133
uary	-1134
▁europe	-1135
▁librarians	-1136
▁bh	-1137
▁uk	-1138
rint	-1139
erney	-1140
▁mich	-1141
▁print	-1142
▁champions	-1143
abl	-1144
▁wiz	-1145
ables	-1146
▁bhaj	-1147
▁wizard	-1148
▁alderney	-1149
▁european	-1150
ai	-1151
any	-1152
van	-1153
▁row	-1154
▁sev	-1155
▁birm	-1156
▁bella	-1157
▁hotel	-1158
▁veget	-1159
▁vegetables	-1160
ji	-1161
rim	-1162
▁ho	-1163
icago	-1164
ollow	-1165
▁admin	-1166
▁follow	-1167
▁chicago	-1168
▁wheeler	-1169
▁birmingham	-1170
uf	-1171
qbal	-1172
▁red	-1173
▁roman	-1174
▁trans	-1175
clc	-1176
▁cu	-1177
istor	-1178
▁been	-1179
▁mill	-1180
▁oclc	-1181
▁iqbal	-1182
▁pages	-1183
▁allama	-1184
▁histor	-1185
▁colmore	-1186
bert	-1187
▁ahm	-1188
▁med	-1189
▁head	-1190
▁plac	-1191
▁decem	-1192
▁grounds	-1193
▁building	-1194
▁historic	-1195
oyal	-1196
▁ash	-1197
▁belg	-1198
▁used	-1199
▁loyal	-1200
but	-1201
ost	-1202
enue	-1203
ince	-1204
gabat	-1205
ribut	-1206
artment	-1207
▁ashgabat	-1208
▁department	-1209
hs	-1210
quar	-1211
▁del	-1212
orial	-1213
quarter	-1214
▁park	-1215
▁negre	-1216
▁proper	-1217
▁amatric	-1218
▁memorial	-1219
▁pot	-1220
▁geor	-1221
adh	-1222
ide	-1223
▁corn	-1224
▁trad	-1225
▁avenue	-1226
▁compet	-1227
▁johnson	-1228
▁amatriciana	-1229
ny	-1230
ific	-1231
▁190	-1232
▁pena	-1233
▁wasp	-1234
▁adare	-1235
▁first	-1236
▁summit	-1237
▁severed	-1238
iel	-1239
ancer	-1240
ginia	-1241
▁dancer	-1242
eal	-1243
▁off	-1244
▁medal	-1245
▁virginia	-1246
▁liv	-1247
▁sel	-1248
▁atat	-1249
▁stad	-1250
▁zeal	-1251
▁zealand	-1252
▁selected	-1253
ale	-1254
lic	-1255
ongs	-1256
▁banan	-1257
▁delaw	-1258
▁system	-1259
▁operating	-1260
▁his	-1261
heast	-1262
▁roma	-1263
iction	-1264
▁delaware	-1265
la	-1266
▁il	-1267
istr	-1268
erick	-1269
▁fort	-1270
▁based	-1271
▁speak	-1272
aman	-1273
▁cle	-1274
▁lev	-1275
useum	-1276
▁arab	-1277
veland	-1278
▁bakso	-1279
▁indian	-1280
▁museum	-1281
▁property	-1282
▁cleveland	-1283
ccn	-1284
rish	-1285
▁ger	-1286
▁glen	-1287
▁grant	-1288
▁green	-1289
ributing	-1290
▁fortress	-1291
▁province	-1292
▁amsterdam	-1293
▁contributing	-1294
15	-1295
enh	-1296
▁aip	-1297
▁lccn	-1298
▁levy	-1299
▁asser	-1300
▁angola	-1301
▁bananaman	-1302
30	-1303
▁cop	-1304
▁nam	-1305
▁grey	-1306
▁universit	-1307
39	-1308
agen	-1309
ider	-1310
aeont	-1311
▁arap	-1312
enhagen	-1313
▁almond	-1314
▁palaeont	-1315
▁copenhagen	-1316
▁lum	-1317
onica	-1318
▁japan	-1319
▁service	-1320
tt	-1321
ans	-1322
cov	-1323
ense	-1324
urch	-1325
▁larg	-1326
▁bhajji	-1327
▁hardcov	-1328
▁organis	-1329
iag	-1330
ung	-1331
▁chiev	-1332
itional	-1333
▁verona	-1334
▁followed	-1335
▁hardcover	-1336
▁traditional	-1337
pt	-1338
col	-1339
iche	-1340
▁organisation	-1341
▁16	-1342
▁103	-1343
▁robert	-1344
fx	-1345
alt	-1346
fxe	-1347
ile	-1348
▁ty	-1349
upol	-1350
▁mor	-1351
▁efxe	-1352
▁elev	-1353
inoupol	-1354
▁efxeinoupol	-1355
ilm	-1356
raq	-1357
rez	-1358
able	-1359
árez	-1360
▁1962	-1361
▁iraq	-1362
▁suárez	-1363
iscip	-1364
▁marri	-1365
▁discip	-1366
ois	-1367
▁du	-1368
bbio	-1369
line	-1370
iraqu	-1371
▁baths	-1372
▁gubbio	-1373
▁largest	-1374
▁arapiraqu	-1375
ield	-1376
▁san	-1377
▁sky	-1378
▁discipline	-1379
▁arapiraquense	-1380
ek	-1381
els	-1382
bury	-1383
grem	-1384
▁ard	-1385
▁bec	-1386
▁oil	-1387
▁agrem	-1388
▁sweet	-1389
▁ardmore	-1390
▁56	-1391
▁300	-1392
▁las	-1393
▁miller	-1394
▁belongs	-1395
37	-1396
iden	-1397
para	-1398
▁fed	-1399
▁rep	-1400
▁war	-1401
field	-1402
▁ampara	-1403
▁tenant	-1404
▁marriott	-1405
amil	-1406
▁johann	-1407
ata	-1408
cil	-1409
▁fl	-1410
ruct	-1411
▁lake	-1412
▁ident	-1413
▁monoc	-1414
▁council	-1415
▁indiana	-1416
▁greenville	-1417
brie	-1418
▁ire	-1419
▁1918	-1420
▁post	-1421
▁company	-1422
▁identif	-1423
▁include	-1424
▁ireland	-1425
▁romance	-1426
▁decembrie	-1427
11	-1428
den	-1429
hed	-1430
alle	-1431
fect	-1432
iaz	-1433
igan	-1434
ember	-1435
erala	-1436
▁cook	-1437
▁manor	-1438
▁kerala	-1439
▁potato	-1440
▁michigan	-1441
old	-1442
▁35	-1443
ylde	-1444
aston	-1445
▁colo	-1446
▁rice	-1447
▁fylde	-1448
▁glaston	-1449
mir	-1450
orno	-1451
▁inv	-1452
▁jan	-1453
struct	-1454
▁livorno	-1455
istrative	-1456
▁construct	-1457
78	-1458
acy	-1459
ral	-1460
yle	-1461
akes	-1462
▁bor	-1463
▁und	-1464
eider	-1465
▁1910	-1466
▁amman	-1467
▁founded	-1468
▁administrative	-1469
46	-1470
hab	-1471
men	-1472
alls	-1473
▁awh	-1474
▁blt	-1475
artyr	-1476
▁math	-1477
▁schn	-1478
linois	-1479
▁inhab	-1480
▁under	-1481
▁ammann	-1482
▁engine	-1483
▁martyr	-1484
▁illinois	-1485
▁schneider	-1486
▁engineering	-1487
▁glastonbury	-1488
ipe	-1489
▁tom	-1490
isham	-1491
unity	-1492
▁lasalle	-1493
▁quarter	-1494
▁turkmen	-1495
▁publishe	-1496
▁community	-1497
▁quarterly	-1498
▁efxeinoupolis	-1499
▁36	-1500
▁cl	-1501
olun	-1502
▁lat	-1503
▁oct	-1504
mitra	-1505
▁1996	-1506
▁dean	-1507
▁prim	-1508
▁cakes	-1509
▁volun	-1510
▁addiction	-1511
▁identifier	-1512
ão	-1513
ezz	-1514
ator	-1515
ault	-1516
teer	-1517
▁gar	-1518
ances	-1519
▁avail	-1520
▁dales	-1521
▁house	-1522
▁lumezz	-1523
▁assault	-1524
▁dimitra	-1525
▁advances	-1526
▁available	-1527
▁volunteer	-1528
73	-1529
▁ma	-1530
▁back	-1531
▁lumezzane	-1532
▁bb	-1533
▁dc	-1534
▁bay	-1535
▁gras	-1536
▁campus	-1537
80	-1538
bor	-1539
agor	-1540
▁bbc	-1541
▁jam	-1542
▁grasso	-1543
▁nation	-1544
▁adisham	-1545
▁batagor	-1546
20	-1547
▁gaz	-1548
▁1957	-1549
▁gran	-1550
▁gazett	-1551
ina	-1552
▁fe	-1553
▁nw	-1554
ober	-1555
▁1927	-1556
▁code	-1557
▁fred	-1558
▁october	-1559
▁frederick	-1560
▁grantville	-1561
▁att	-1562
▁fel	-1563
▁fen	-1564
▁barny	-1565
▁demar	-1566
▁named	-1567
ke	-1568
▁;	-1569
▁197	-1570
▁nwc	-1571
▁tit	-1572
emish	-1573
▁sout	-1574
▁space	-1575
▁felipe	-1576
▁demarce	-1577
▁flemish	-1578
▁manages	-1579
ss	-1580
nan	-1581
▁03	-1582
▁ol	-1583
argh	-1584
atta	-1585
ious	-1586
adhak	-1587
arena	-1588
▁5600	-1589
▁hess	-1590
▁cream	-1591
▁chievo	-1592
▁radhak	-1593
arghatta	-1594
▁hessarghatta	-1595
con	-1596
hel	-1597
urs	-1598
▁au	-1599
acob	-1600
avad	-1601
icip	-1602
devan	-1603
▁1923	-1604
ahalli	-1605
apalli	-1606
rishnan	-1607
▁560090	-1608
▁soldevan	-1609
▁languages	-1610
▁radhakrishnan	-1611
▁soldevanahalli	-1612
fa	-1613
ony	-1614
ugh	-1615
▁la	-1616
alus	-1617
hiop	-1618
▁amd	-1619
razil	-1620
▁gufa	-1621
▁sarv	-1622
▁banana	-1623
▁brazil	-1624
▁ethiop	-1625
▁parker	-1626
▁places	-1627
▁amdavad	-1628
▁indonesian	-1629
▁sarvapalli	-1630
lie	-1631
onso	-1632
uner	-1633
▁mag	-1634
▁arro	-1635
▁famil	-1636
▁georg	-1637
▁charlie	-1638
▁martyrs	-1639
▁register	-1640
▁fr	-1641
ally	-1642
▁hal	-1643
▁leg	-1644
▁cent	-1645
▁afonso	-1646
▁family	-1647
▁andalus	-1648
ood	-1649
▁30	-1650
▁arm	-1651
▁madin	-1652
▁mathematics	-1653
70	-1654
bh	-1655
tar	-1656
ivil	-1657
tend	-1658
▁mun	-1659
▁high	-1660
▁attend	-1661
za	-1662
que	-1663
onal	-1664
▁per	-1665
▁val	-1666
vious	-1667
▁east	-1668
▁prad	-1669
▁civil	-1670
▁uttar	-1671
▁pradesh	-1672
▁andalusia	-1673
▁lah	-1674
ished	-1675
▁1955	-1676
▁alba	-1677
▁backup	-1678
▁federal	-1679
▁aviation	-1680
adc	-1681
rol	-1682
emin	-1683
rict	-1684
▁cat	-1685
▁ces	-1686
▁pun	-1687
▁sur	-1688
adcast	-1689
icipal	-1690
▁semin	-1691
▁style	-1692
▁lahore	-1693
▁inhabit	-1694
▁district	-1695
▁broadcast	-1696
jab	-1697
▁wil	-1698
▁live	-1699
▁milk	-1700
▁added	-1701
▁offic	-1702
▁punjab	-1703
▁belgium	-1704
▁southeast	-1705
mb	-1706
ban	-1707
end	-1708
max	-1709
▁41	-1710
▁mc	-1711
edic	-1712
ione	-1713
▁ran	-1714
▁gett	-1715
astern	-1716
ysburg	-1717
▁ahmet	-1718
▁david	-1719
▁davut	-1720
▁dedic	-1721
▁party	-1722
▁title	-1723
▁baymax	-1724
▁colomb	-1725
▁previous	-1726
▁malaysian	-1727
ee	-1728
▁q	-1729
arez	-1730
uring	-1731
▁diag	-1732
▁pork	-1733
▁surf	-1734
▁prime	-1735
▁stuart	-1736
▁suarez	-1737
▁within	-1738
▁diagonal	-1739
▁minister	-1740
▁dedicated	-1741
65	-1742
di	-1743
▁34	-1744
▁tomato	-1745
▁cornell	-1746
▁official	-1747
▁williams	-1748
▁gettysburg	-1749
▁turkmenistan	-1750
ph	-1751
act	-1752
iaç	-1753
ares	-1754
utes	-1755
▁130	-1756
▁bre	-1757
iação	-1758
▁1969	-1759
▁azal	-1760
▁asher	-1761
▁january	-1762
▁managed	-1763
▁ethiopia	-1764
▁agremiação	-1765
gr	-1766
amb	-1767
▁sa	-1768
isine	-1769
▁team	-1770
▁became	-1771
▁garlic	-1772
▁german	-1773
▁harbor	-1774
▁cuisine	-1775
▁minutes	-1776
iti	-1777
▁29	-1778
▁gen	-1779
▁guj	-1780
▁joe	-1781
▁los	-1782
ondack	-1783
▁arros	-1784
▁biden	-1785
▁miche	-1786
▁awarded	-1787
36	-1788
rench	-1789
▁adir	-1790
▁hero	-1791
▁veil	-1792
▁work	-1793
▁french	-1794
▁starred	-1795
▁adirondack	-1796
olt	-1797
alon	-1798
arat	-1799
arent	-1800
▁1928	-1801
▁bras	-1802
▁cond	-1803
▁nood	-1804
▁type	-1805
▁schip	-1806
fecture	-1807
▁cumber	-1808
▁parent	-1809
▁currently	-1810
▁technical	-1811
▁cumberland	-1812
▁philippine	-1813
▁prefecture	-1814
orm	-1815
blin	-1816
isco	-1817
otta	-1818
west	-1819
▁lem	-1820
obend	-1821
▁1930	-1822
wering	-1823
iazione	-1824
▁dublin	-1825
▁alcobend	-1826
▁attended	-1827
▁flowering	-1828
▁battlefield	-1829
▁associazione	-1830
km	-1831
gur	-1832
▁acm	-1833
▁ena	-1834
▁sio	-1835
▁van	-1836
▁inau	-1837
▁vinc	-1838
▁carrol	-1839
▁enaire	-1840
▁gujarat	-1841
▁vincent	-1842
10	-1843
eth	-1844
may	-1845
ock	-1846
osp	-1847
ioqu	-1848
▁tot	-1849
▁usa	-1850
▁arra	-1851
▁hosp	-1852
▁uses	-1853
▁cesena	-1854
▁siomay	-1855
▁antioqu	-1856
▁catalon	-1857
▁inaugur	-1858
▁hospital	-1859
▁government	-1860
itu	-1861
out	-1862
uel	-1863
enir	-1864
eter	-1865
iata	-1866
ingu	-1867
izab	-1868
umai	-1869
▁1933	-1870
church	-1871
▁aenir	-1872
▁kilom	-1873
▁olive	-1874
▁plant	-1875
▁total	-1876
▁arrabb	-1877
▁elizab	-1878
▁shumai	-1879
▁eastern	-1880
inguished	-1881
▁fenchurch	-1882
▁municipal	-1883
▁publisher	-1884
▁alcobendas	-1885
▁distinguished	-1886
uc	-1887
ner	-1888
elle	-1889
hand	-1890
name	-1891
▁nav	-1892
▁wid	-1893
▁mass	-1894
▁situ	-1895
▁surface	-1896
▁situated	-1897
▁elizabeth	-1898
▁arrabbiata	-1899
bly	-1900
▁dan	-1901
ellor	-1902
embly	-1903
▁manh	-1904
▁saus	-1905
▁chanc	-1906
▁solan	-1907
▁creator	-1908
▁assembly	-1909
▁antioquia	-1910
▁catalonia	-1911
▁chancellor	-1912
84	-1913
ula	-1914
ired	-1915
arest	-1916
▁lars	-1917
▁rich	-1918
▁west	-1919
▁amate	-1920
▁categoris	-1921
▁elevation	-1922
▁inhabitants	-1923
dy	-1924
ve	-1925
kma	-1926
odo	-1927
▁iz	-1928
attan	-1929
▁many	-1930
▁navy	-1931
▁alkma	-1932
▁sumat	-1933
▁tirst	-1934
▁widodo	-1935
▁ataturk	-1936
▁sausage	-1937
▁monocacy	-1938
▁manhattan	-1939
▁categorised	-1940
odi	-1941
oko	-1942
rup	-1943
▁000	-1944
▁737	-1945
ussen	-1946
▁joko	-1947
▁port	-1948
▁rasm	-1949
▁novel	-1950
▁africa	-1951
▁borman	-1952
▁kilomet	-1953
▁tirstrup	-1954
48	-1955
mas	-1956
▁07	-1957
▁700	-1958
▁tart	-1959
deburg	-1960
▁izmir	-1961
▁altern	-1962
▁richard	-1963
▁magdeburg	-1964
▁rasmussen	-1965
25	-1966
ex	-1967
iro	-1968
oor	-1969
▁em	-1970
▁aek	-1971
quart	-1972
▁alex	-1973
▁mario	-1974
▁peter	-1975
quarters	-1976
▁sumatra	-1977
▁headquarters	-1978
▁palaeontolog	-1979
ho	-1980
ado	-1981
▁88	-1982
▁bur	-1983
▁along	-1984
▁botta	-1985
▁stadium	-1986
▁polonica	-1987
acu	-1988
anac	-1989
heed	-1990
ight	-1991
vent	-1992
▁dos	-1993
▁iii	-1994
▁jar	-1995
▁jus	-1996
▁lok	-1997
conut	-1998
ellos	-1999
▁dead	-2000
▁jens	-2001
▁lock	-2002
▁paul	-2003
▁sour	-2004
▁stev	-2005
▁jarama	-2006
▁paracu	-2007
▁coconut	-2008
▁amateurs	-2009
▁paracuellos	-2010
▁palaeontologica	-2011
án	-2012
sis	-2013
▁tw	-2014
ctor	-2015
rist	-2016
lines	-2017
ocado	-2018
▁cast	-2019
▁christ	-2020
▁saranac	-2021
▁airlines	-2022
▁lockheed	-2023
▁constructed	-2024
▁inaugurated	-2025
rk	-2026
inh	-2027
alla	-2028
▁aur	-2029
▁che	-2030
▁mum	-2031
▁two	-2032
▁lipp	-2033
▁pinh	-2034
▁soho	-2035
incott	-2036
▁halim	-2037
▁jusuf	-2038
▁kalla	-2039
▁morgan	-2040
▁avocado	-2041
▁lippincott	-2042
cao	-2043
dor	-2044
ards	-2045
▁arr	-2046
▁hung	-2047
▁icao	-2048
▁wilk	-2049
▁march	-2050
▁mumbai	-2051
▁pinhais	-2052
▁wilkins	-2053
18	-2054
mp	-2055
air	-2056
ger	-2057
lla	-2058
oul	-2059
ürk	-2060
outh	-2061
tare	-2062
▁kut	-2063
▁sus	-2064
iards	-2065
▁join	-2066
▁serg	-2067
▁julia	-2068
▁plack	-2069
tarella	-2070
▁hungar	-2071
▁academy	-2072
▁spaniards	-2073
▁transport	-2074
▁mattarella	-2075
▁alternative	-2076
to	-2077
aro	-2078
eon	-2079
yes	-2080
idro	-2081
owys	-2082
▁ank	-2083
▁rup	-2084
▁seb	-2085
▁sec	-2086
▁afit	-2087
▁form	-2088
▁meat	-2089
▁well	-2090
attoor	-2091
eonato	-2092
ileiro	-2093
▁powys	-2094
▁reyes	-2095
▁scott	-2096
▁isidro	-2097
▁sergio	-2098
▁susana	-2099
▁brasileiro	-2100
▁campeonato	-2101
▁abbreviation	-2102
iac	-2103
tik	-2104
eyin	-2105
ilmi	-2106
ivis	-2107
▁alb	-2108
▁cow	-2109
▁febr	-2110
▁parl	-2111
▁went	-2112
▁hilmi	-2113
▁lemon	-2114
▁ankara	-2115
▁arabic	-2116
▁kuttik	-2117
▁sebast	-2118
▁february	-2119
▁operates	-2120
imo	-2121
agle	-2122
quel	-2123
▁bod	-2124
▁eat	-2125
▁pan	-2126
ublic	-2127
▁1983	-2128
▁cake	-2129
▁wolf	-2130
iament	-2131
▁being	-2132
▁plants	-2133
▁alkmaar	-2134
▁davutog	-2135
▁kuttikk	-2136
▁mission	-2137
▁republic	-2138
▁parliament	-2139
▁population	-2140
hol	-2141
urse	-2142
▁439	-2143
▁feet	-2144
▁hail	-2145
▁valls	-2146
▁course	-2147
▁almonds	-2148
▁davutoglu	-2149
▁reference	-2150
▁kuttikkattoor	-2151
59	-2152
ayl	-2153
rem	-2154
engo	-2155
▁mah	-2156
▁pat	-2157
▁1966	-2158
▁2015	-2159
▁tayl	-2160
ussels	-2161
▁bengo	-2162
▁brussels	-2163
▁competed	-2164
ne	-2165
▁39	-2166
colo	-2167
▁dun	-2168
▁hap	-2169
▁hop	-2170
▁key	-2171
arend	-2172
gradu	-2173
inghe	-2174
▁modi	-2175
▁wick	-2176
▁ranil	-2177
▁spent	-2178
▁narend	-2179
▁wickrem	-2180
rt	-2181
ini	-2182
akur	-2183
cher	-2184
▁3500	-2185
▁4165	-2186
▁alma	-2187
▁bron	-2188
▁sept	-2189
▁coden	-2190
▁mater	-2191
esinghe	-2192
▁marcol	-2193
▁taylor	-2194
▁larcher	-2195
▁michele	-2196
▁narendra	-2197
▁municipality	-2198
▁wickremesinghe	-2199
ze	-2200
isl	-2201
ärt	-2202
▁25	-2203
anut	-2204
aster	-2205
diers	-2206
▁1907	-2207
▁2009	-2208
▁brom	-2209
▁bronze	-2210
▁legisl	-2211
▁peanut	-2212
▁stadio	-2213
▁thakur	-2214
graduate	-2215
▁atatürk	-2216
▁sandesh	-2217
▁schiphol	-2218
▁soldiers	-2219
▁marcolini	-2220
òs	-2221
ero	-2222
ater	-2223
wide	-2224
▁aug	-2225
ement	-2226
▁same	-2227
▁arròs	-2228
▁class	-2229
▁javan	-2230
▁cowper	-2231
▁noodles	-2232
▁nationwide	-2233
▁architectur	-2234
uk	-2235
nis	-2236
ril	-2237
yan	-2238
king	-2239
kins	-2240
oman	-2241
▁hiv	-2242
▁ott	-2243
▁army	-2244
▁ryan	-2245
▁april	-2246
▁tennis	-2247
▁command	-2248
▁hopkins	-2249
▁metapan	-2250
▁ottoman	-2251
▁javanese	-2252
▁architectural	-2253
▁38	-2254
lymp	-2255
▁pac	-2256
▁franc	-2257
▁grove	-2258
▁olymp	-2259
▁castle	-2260
▁pacific	-2261
▁november	-2262
don	-2263
och	-2264
une	-2265
▁22	-2266
abad	-2267
arth	-2268
bank	-2269
bhuk	-2270
erle	-2271
umar	-2272
▁nix	-2273
▁pra	-2274
▁bill	-2275
▁tony	-2276
edabad	-2277
▁garth	-2278
▁invas	-2279
bhukumar	-2280
▁burbank	-2281
▁prabhukumar	-2282
▁45	-2283
▁ts	-2284
ruit	-2285
▁ent	-2286
▁tan	-2287
▁base	-2288
▁bolt	-2289
▁bread	-2290
▁divis	-2291
▁fruit	-2292
▁greek	-2293
▁sequel	-2294
▁invasion	-2295
▁ahmedabad	-2296
17	-2297
ble	-2298
elk	-2299
ipz	-2300
nam	-2301
ador	-2302
erce	-2303
osen	-2304
▁mit	-2305
ached	-2306
ipzig	-2307
utale	-2308
▁body	-2309
▁come	-2310
▁film	-2311
▁gold	-2312
▁beans	-2313
▁brook	-2314
▁harri	-2315
▁anthem	-2316
▁chosen	-2317
▁roland	-2318
▁leipzig	-2319
▁attached	-2320
▁canonica	-2321
▁commerce	-2322
▁palaeontol	-2323
ret	-2324
▁pf	-2325
itor	-2326
igher	-2327
▁buch	-2328
▁bund	-2329
▁dire	-2330
▁eaten	-2331
▁gazette	-2332
▁harriet	-2333
▁haputale	-2334
▁originated	-2335
ade	-2336
aum	-2337
kop	-2338
one	-2339
umb	-2340
▁jr	-2341
▁ju	-2342
avlo	-2343
fore	-2344
laus	-2345
▁alf	-2346
▁pfk	-2347
▁sam	-2348
kopis	-2349
oulos	-2350
▁nick	-2351
insula	-2352
ventus	-2353
▁china	-2354
▁klaus	-2355
▁mason	-2356
▁paris	-2357
▁pavlo	-2358
▁stars	-2359
▁august	-2360
▁columb	-2361
▁higher	-2362
▁belgaum	-2363
▁director	-2364
▁division	-2365
▁juventus	-2366
▁prokopis	-2367
▁bucharest	-2368
▁colombian	-2369
▁peninsula	-2370
▁september	-2371
▁postgraduate	-2372
07	-2373
anb	-2374
ind	-2375
▁31	-2376
ript	-2377
▁320	-2378
▁cyr	-2379
▁sup	-2380
▁wor	-2381
anbul	-2382
illed	-2383
▁alfred	-2384
▁editor	-2385
▁joined	-2386
▁script	-2387
▁secret	-2388
▁viking	-2389
▁halimah	-2390
62	-2391
ff	-2392
ear	-2393
ejo	-2394
▁ta	-2395
esse	-2396
oles	-2397
vano	-2398
▁277	-2399
▁ros	-2400
▁won	-2401
ature	-2402
ichar	-2403
uster	-2404
▁aure	-2405
▁cons	-2406
▁lies	-2407
▁than	-2408
ilvano	-2409
▁leads	-2410
▁yacob	-2411
▁before	-2412
▁conejo	-2413
▁cooked	-2414
▁inform	-2415
▁killed	-2416
▁chichar	-2417
▁granola	-2418
▁aureoles	-2419
▁category	-2420
▁governing	-2421
▁harrietst	-2422
▁solanales	-2423
22	-2424
ahe	-2425
bem	-2426
fin	-2427
ras	-2428
iven	-2429
▁210	-2430
▁glo	-2431
▁tim	-2432
enced	-2433
ärtel	-2434
▁1862	-2435
▁eggs	-2436
▁isab	-2437
▁jose	-2438
▁tsip	-2439
▁year	-2440
resent	-2441
▁alexis	-2442
▁butter	-2443
▁globem	-2444
▁härtel	-2445
▁marble	-2446
▁georgia	-2447
▁granite	-2448
▁silvano	-2449
▁isabelle	-2450
▁represent	-2451
▁globemaster	-2452
▁information	-2453
▁harrietstown	-2454
add	-2455
ash	-2456
kos	-2457
ley	-2458
lig	-2459
our	-2460
ajan	-2461
back	-2462
eing	-2463
▁610	-2464
▁sao	-2465
addum	-2466
▁fall	-2467
▁june	-2468
▁lira	-2469
▁vout	-2470
▁built	-2471
▁chute	-2472
▁influ	-2473
▁nikos	-2474
▁boeing	-2475
▁mahajan	-2476
▁tsipras	-2477
▁richardson	-2478
can	-2479
enc	-2480
hit	-2481
ule	-2482
itra	-2483
ulia	-2484
▁cit	-2485
▁ist	-2486
▁may	-2487
▁taq	-2488
iment	-2489
itiba	-2490
▁2001	-2491
▁taro	-2492
▁wien	-2493
▁17000	-2494
▁reddy	-2495
▁roule	-2496
▁stand	-2497
actions	-2498
▁duncan	-2499
▁valenc	-2500
▁austral	-2501
▁sumitra	-2502
▁systems	-2503
▁curitiba	-2504
▁taqaddum	-2505
▁scripture	-2506
▁universities	-2507
98	-2508
rop	-2509
mier	-2510
omas	-2511
rote	-2512
▁ber	-2513
▁end	-2514
▁hus	-2515
izade	-2516
ohann	-2517
▁1959	-2518
▁1974	-2519
▁gard	-2520
▁leaf	-2521
▁artur	-2522
▁guner	-2523
▁infra	-2524
▁lokke	-2525
▁wiley	-2526
▁wrote	-2527
ohannis	-2528
▁thomas	-2529
▁address	-2530
▁butuner	-2531
▁huseyin	-2532
▁organiz	-2533
▁premier	-2534
▁voutsis	-2535
▁gazettes	-2536
▁governed	-2537
▁rasizade	-2538
▁influenced	-2539
▁transactions	-2540
▁sé	-2541
ockb	-2542
ensed	-2543
ology	-2544
▁sago	-2545
▁brown	-2546
▁rupee	-2547
▁série	-2548
▁blockb	-2549
▁rouleau	-2550
▁iohannis	-2551
▁istanbul	-2552
▁condensed	-2553
▁blockbuster	-2554
ael	-2555
ando	-2556
ayaw	-2557
enep	-2558
onge	-2559
▁ast	-2560
▁soy	-2561
phalt	-2562
▁hein	-2563
▁stan	-2564
poulos	-2565
▁jacob	-2566
▁jayaw	-2567
▁latin	-2568
enepura	-2569
▁church	-2570
▁sponge	-2571
▁asphalt	-2572
▁central	-2573
▁massimo	-2574
▁rolando	-2575
▁elevated	-2576
▁franklin	-2577
▁infraero	-2578
▁speaking	-2579
▁variations	-2580
▁pavlopoulos	-2581
▁universitas	-2582
bo	-2583
▁x	-2584
364	-2585
ler	-2586
▁en	-2587
▁lu	-2588
▁tu	-2589
anda	-2590
orge	-2591
ties	-2592
▁ben	-2593
▁kol	-2594
▁res	-2595
rafts	-2596
▁educ	-2597
▁rais	-2598
▁drago	-2599
▁jorge	-2600
▁stern	-2601
▁water	-2602
▁cheese	-2603
▁luanda	-2604
erleague	-2605
▁raisins	-2606
▁italians	-2607
▁jayaward	-2608
▁superleague	-2609
▁jayawardenepura	-2610
na	-2611
▁sign	-2612
▁johns	-2613
▁jones	-2614
▁maran	-2615
▁crafts	-2616
▁george	-2617
▁manuel	-2618
▁tenants	-2619
▁signific	-2620
▁including	-2621
▁northeast	-2622
▁valencian	-2623
▁previously	-2624
uj	-2625
ink	-2626
loy	-2627
oct	-2628
ria	-2629
yah	-2630
▁od	-2631
ison	-2632
lein	-2633
otte	-2634
▁fil	-2635
arnie	-2636
octor	-2637
illing	-2638
▁began	-2639
▁iulia	-2640
▁kotte	-2641
▁swiss	-2642
elkhand	-2643
▁doctor	-2644
▁falluj	-2645
▁sambal	-2646
▁sarnie	-2647
▁germans	-2648
▁madison	-2649
▁heinlein	-2650
▁nickname	-2651
▁tomatoes	-2652
▁southwest	-2653
▁kilometres	-2654
▁bundelkhand	-2655
▁legislature	-2656
▁significant	-2657
23	-2658
44	-2659
arta	-2660
rent	-2661
ther	-2662
▁acf	-2663
▁1500	-2664
ligion	-2665
▁among	-2666
▁butty	-2667
▁flour	-2668
▁mayor	-2669
▁berlin	-2670
▁placid	-2671
▁fallujah	-2672
▁religion	-2673
▁education	-2674
▁francisco	-2675
▁organization	-2676
97	-2677
▁̇	-2678
305	-2679
ano	-2680
bol	-2681
eym	-2682
olv	-2683
ord	-2684
ual	-2685
▁09	-2686
▁26	-2687
▁33	-2688
chup	-2689
iece	-2690
rimp	-2691
ught	-2692
▁176	-2693
▁978	-2694
▁fio	-2695
▁ket	-2696
▁muf	-2697
anger	-2698
ocano	-2699
▁barm	-2700
▁smas	-2701
▁usaf	-2702
▁weym	-2703
▁awadh	-2704
▁other	-2705
▁owner	-2706
▁piece	-2707
▁sands	-2708
▁short	-2709
▁100305	-2710
▁fought	-2711
▁involv	-2712
▁muffin	-2713
▁organs	-2714
▁sanger	-2715
▁shrimp	-2716
▁fiorent	-2717
▁ketchup	-2718
▁weymouth	-2719
▁footballer	-2720
67	-2721
du	-2722
ach	-2723
ery	-2724
hen	-2725
ican	-2726
ries	-2727
▁159	-2728
▁ink	-2729
▁rut	-2730
▁kore	-2731
▁pall	-2732
▁filip	-2733
▁given	-2734
▁local	-2735
▁place	-2736
▁polit	-2737
▁rasher	-2738
▁smashed	-2739
aph	-2740
atu	-2741
eez	-2742
izo	-2743
▁01	-2744
▁53	-2745
▁fk	-2746
atus	-2747
burn	-2748
itan	-2749
onym	-2750
yled	-2751
▁cob	-2752
▁lim	-2753
▁tel	-2754
▁typ	-2755
elery	-2756
orizo	-2757
▁1987	-2758
▁chil	-2759
▁jack	-2760
hitler	-2761
▁belly	-2762
▁birth	-2763
▁celery	-2764
▁gerard	-2765
▁poales	-2766
▁squeez	-2767
▁status	-2768
▁wilson	-2769
▁worked	-2770
▁chorizo	-2771
▁africans	-2772
▁standard	-2773
▁buildings	-2774
▁commander	-2775
▁fiorentina	-2776
▁mathematica	-2777
▁construction	-2778
ila	-2779
oug	-2780
▁52	-2781
oger	-2782
▁amh	-2783
▁bal	-2784
▁cam	-2785
▁sal	-2786
▁ses	-2787
▁ter	-2788
erson	-2789
▁1976	-2790
▁3800	-2791
▁doug	-2792
▁land	-2793
▁pale	-2794
▁aired	-2795
▁cyril	-2796
▁later	-2797
▁produ	-2798
hitleri	-2799
▁center	-2800
▁commel	-2801
▁ramaph	-2802
▁sesame	-2803
▁demonym	-2804
▁michael	-2805
▁involved	-2806
▁squeezed	-2807
▁hungarica	-2808
64	-2809
▁í	-2810
aca	-2811
las	-2812
osa	-2813
ambo	-2814
aper	-2815
ayas	-2816
sity	-2817
▁cul	-2818
▁gra	-2819
▁had	-2820
▁jak	-2821
lough	-2822
▁1931	-2823
▁once	-2824
▁salv	-2825
otyled	-2826
▁auron	-2827
▁paper	-2828
▁zambo	-2829
▁ícolo	-2830
ainment	-2831
▁seagle	-2832
▁stoger	-2833
loughlin	-2834
otyledon	-2835
▁cameron	-2836
▁charles	-2837
▁visayas	-2838
▁commelin	-2839
▁zamboang	-2840
▁countries	-2841
▁northwest	-2842
▁paperback	-2843
▁ramaphosa	-2844
▁mcloughlin	-2845
▁architecture	-2846
▁monocotyledon	-2847
74	-2848
ode	-2849
oza	-2850
berg	-2851
lins	-2852
▁jal	-2853
▁lab	-2854
▁sci	-2855
orino	-2856
▁1904	-2857
▁1980	-2858
▁cold	-2859
▁gram	-2860
▁pain	-2861
atrick	-2862
▁neigh	-2863
▁entert	-2864
▁worden	-2865
▁cullins	-2866
▁jakarta	-2867
▁mendoza	-2868
▁patrick	-2869
▁salvador	-2870
▁operation	-2871
▁originally	-2872
▁publication	-2873
▁entertainment	-2874
pa	-2875
cci	-2876
oga	-2877
▁32	-2878
adal	-2879
apán	-2880
ativ	-2881
ceiv	-2882
ochi	-2883
ucci	-2884
vers	-2885
▁911	-2886
▁aus	-2887
anges	-2888
ansas	-2889
▁dave	-2890
▁laur	-2891
▁puig	-2892
▁zmir	-2893
yahoga	-2894
▁arena	-2895
▁grand	-2896
▁hired	-2897
▁kochi	-2898
▁ganges	-2899
▁guadal	-2900
▁kansas	-2901
▁jalisco	-2902
▁metapán	-2903
▁panucci	-2904
▁cuyahoga	-2905
▁christian	-2906
▁commelinids	-2907
▁zamboangans	-2908
60	-2909
win	-2910
▁ha	-2911
▁hu	-2912
bhai	-2913
ogao	-2914
ufth	-2915
üner	-2916
▁mas	-2917
▁sim	-2918
▁tic	-2919
▁1913	-2920
▁1986	-2921
▁viag	-2922
▁warm	-2923
ceived	-2924
▁after	-2925
▁aniti	-2926
▁chief	-2927
▁edwin	-2928
▁falls	-2929
▁hogao	-2930
▁lufth	-2931
▁tudor	-2932
umberto	-2933
▁akties	-2934
▁albany	-2935
▁balder	-2936
▁labour	-2937
▁ticino	-2938
▁density	-2939
▁asherton	-2940
▁guadalaj	-2941
▁humberto	-2942
▁condiment	-2943
▁sehitleri	-2944
▁headquarter	-2945
31	-2946
32	-2947
77	-2948
the	-2949
▁94	-2950
▁ce	-2951
ekom	-2952
park	-2953
vard	-2954
▁108	-2955
▁211	-2956
▁546	-2957
▁anb	-2958
▁rod	-2959
ekomst	-2960
grethe	-2961
▁10000	-2962
▁16000	-2963
▁roger	-2964
▁brooke	-2965
▁korean	-2966
▁polish	-2967
▁harvard	-2968
▁lufthav	-2969
▁olympic	-2970
▁anderson	-2971
▁colombia	-2972
▁fullname	-2973
▁toekomst	-2974
▁margrethe	-2975
▁sportpark	-2976
▁guadalajara	-2977
ada	-2978
gue	-2979
ibb	-2980
uma	-2981
▁02	-2982
0000	-2983
adio	-2984
guez	-2985
iver	-2986
lung	-2987
race	-2988
▁ham	-2989
essex	-2990
iches	-2991
rique	-2992
▁3180	-2993
▁batt	-2994
▁dian	-2995
▁fish	-2996
▁zuma	-2997
ariant	-2998
ischen	-2999
lungen	-3000
▁anbar	-3001
▁arepa	-3002
▁essex	-3003
▁genus	-3004
▁irish	-3005
▁start	-3006
▁abhand	-3007
▁rivers	-3008
▁cornish	-3009
▁georges	-3010
▁hamburg	-3011
▁seminar	-3012
▁terrace	-3013
▁variant	-3014
▁graduate	-3015
▁plantain	-3016
▁received	-3017
▁sandwiches	-3018
▁abhandlungen	-3019
▁mathematischen	-3020
aik	-3021
alo	-3022
aut	-3023
che	-3024
eto	-3025
ián	-3026
▁ore	-3027
▁put	-3028
ffalo	-3029
iacao	-3030
▁igor	-3031
▁naik	-3032
▁then	-3033
ronaut	-3034
▁arabs	-3035
▁nieto	-3036
eringue	-3037
▁common	-3038
▁minced	-3039
▁solent	-3040
▁arabian	-3041
▁buffalo	-3042
▁compete	-3043
▁enrique	-3044
▁roberts	-3045
▁meringue	-3046
▁astronaut	-3047
▁blackwell	-3048
▁columbian	-3049
▁sebastian	-3050
▁sebastián	-3051
adi	-3052
ald	-3053
lia	-3054
viv	-3055
▁08	-3056
▁70	-3057
▁oy	-3058
azio	-3059
chel	-3060
etts	-3061
ford	-3062
iale	-3063
inor	-3064
ling	-3065
nada	-3066
wald	-3067
öger	-3068
▁eal	-3069
▁ern	-3070
achus	-3071
vival	-3072
▁2060	-3073
▁away	-3074
▁cape	-3075
▁cott	-3076
▁fute	-3077
▁pass	-3078
▁vila	-3079
dorman	-3080
▁boris	-3081
▁chall	-3082
▁clube	-3083
▁ernie	-3084
▁guanc	-3085
▁hails	-3086
▁lazio	-3087
▁anglia	-3088
▁igorot	-3089
▁maiden	-3090
▁oyster	-3091
▁grenada	-3092
▁revival	-3093
achusetts	-3094
▁december	-3095
▁lufthavn	-3096
▁stanford	-3097
▁challinor	-3098
▁christmas	-3099
▁ealdorman	-3100
▁guanciale	-3101
▁agremiacao	-3102
▁containing	-3103
▁headquartered	-3104
▁massachusetts	-3105
85	-3106
407	-3107
api	-3108
lar	-3109
oca	-3110
ped	-3111
▁05	-3112
▁ps	-3113
▁we	-3114
esen	-3115
▁280	-3116
▁dol	-3117
▁hol	-3118
▁luc	-3119
▁mer	-3120
▁pep	-3121
40714	-3122
akles	-3123
cific	-3124
lande	-3125
other	-3126
▁2008	-3127
▁4000	-3128
▁date	-3129
▁fern	-3130
▁more	-3131
▁nova	-3132
▁pick	-3133
▁tapi	-3134
▁wall	-3135
atives	-3136
▁citiz	-3137
▁fight	-3138
▁steve	-3139
helwald	-3140
▁auburn	-3141
▁dollar	-3142
▁another	-3143
▁battles	-3144
▁futebol	-3145
▁neighbo	-3146
▁serving	-3147
▁tapioca	-3148
▁60040714	-3149
▁aurakles	-3150
▁fernando	-3151
▁hollande	-3152
▁included	-3153
▁limerick	-3154
▁potatoes	-3155
▁specific	-3156
▁ellington	-3157
28	-3158
ck	-3159
gn	-3160
270	-3161
arl	-3162
ded	-3163
ied	-3164
kab	-3165
▁51	-3166
2709	-3167
aric	-3168
enza	-3169
form	-3170
haca	-3171
ring	-3172
▁odd	-3173
alegn	-3174
▁3528	-3175
▁8000	-3176
▁diaz	-3177
▁koln	-3178
▁mahe	-3179
▁tesh	-3180
▁tink	-3181
redded	-3182
ressed	-3183
▁70634	-3184
▁advis	-3185
fection	-3186
▁attack	-3187
▁hailem	-3188
▁ithaca	-3189
▁passed	-3190
▁steven	-3191
▁stöger	-3192
▁teshome	-3193
▁tinkham	-3194
▁80002709	-3195
▁desalegn	-3196
▁doctoral	-3197
▁pallesen	-3198
▁seminary	-3199
▁shredded	-3200
▁compressed	-3201
▁confection	-3202
94	-3203
253	-3204
alm	-3205
erm	-3206
▁60	-3207
▁dy	-3208
▁ur	-3209
etti	-3210
ough	-3211
ures	-3212
▁497	-3213
▁973	-3214
▁hel	-3215
ariam	-3216
opped	-3217
ropol	-3218
▁4253	-3219
▁cost	-3220
▁past	-3221
▁anton	-3222
▁james	-3223
▁names	-3224
▁oddie	-3225
▁psalm	-3226
▁river	-3227
▁urich	-3228
▁blanco	-3229
▁series	-3230
▁atlanta	-3231
▁chopped	-3232
▁operate	-3233
▁perform	-3234
ropolitan	-3235
▁hailemariam	-3236
▁metropolitan	-3237
226	-3238
uqu	-3239
yum	-3240
▁km	-3241
▁sv	-3242
aple	-3243
asan	-3244
code	-3245
omet	-3246
▁bos	-3247
▁fal	-3248
aheim	-3249
erque	-3250
ether	-3251
▁1998	-3252
▁arts	-3253
▁conc	-3254
▁shir	-3255
▁walt	-3256
acones	-3257
▁maple	-3258
▁while	-3259
yumasan	-3260
▁albuqu	-3261
▁boston	-3262
▁edited	-3263
▁former	-3264
▁amharic	-3265
▁anaheim	-3266
▁commonly	-3267
▁fighting	-3268
▁postcode	-3269
▁produced	-3270
▁patacones	-3271
▁publishes	-3272
▁banyumasan	-3273
▁albuquerque	-3274
21	-3275
ca	-3276
iu	-3277
vd	-3278
ely	-3279
oin	-3280
▁er	-3281
▁up	-3282
amin	-3283
cill	-3284
edom	-3285
▁fre	-3286
▁klu	-3287
▁qiu	-3288
cilla	-3289
itman	-3290
▁blvd	-3291
▁dane	-3292
▁marv	-3293
▁rock	-3294
▁univ	-3295
namics	-3296
overona	-3297
▁nether	-3298
▁panama	-3299
▁player	-3300
▁telang	-3301
▁advisor	-3302
▁freedom	-3303
▁general	-3304
▁mexican	-3305
▁shirley	-3306
▁whitman	-3307
▁dynamics	-3308
▁morcilla	-3309
▁management	-3310
▁netherland	-3311
▁confectionery	-3312
33	-3313
ät	-3314
ón	-3315
eme	-3316
hal	-3317
▁47	-3318
ambg	-3319
iano	-3320
ileo	-3321
▁abh	-3322
▁emp	-3323
▁gal	-3324
▁ren	-3325
altic	-3326
aracy	-3327
ysics	-3328
▁2777	-3329
▁bart	-3330
▁dark	-3331
▁dest	-3332
▁mata	-3333
▁wolt	-3334
▁beach	-3335
▁carri	-3336
▁eagle	-3337
▁hambg	-3338
▁spall	-3339
▁studi	-3340
▁affair	-3341
▁baltic	-3342
▁falcon	-3343
▁fruits	-3344
▁garden	-3345
▁graeme	-3346
▁kluwer	-3347
▁parana	-3348
▁texans	-3349
▁antonio	-3350
▁austria	-3351
▁coaracy	-3352
▁filling	-3353
▁galileo	-3354
▁luciano	-3355
▁physics	-3356
▁wolters	-3357
▁categoriz	-3358
▁chicharon	-3359
▁performed	-3360
▁riverside	-3361
▁telangana	-3362
▁australian	-3363
▁universität	-3364
▁chievoverona	-3365
▁neighbouring	-3366
92	-3367
øk	-3368
360	-3369
ols	-3370
ulo	-3371
▁da	-3372
5978	-3373
esel	-3374
iaol	-3375
illi	-3376
nell	-3377
onse	-3378
økke	-3379
▁896	-3380
▁agr	-3381
▁ann	-3382
▁vic	-3383
licop	-3384
ulous	-3385
▁9364	-3386
▁into	-3387
▁lega	-3388
▁mols	-3389
onseca	-3390
▁kesel	-3391
▁tejan	-3392
▁youth	-3393
iaolong	-3394
▁become	-3395
▁chilli	-3396
▁comics	-3397
▁deploy	-3398
▁citizen	-3399
▁dollars	-3400
▁douglas	-3401
▁fonseca	-3402
▁helicop	-3403
▁million	-3404
▁typical	-3405
▁wolfman	-3406
▁93645978	-3407
▁fillings	-3408
▁populous	-3409
▁kilometre	-3410
▁spalletti	-3411
ib	-3412
843	-3413
ahm	-3414
apt	-3415
inn	-3416
ocr	-3417
ows	-3418
ver	-3419
alop	-3420
elli	-3421
gree	-3422
mond	-3423
orri	-3424
otto	-3425
rini	-3426
▁you	-3427
anuel	-3428
ensis	-3429
ermic	-3430
ocrat	-3431
▁2776	-3432
▁bold	-3433
▁ceph	-3434
▁find	-3435
▁karl	-3436
▁moro	-3437
▁rahm	-3438
▁rand	-3439
alopod	-3440
elskab	-3441
▁colon	-3442
▁cuban	-3443
▁feder	-3444
▁horri	-3445
▁laura	-3446
▁løkke	-3447
▁mcdon	-3448
▁degree	-3449
▁office	-3450
▁tejano	-3451
▁vermic	-3452
▁desmond	-3453
▁emanuel	-3454
▁estadio	-3455
▁ilocano	-3456
▁started	-3457
▁airports	-3458
▁boldrini	-3459
▁carriers	-3460
▁democrat	-3461
▁filipino	-3462
▁horrigan	-3463
▁xiaolong	-3464
▁cubanelle	-3465
▁lauraceae	-3466
▁cephalopod	-3467
▁federation	-3468
▁vermicelli	-3469
▁categorized	-3470
▁nationality	-3471
34	-3472
da	-3473
oğ	-3474
pi	-3475
▁!	-3476
805	-3477
823	-3478
ken	-3479
urt	-3480
wis	-3481
▁87	-3482
▁kv	-3483
cell	-3484
enny	-3485
nder	-3486
oğlu	-3487
resh	-3488
▁121	-3489
▁448	-3490
▁bet	-3491
▁fin	-3492
ician	-3493
▁1981	-3494
▁1985	-3495
▁apul	-3496
▁nurt	-3497
▁slic	-3498
000823	-3499
chelen	-3500
▁30843	-3501
▁fresh	-3502
▁kenny	-3503
▁motto	-3504
▁stock	-3505
▁using	-3506
▁excell	-3507
▁meride	-3508
▁87000823	-3509
▁creators	-3510
▁enduring	-3511
▁mechelen	-3512
▁apulensis	-3513
▁competing	-3514
▁davutoğlu	-3515
▁mcdonnell	-3516
▁nurturing	-3517
▁stockport	-3518
▁excellence	-3519
▁helicopter	-3520
▁politician	-3521
▁aktieselskab	-3522
ix	-3523
ku	-3524
xn	-3525
371	-3526
468	-3527
ele	-3528
ght	-3529
gon	-3530
ney	-3531
raj	-3532
sit	-3533
usa	-3534
▁57	-3535
▁fa	-3536
arif	-3537
aulo	-3538
inat	-3539
kuas	-3540
omot	-3541
oyet	-3542
rese	-3543
▁bri	-3544
▁gus	-3545
▁hub	-3546
▁mel	-3547
▁mov	-3548
46863	-3549
▁appe	-3550
▁enda	-3551
▁gene	-3552
▁gula	-3553
▁hous	-3554
▁kail	-3555
▁some	-3556
▁soya	-3557
amsche	-3558
inster	-3559
rarese	-3560
▁19238	-3561
▁39371	-3562
▁adsit	-3563
▁arion	-3564
▁dried	-3565
▁faber	-3566
▁icolo	-3567
▁paulo	-3568
▁poyet	-3569
▁sousa	-3570
▁union	-3571
omotive	-3572
▁awards	-3573
▁bright	-3574
▁melaka	-3575
▁michel	-3576
▁oregon	-3577
▁person	-3578
▁putraj	-3579
▁sharif	-3580
▁sliced	-3581
▁tender	-3582
▁chester	-3583
▁vicenza	-3584
▁89646863	-3585
▁berliner	-3586
▁lengkuas	-3587
▁carrarese	-3588
▁lokomotive	-3589
▁represented	-3590
▁chesterfield	-3591
▁amsterdamsche	-3592
ky	-3593
zo	-3594
adt	-3595
kan	-3596
ots	-3597
rov	-3598
▁13	-3599
▁sq	-3600
▁tv	-3601
0025	-3602
aude	-3603
fish	-3604
gram	-3605
ored	-3606
▁bab	-3607
▁cut	-3608
▁not	-3609
▁qar	-3610
▁1988	-3611
▁iata	-3612
▁like	-3613
▁real	-3614
▁sage	-3615
iensis	-3616
ustadt	-3617
▁bhaji	-3618
▁chili	-3619
▁colan	-3620
elsberg	-3621
inatown	-3622
tlefish	-3623
▁claude	-3624
▁height	-3625
▁lankan	-3626
▁noodle	-3627
▁preser	-3628
▁torino	-3629
▁wiener	-3630
▁alexand	-3631
▁carroll	-3632
▁jackson	-3633
▁nearest	-3634
▁program	-3635
▁schipol	-3636
▁authored	-3637
▁neustadt	-3638
▁australia	-3639
▁chinatown	-3640
▁craftsman	-3641
▁putrajaya	-3642
▁architects	-3643
▁babelsberg	-3644
▁cuttlefish	-3645
▁aarhusiensis	-3646
rl	-3647
349	-3648
380	-3649
pur	-3650
▁50	-3651
▁78	-3652
2246	-3653
2550	-3654
7059	-3655
ajji	-3656
cema	-3657
gory	-3658
uala	-3659
▁292	-3660
▁512	-3661
▁670	-3662
▁fox	-3663
▁lit	-3664
▁mac	-3665
▁men	-3666
▁out	-3667
▁rec	-3668
▁stv	-3669
alted	-3670
olone	-3671
terix	-3672
▁1174	-3673
▁1800	-3674
▁4349	-3675
▁5739	-3676
▁alab	-3677
▁alth	-3678
▁anti	-3679
▁rank	-3680
allots	-3681
riguez	-3682
▁03380	-3683
▁17684	-3684
▁57059	-3685
▁92550	-3686
▁broth	-3687
▁chair	-3688
▁kuala	-3689
▁perth	-3690
▁squid	-3691
▁140000	-3692
▁cookie	-3693
▁kailan	-3694
▁lumpur	-3695
▁rovers	-3696
▁salted	-3697
▁asterix	-3698
▁buscema	-3699
▁cottage	-3700
▁freshly	-3701
▁gregory	-3702
▁magistr	-3703
▁57059226	-3704
▁although	-3705
▁rosaceae	-3706
▁shallots	-3707
▁bartolone	-3708
▁districts	-3709
▁broadcasting	-3710
▁publications	-3711
no	-3712
ér	-3713
327	-3714
392	-3715
abi	-3716
gro	-3717
kin	-3718
led	-3719
lyn	-3720
▁04	-3721
▁24	-3722
9618	-3723
achs	-3724
amno	-3725
asha	-3726
baan	-3727
eles	-3728
▁900	-3729
▁bac	-3730
▁eth	-3731
▁gér	-3732
▁hok	-3733
▁jos	-3734
▁ret	-3735
artel	-3736
iacos	-3737
▁0002	-3738
▁1908	-3739
▁1909	-3740
▁2215	-3741
▁8392	-3742
▁9327	-3743
▁arms	-3744
▁bari	-3745
▁dick	-3746
▁dill	-3747
▁huss	-3748
▁lamb	-3749
▁owns	-3750
▁palm	-3751
achsen	-3752
amnoon	-3753
▁17685	-3754
▁69618	-3755
▁diane	-3756
▁carles	-3757
▁gérard	-3758
▁hartel	-3759
▁knight	-3760
▁latter	-3761
▁manual	-3762
▁random	-3763
▁alabama	-3764
▁antioch	-3765
▁gardner	-3766
▁hussain	-3767
▁lambien	-3768
▁mamnoon	-3769
▁menasha	-3770
▁rutland	-3771
▁sachsen	-3772
▁57392246	-3773
▁addition	-3774
▁brooklyn	-3775
▁chairman	-3776
▁columbia	-3777
▁counties	-3778
▁movement	-3779
▁preserves	-3780
▁rodriguez	-3781
▁magistrate	-3782
▁olympiacos	-3783
58	-3784
gp	-3785
188	-3786
317	-3787
900	-3788
des	-3789
erv	-3790
gar	-3791
iah	-3792
ird	-3793
obi	-3794
oms	-3795
ora	-3796
▁ll	-3797
▁sl	-3798
6315	-3799
6798	-3800
dele	-3801
gpac	-3802
▁167	-3803
▁sen	-3804
▁são	-3805
▁use	-3806
delez	-3807
helor	-3808
▁0001	-3809
▁1820	-3810
▁1911	-3811
▁2744	-3812
▁8364	-3813
▁dece	-3814
▁josé	-3815
▁lanc	-3816
▁loin	-3817
ashire	-3818
▁23900	-3819
▁about	-3820
▁bajji	-3821
▁carpi	-3822
▁duane	-3823
▁phill	-3824
▁pugin	-3825
▁simon	-3826
▁sugar	-3827
▁tamil	-3828
6798317	-3829
▁apgpac	-3830
▁fenves	-3831
▁rupiah	-3832
▁writer	-3833
ervative	-3834
obiology	-3835
ontology	-3836
▁erected	-3837
▁83646315	-3838
▁augustus	-3839
▁bachelor	-3840
▁deceased	-3841
▁mondelez	-3842
▁rutaceae	-3843
▁condiments	-3844
▁lancashire	-3845
▁conservative	-3846
▁paleobiology	-3847
▁paleontology	-3848
ln	-3849
zi	-3850
aju	-3851
eyr	-3852
off	-3853
ona	-3854
orw	-3855
teo	-3856
tta	-3857
uad	-3858
uin	-3859
zie	-3860
öln	-3861
7711	-3862
hare	-3863
imes	-3864
ldon	-3865
▁101	-3866
▁500	-3867
▁arn	-3868
▁mil	-3869
▁vit	-3870
acker	-3871
emont	-3872
ility	-3873
▁4150	-3874
▁5300	-3875
▁bibb	-3876
▁dale	-3877
▁fact	-3878
▁four	-3879
▁fuad	-3880
▁here	-3881
▁köln	-3882
▁lyle	-3883
▁mold	-3884
▁peng	-3885
▁seat	-3886
▁vorw	-3887
▁ximo	-3888
ancois	-3889
kenzie	-3890
▁abadi	-3891
▁breaz	-3892
▁devel	-3893
▁inter	-3894
▁renzi	-3895
▁somet	-3896
▁steyr	-3897
▁these	-3898
▁ukrop	-3899
▁valer	-3900
haretta	-3901
▁787711	-3902
▁admira	-3903
▁airman	-3904
▁daniel	-3905
▁haider	-3906
▁matteo	-3907
▁sports	-3908
▁wacker	-3909
▁houston	-3910
▁moldoff	-3911
▁penguin	-3912
▁playing	-3913
▁sheldon	-3914
▁76798317	-3915
▁francois	-3916
▁mckenzie	-3917
▁brazilian	-3918
▁sometimes	-3919
▁alpharetta	-3920
02	-3921
95	-3922
üs	-3923
üt	-3924
156	-3925
517	-3926
920	-3927
ilo	-3928
mut	-3929
pot	-3930
▁55	-3931
▁uj	-3932
ahar	-3933
ange	-3934
awaz	-3935
hard	-3936
irby	-3937
oard	-3938
olat	-3939
rust	-3940
tain	-3941
▁214	-3942
▁388	-3943
▁464	-3944
▁abu	-3945
▁aka	-3946
▁büt	-3947
▁hüs	-3948
▁lee	-3949
▁paz	-3950
51790	-3951
insky	-3952
loilo	-3953
place	-3954
▁0567	-3955
▁2900	-3956
▁3310	-3957
▁3648	-3958
▁7156	-3959
▁7920	-3960
▁cohn	-3961
▁faro	-3962
▁gary	-3963
▁jong	-3964
▁over	-3965
▁resp	-3966
▁vaju	-3967
▁vala	-3968
▁viet	-3969
idered	-3970
namese	-3971
▁bolat	-3972
▁codes	-3973
▁event	-3974
▁frang	-3975
▁güner	-3976
▁kirby	-3977
▁larry	-3978
▁nawaz	-3979
▁puigd	-3980
▁ranks	-3981
▁reith	-3982
▁ujang	-3983
▁works	-3984
▁zahar	-3985
ongside	-3986
▁aboard	-3987
▁arnhem	-3988
▁dillin	-3989
▁employ	-3990
▁helmut	-3991
▁pastry	-3992
▁spring	-3993
▁varied	-3994
▁angeles	-3995
▁bütüner	-3996
▁cookies	-3997
▁develop	-3998
▁faroese	-3999
▁hüseyin	-4000
▁vitesse	-4001
▁46451790	-4002
▁alongside	-4003
▁inhabited	-4004
▁birthplace	-4005
▁bolatinsky	-4006
▁considered	-4007
▁vietnamese	-4008
88	-4009
rí	-4010
æt	-4011
ahn	-4012
bat	-4013
dul	-4014
ees	-4015
imp	-4016
isd	-4017
ize	-4018
por	-4019
raa	-4020
▁bs	-4021
▁ep	-4022
▁æt	-4023
abag	-4024
aduy	-4025
ared	-4026
edah	-4027
mine	-4028
rett	-4029
ured	-4030
▁507	-4031
▁don	-4032
▁fat	-4033
▁hav	-4034
▁jur	-4035
crust	-4036
ipane	-4037
ories	-4038
stone	-4039
▁1533	-4040
▁2011	-4041
▁3990	-4042
▁boer	-4043
▁jahn	-4044
▁jill	-4045
▁just	-4046
▁oraa	-4047
impico	-4048
▁abdul	-4049
▁baduy	-4050
▁books	-4051
▁kedah	-4052
▁lives	-4053
▁masum	-4054
▁often	-4055
▁serve	-4056
▁study	-4057
▁having	-4058
▁iloilo	-4059
▁jurisd	-4060
▁malatu	-4061
▁provid	-4062
▁rector	-4063
▁rosids	-4064
▁carmine	-4065
▁garrett	-4066
▁qarabag	-4067
▁stories	-4068
▁coloured	-4069
▁desserts	-4070
▁olimpico	-4071
▁shilling	-4072
▁vajubhai	-4073
▁commanded	-4074
▁employees	-4075
▁following	-4076
▁infantino	-4077
▁æthelwald	-4078
▁alexandria	-4079
▁frangipane	-4080
▁shortcrust	-4081
▁solanaceae	-4082
▁jurisdiction	-4083
69	-4084
ep	-4085
131	-4086
cot	-4087
ema	-4088
omb	-4089
▁48	-4090
▁63	-4091
▁id	-4092
▁vo	-4093
arch	-4094
empe	-4095
erto	-4096
erts	-4097
iety	-4098
inos	-4099
owda	-4100
pers	-4101
vine	-4102
▁374	-4103
▁bed	-4104
▁him	-4105
▁hon	-4106
▁roy	-4107
▁sve	-4108
▁uab	-4109
▁1080	-4110
▁1873	-4111
▁3000	-4112
▁bent	-4113
▁bomb	-4114
▁hook	-4115
▁last	-4116
▁marc	-4117
▁mark	-4118
▁meas	-4119
▁mish	-4120
▁near	-4121
▁size	-4122
▁sons	-4123
incial	-4124
landic	-4125
ursema	-4126
▁26131	-4127
▁baron	-4128
▁gowda	-4129
▁kempe	-4130
▁light	-4131
vinegro	-4132
▁brasil	-4133
▁combat	-4134
▁inkpot	-4135
▁mascot	-4136
▁picked	-4137
▁potter	-4138
▁puerto	-4139
▁founder	-4140
▁llocano	-4141
▁mishkin	-4142
▁monarch	-4143
▁natives	-4144
▁peppers	-4145
▁duursema	-4146
▁leinster	-4147
▁alvinegro	-4148
▁filipinos	-4149
▁sanderson	-4150
▁provincial	-4151
▁puigdemont	-4152
▁greenlandic	-4153
71	-4154
hy	-4155
bya	-4156
chi	-4157
ein	-4158
ple	-4159
sea	-4160
tus	-4161
zil	-4162
▁75	-4163
▁qu	-4164
ella	-4165
iles	-4166
onsa	-4167
wick	-4168
▁120	-4169
▁286	-4170
▁her	-4171
▁kup	-4172
▁pec	-4173
▁pes	-4174
▁pic	-4175
▁pir	-4176
andon	-4177
ibbon	-4178
innah	-4179
urist	-4180
▁1114	-4181
▁1700	-4182
▁1964	-4183
▁3360	-4184
▁3992	-4185
▁5000	-4186
▁bury	-4187
▁chel	-4188
▁conn	-4189
▁quay	-4190
▁such	-4191
▁time	-4192
▁worl	-4193
aminer	-4194
ardian	-4195
▁ethic	-4196
▁kolin	-4197
▁libya	-4198
▁milan	-4199
ination	-4200
perberg	-4201
▁afonsa	-4202
▁attica	-4203
▁danish	-4204
▁denzil	-4205
▁events	-4206
▁greeks	-4207
▁jinnah	-4208
▁pakora	-4209
▁pepper	-4210
▁picchi	-4211
▁pirate	-4212
▁ribbon	-4213
▁romano	-4214
▁virtus	-4215
▁armando	-4216
▁brandon	-4217
▁chelsea	-4218
▁chilton	-4219
▁classed	-4220
▁entella	-4221
▁francis	-4222
▁indians	-4223
▁pickard	-4224
▁regions	-4225
▁tourist	-4226
▁appeared	-4227
▁competes	-4228
▁concerts	-4229
▁examiner	-4230
▁guardian	-4231
▁pecorino	-4232
▁philippe	-4233
▁simonson	-4234
▁political	-4235
▁associated	-4236
▁democratic	-4237
▁kupperberg	-4238
▁destination	-4239
▁efxeinoupoli	-4240
bs	-4241
oa	-4242
we	-4243
735	-4244
cin	-4245
iga	-4246
ous	-4247
rog	-4248
▁42	-4249
erns	-4250
ever	-4251
heda	-4252
iben	-4253
inst	-4254
ould	-4255
rald	-4256
tein	-4257
wall	-4258
▁476	-4259
▁518	-4260
▁765	-4261
▁ace	-4262
▁dis	-4263
▁eit	-4264
▁gos	-4265
▁kim	-4266
▁len	-4267
▁mob	-4268
▁str	-4269
▁too	-4270
cinny	-4271
▁1411	-4272
▁1732	-4273
▁2421	-4274
▁8805	-4275
▁drog	-4276
▁host	-4277
▁slay	-4278
▁wein	-4279
▁anand	-4280
▁genoa	-4281
▁giles	-4282
▁offer	-4283
▁patel	-4284
▁recip	-4285
▁third	-4286
▁trade	-4287
▁world	-4288
instein	-4289
portiva	-4290
▁111484	-4291
▁belong	-4292
▁either	-4293
▁herald	-4294
▁kimber	-4295
▁second	-4296
▁8805735	-4297
▁governs	-4298
▁munster	-4299
▁protein	-4300
▁society	-4301
▁78771100	-4302
▁brasilia	-4303
▁drogheda	-4304
▁goscinny	-4305
▁measures	-4306
▁mobility	-4307
▁operator	-4308
▁anandiben	-4309
▁feinstein	-4310
▁legislative	-4311
▁originating	-4312
▁williamsburg	-4313
▁representatives	-4314
89	-4315
dr	-4316
wy	-4317
370	-4318
632	-4319
947	-4320
965	-4321
elf	-4322
jas	-4323
rix	-4324
uzz	-4325
wyn	-4326
âne	-4327
ște	-4328
▁40	-4329
▁92	-4330
▁op	-4331
anta	-4332
aptă	-4333
bohy	-4334
iate	-4335
ilar	-4336
uzzi	-4337
wise	-4338
érix	-4339
▁110	-4340
▁301	-4341
▁gor	-4342
▁mul	-4343
▁ord	-4344
▁via	-4345
alows	-4346
esque	-4347
hnese	-4348
inson	-4349
istic	-4350
rough	-4351
▁0269	-4352
▁0965	-4353
▁1473	-4354
▁1588	-4355
▁2140	-4356
▁2632	-4357
▁5571	-4358
▁9370	-4359
▁abbr	-4360
▁atal	-4361
▁ball	-4362
▁bare	-4363
▁bird	-4364
▁bung	-4365
▁dino	-4366
▁ster	-4367
amater	-4368
bohydr	-4369
▁13017	-4370
▁56947	-4371
▁amahe	-4372
▁annie	-4373
▁chris	-4374
▁cyrus	-4375
▁dește	-4376
▁dunne	-4377
▁honey	-4378
▁pound	-4379
▁shown	-4380
▁types	-4381
▁vance	-4382
▁colwyn	-4383
▁dianne	-4384
▁disney	-4385
▁gordon	-4386
▁itself	-4387
▁little	-4388
▁mulatu	-4389
▁orange	-4390
▁române	-4391
▁servic	-4392
▁strong	-4393
▁astérix	-4394
▁barejas	-4395
▁consist	-4396
▁manuzzi	-4397
▁marsden	-4398
▁odinson	-4399
▁offered	-4400
▁printed	-4401
▁rosales	-4402
▁senator	-4403
▁similar	-4404
▁studios	-4405
▁through	-4406
▁acehnese	-4407
▁atalanta	-4408
▁champion	-4409
▁cornwall	-4410
▁sterling	-4411
▁tenanted	-4412
▁almamater	-4413
▁ballistic	-4414
▁bungalows	-4415
▁carbohydr	-4416
▁deportiva	-4417
▁deșteaptă	-4418
▁doctorate	-4419
▁otherwise	-4420
▁brazilians	-4421
▁chicharron	-4422
▁graduating	-4423
▁romanesque	-4424
▁broadcasted	-4425
▁development	-4426
47	-4427
023	-4428
290	-4429
uce	-4430
▁62	-4431
▁84	-4432
▁pa	-4433
4770	-4434
4811	-4435
adiq	-4436
ance	-4437
arst	-4438
ffer	-4439
gene	-4440
godi	-4441
head	-4442
iena	-4443
illo	-4444
klas	-4445
mere	-4446
olds	-4447
spor	-4448
ules	-4449
uter	-4450
ween	-4451
▁524	-4452
▁597	-4453
▁aet	-4454
▁ahn	-4455
▁foc	-4456
▁hui	-4457
▁lam	-4458
▁max	-4459
▁mot	-4460
▁pur	-4461
▁raf	-4462
▁zar	-4463
agoza	-4464
ardar	-4465
berts	-4466
enese	-4467
ishes	-4468
itake	-4469
ociac	-4470
uting	-4471
▁1558	-4472
▁1961	-4473
▁2702	-4474
▁2868	-4475
▁2989	-4476
▁3048	-4477
▁ahri	-4478
▁ayaz	-4479
▁know	-4480
▁mach	-4481
▁page	-4482
▁pict	-4483
▁soup	-4484
002539	-4485
klasse	-4486
ríguez	-4487
▁17023	-4488
▁47290	-4489
▁50000	-4490
▁arbor	-4491
▁below	-4492
▁finch	-4493
▁holds	-4494
▁rican	-4495
▁robur	-4496
▁sadiq	-4497
▁siena	-4498
▁since	-4499
ections	-4500
fferent	-4501
▁204770	-4502
▁carrie	-4503
▁dishes	-4504
▁eugene	-4505
▁hearst	-4506
▁motion	-4507
▁offers	-4508
▁patten	-4509
▁purple	-4510
▁romane	-4511
▁sardar	-4512
▁should	-4513
▁america	-4514
▁asociac	-4515
▁between	-4516
▁geering	-4517
▁88002539	-4518
▁huiberts	-4519
▁javenese	-4520
▁karnatka	-4521
▁kimberly	-4522
▁services	-4523
▁starring	-4524
▁tranmere	-4525
▁zaragoza	-4526
▁affiliate	-4527
▁computing	-4528
▁different	-4529
▁distribut	-4530
▁rodríguez	-4531
▁aethelwald	-4532
▁connections	-4533
▁netherlands	-4534
▁carbohydrates	-4535
fu	-4536
ud	-4537
244	-4538
250	-4539
afs	-4540
ari	-4541
chd	-4542
cht	-4543
oen	-4544
rón	-4545
▁aa	-4546
▁nj	-4547
▁rb	-4548
apta	-4549
bass	-4550
chap	-4551
umpl	-4552
çois	-4553
▁arl	-4554
▁bas	-4555
▁nor	-4556
▁occ	-4557
▁que	-4558
▁scd	-4559
▁win	-4560
24459	-4561
blish	-4562
cules	-4563
eapta	-4564
ectiv	-4565
egodi	-4566
elkab	-4567
oench	-4568
ually	-4569
▁1046	-4570
▁1929	-4571
▁1971	-4572
▁1982	-4573
▁1995	-4574
▁3078	-4575
▁4564	-4576
▁8188	-4577
▁gale	-4578
▁lett	-4579
▁make	-4580
▁tofu	-4581
chdale	-4582
illari	-4583
▁27250	-4584
▁arrow	-4585
▁compl	-4586
▁dumpl	-4587
▁focus	-4588
▁queen	-4589
▁resid	-4590
afschap	-4591
erlecht	-4592
▁ambass	-4593
▁brewer	-4594
▁collin	-4595
▁covers	-4596
▁moench	-4597
▁norway	-4598
▁philip	-4599
▁postal	-4600
ectively	-4601
▁authors	-4602
▁bombing	-4603
▁castrov	-4604
▁lettuce	-4605
▁notable	-4606
▁peoples	-4607
▁studied	-4608
▁32024459	-4609
▁45644811	-4610
▁dumpling	-4611
▁finished	-4612
▁françois	-4613
▁georgian	-4614
▁hercules	-4615
▁laurales	-4616
▁managing	-4617
▁pictures	-4618
▁provided	-4619
▁rochdale	-4620
▁arlington	-4621
▁bentegodi	-4622
▁desteapta	-4623
▁minicipal	-4624
▁ambassador	-4625
▁anderlecht	-4626
▁chicharrón	-4627
▁compliment	-4628
▁graafschap	-4629
▁publishers	-4630
▁aktieselkab	-4631
▁respectively	-4632
▁castrovillari	-4633
82	-4634
ki	-4635
145	-4636
443	-4637
531	-4638
aaj	-4639
ays	-4640
par	-4641
ted	-4642
▁65	-4643
▁83	-4644
▁ai	-4645
▁hq	-4646
▁ms	-4647
ahle	-4648
ancy	-4649
half	-4650
irus	-4651
iset	-4652
mood	-4653
olet	-4654
olph	-4655
▁800	-4656
▁992	-4657
▁dim	-4658
▁ego	-4659
▁fut	-4660
▁how	-4661
▁kap	-4662
▁mus	-4663
▁rud	-4664
▁sap	-4665
▁shi	-4666
▁srl	-4667
arton	-4668
ented	-4669
halid	-4670
ianza	-4671
inery	-4672
owski	-4673
▁0443	-4674
▁1121	-4675
▁1360	-4676
▁6377	-4677
▁beds	-4678
▁kabi	-4679
▁maya	-4680
▁nice	-4681
▁62145	-4682
▁alter	-4683
▁drake	-4684
▁gates	-4685
▁harry	-4686
▁lewis	-4687
▁occup	-4688
▁route	-4689
▁sahle	-4690
▁spata	-4691
indales	-4692
▁amhaaj	-4693
▁atiset	-4694
▁behalf	-4695
▁cesana	-4696
▁clancy	-4697
▁during	-4698
▁flight	-4699
▁futbol	-4700
▁khalid	-4701
▁violet	-4702
▁warton	-4703
ictional	-4704
▁catania	-4705
▁however	-4706
▁kapitan	-4707
▁mahmood	-4708
▁publish	-4709
▁rudolph	-4710
▁several	-4711
▁alkmaair	-4712
▁computer	-4713
▁hardback	-4714
▁hardwick	-4715
▁invented	-4716
▁keystone	-4717
▁monarchy	-4718
▁shephard	-4719
▁shiitake	-4720
▁belonging	-4721
▁fictional	-4722
▁machinery	-4723
▁originate	-4724
▁cottingham	-4725
▁sapindales	-4726
▁californian	-4727
▁springfield	-4728
▁turkmenabat	-4729
▁additionally	-4730
▁championship	-4731
41	-4732
53	-4733
bi	-4734
ea	-4735
ug	-4736
ád	-4737
▁#	-4738
▁ş	-4739
501	-4740
502	-4741
633	-4742
858	-4743
alp	-4744
arr	-4745
def	-4746
dyk	-4747
ean	-4748
inz	-4749
irm	-4750
oln	-4751
set	-4752
tis	-4753
▁49	-4754
▁66	-4755
▁if	-4756
▁ud	-4757
aced	-4758
aint	-4759
apid	-4760
cabi	-4761
corn	-4762
cour	-4763
erry	-4764
gano	-4765
iced	-4766
itol	-4767
rlam	-4768
utch	-4769
ádio	-4770
ärts	-4771
▁360	-4772
▁733	-4773
▁abe	-4774
▁feb	-4775
▁imp	-4776
▁lal	-4777
▁mod	-4778
▁opp	-4779
▁pos	-4780
▁scr	-4781
alpat	-4782
arese	-4783
beral	-4784
court	-4785
derzo	-4786
ersea	-4787
▁0025	-4788
▁0633	-4789
▁1878	-4790
▁5858	-4791
▁7653	-4792
▁amar	-4793
▁aviv	-4794
▁cept	-4795
▁ered	-4796
▁fire	-4797
▁firm	-4798
▁linc	-4799
▁link	-4800
▁lord	-4801
▁nebr	-4802
▁ring	-4803
▁stra	-4804
▁turn	-4805
805501	-4806
define	-4807
ivener	-4808
ivisie	-4809
▁53502	-4810
▁byron	-4811
▁chung	-4812
▁dutch	-4813
▁featu	-4814
▁homet	-4815
▁irlam	-4816
▁jamie	-4817
▁jerry	-4818
▁parts	-4819
▁rapid	-4820
▁saint	-4821
▁tudyk	-4822
▁aiport	-4823
▁albert	-4824
▁bodley	-4825
▁calero	-4826
▁cities	-4827
▁curtis	-4828
▁dalpat	-4829
▁dimmit	-4830
▁factor	-4831
▁halton	-4832
▁impact	-4833
▁obtain	-4834
▁offset	-4835
▁ordway	-4836
▁persea	-4837
▁portug	-4838
▁prepar	-4839
▁samuel	-4840
▁southe	-4841
▁titled	-4842
▁uderzo	-4843
▁varese	-4844
▁alianza	-4845
▁capitol	-4846
▁estádio	-4847
▁focused	-4848
▁justice	-4849
▁lalbhai	-4850
▁liberal	-4851
▁lincoln	-4852
▁maccabi	-4853
▁modling	-4854
▁nicknam	-4855
▁oregano	-4856
▁runcorn	-4857
▁stevens	-4858
▁udinese	-4859
▁wizards	-4860
▁49805501	-4861
▁amarillo	-4862
▁harcourt	-4863
▁hometown	-4864
▁jacobean	-4865
▁nebraska	-4866
▁original	-4867
▁redefine	-4868
▁surfaced	-4869
▁turkmenb	-4870
▁vorwärts	-4871
▁bibbowski	-4872
▁democrats	-4873
▁formation	-4874
▁scrivener	-4875
▁eredivisie	-4876
▁properties	-4877
▁throughout	-4878
▁preparation	-4879
▁inauguration	-4880
▁southeastern	-4881
▁representative	-4882
72	-4883
91	-4884
fc	-4885
öd	-4886
746	-4887
ali	-4888
aná	-4889
bct	-4890
ión	-4891
lcn	-4892
roe	-4893
war	-4894
▁ca	-4895
9173	-4896
akar	-4897
amer	-4898
amie	-4899
arts	-4900
ashi	-4901
chan	-4902
ches	-4903
hito	-4904
idbi	-4905
▁201	-4906
▁533	-4907
▁ado	-4908
▁aki	-4909
▁app	-4910
▁ari	-4911
▁ata	-4912
▁blo	-4913
▁dup	-4914
▁eis	-4915
▁möd	-4916
▁top	-4917
▁tor	-4918
▁tri	-4919
▁utc	-4920
aheer	-4921
erned	-4922
isode	-4923
lated	-4924
▁3746	-4925
▁4100	-4926
▁5196	-4927
▁8820	-4928
▁fair	-4929
▁fans	-4930
▁kell	-4931
▁liga	-4932
▁llcn	-4933
▁nock	-4934
▁pure	-4935
▁rona	-4936
▁sbct	-4937
▁wars	-4938
akaria	-4939
amergh	-4940
ondiss	-4941
▁aarus	-4942
▁anwar	-4943
▁bibbo	-4944
▁bones	-4945
▁hosts	-4946
▁radio	-4947
chanics	-4948
omsbury	-4949
▁aaidbi	-4950
▁arifin	-4951
▁dupage	-4952
▁eisner	-4953
▁headed	-4954
▁jamali	-4955
▁lemons	-4956
▁manley	-4957
▁monroe	-4958
▁paraná	-4959
▁stands	-4960
▁voiced	-4961
▁zaheer	-4962
▁episode	-4963
▁matches	-4964
▁mödling	-4965
▁prequel	-4966
▁primary	-4967
▁zakaria	-4968
▁51969173	-4969
▁consists	-4970
▁nockalls	-4971
▁pallotta	-4972
▁phillipp	-4973
▁portugal	-4974
▁position	-4975
▁vorwarts	-4976
▁arrondiss	-4977
▁blackburn	-4978
▁concerned	-4979
▁mechanics	-4980
▁nicknamed	-4981
▁topklasse	-4982
▁bloomsbury	-4983
▁kellamergh	-4984
▁affiliation	-4985
▁turkmenbashi	-4986
▁arrondissement	-4987
ts	-4988
uv	-4989
064	-4990
084	-4991
153	-4992
eer	-4993
era	-4994
hes	-4995
lue	-4996
neb	-4997
rus	-4998
sth	-4999
uem	-5000
▁ft	-5001
▁ss	-5002
0840	-5003
1887	-5004
4114	-5005
5313	-5006
acab	-5007
ajib	-5008
anao	-5009
ante	-5010
azak	-5011
igor	-5012
lend	-5013
lubu	-5014
ning	-5015
ower	-5016
utal	-5017
▁233	-5018
▁814	-5019
▁982	-5020
▁990	-5021
▁asa	-5022
▁def	-5023
▁fam	-5024
▁gig	-5025
▁jon	-5026
▁lic	-5027
▁spa	-5028
80153	-5029
ayton	-5030
azing	-5031
chell	-5032
edict	-5033
hesda	-5034
iraca	-5035
ridge	-5036
▁0236	-5037
▁1818	-5038
▁1936	-5039
▁5294	-5040
▁9064	-5041
▁blue	-5042
▁cong	-5043
▁haag	-5044
▁lame	-5045
▁mind	-5046
▁most	-5047
▁pier	-5048
▁shuv	-5049
▁step	-5050
agamie	-5051
astery	-5052
nebago	-5053
ointed	-5054
▁44114	-5055
▁abbrv	-5056
▁batak	-5057
▁carbs	-5058
▁clubs	-5059
▁epsth	-5060
▁genre	-5061
▁glend	-5062
▁jacab	-5063
▁klubu	-5064
▁liter	-5065
▁najib	-5066
▁onion	-5067
▁razak	-5068
▁rooms	-5069
▁still	-5070
▁vigor	-5071
▁appear	-5072
▁bridge	-5073
▁citrus	-5074
▁coming	-5075
▁crewed	-5076
▁famous	-5077
▁living	-5078
▁musuem	-5079
▁though	-5080
18875313	-5081
▁1480153	-5082
▁akihito	-5083
▁amazing	-5084
▁clayton	-5085
▁gigante	-5086
▁leading	-5087
▁limited	-5088
▁primera	-5089
▁recipes	-5090
▁90640840	-5091
▁benedict	-5092
▁bethesda	-5093
▁congress	-5094
▁designer	-5095
▁landmark	-5096
▁mindanao	-5097
▁mitchell	-5098
▁obtained	-5099
▁resident	-5100
▁aircrafts	-5101
▁appointed	-5102
▁arapiraca	-5103
▁designers	-5104
▁ethiopian	-5105
▁glendower	-5106
▁monastery	-5107
▁outagamie	-5108
▁winnebago	-5109
▁dalpatbhai	-5110
▁salvadoran	-5111
▁distributed	-5112
▁phillippines	-5113
ws	-5114
784	-5115
ior	-5116
joy	-5117
ned	-5118
oli	-5119
oly	-5120
qui	-5121
rav	-5122
urd	-5123
zia	-5124
▁00	-5125
▁bc	-5126
▁go	-5127
▁ny	-5128
amal	-5129
amon	-5130
bani	-5131
cara	-5132
deen	-5133
fino	-5134
ilts	-5135
inzo	-5136
laim	-5137
liga	-5138
mill	-5139
thly	-5140
uila	-5141
▁248	-5142
▁404	-5143
▁bsc	-5144
▁gem	-5145
▁got	-5146
▁hab	-5147
▁jep	-5148
▁mcc	-5149
▁num	-5150
▁rul	-5151
▁ski	-5152
acity	-5153
areer	-5154
avson	-5155
ienna	-5156
manus	-5157
ravis	-5158
▁2012	-5159
▁2158	-5160
▁3226	-5161
▁3400	-5162
▁3684	-5163
▁8784	-5164
▁aber	-5165
▁bask	-5166
▁bern	-5167
▁eber	-5168
▁erie	-5169
▁foun	-5170
▁gust	-5171
▁kend	-5172
▁kurd	-5173
▁laan	-5174
▁lask	-5175
▁linz	-5176
▁mans	-5177
▁pred	-5178
▁rene	-5179
▁rené	-5180
▁said	-5181
▁sara	-5182
▁türk	-5183
▁vica	-5184
esliga	-5185
estina	-5186
ireann	-5187
quires	-5188
▁build	-5189
▁claim	-5190
▁damon	-5191
▁dilts	-5192
▁enjoy	-5193
▁facts	-5194
▁foods	-5195
▁grams	-5196
▁media	-5197
▁merit	-5198
▁plane	-5199
▁retir	-5200
▁voice	-5201
▁weber	-5202
▁westm	-5203
baniyah	-5204
opoulos	-5205
utalist	-5206
▁aguila	-5207
▁career	-5208
▁empoli	-5209
▁jepson	-5210
▁legion	-5211
▁lemper	-5212
▁mccune	-5213
▁novels	-5214
▁palace	-5215
▁penned	-5216
▁pierce	-5217
▁poland	-5218
▁rafael	-5219
▁retire	-5220
▁shamal	-5221
▁shinzo	-5222
▁travis	-5223
▁unione	-5224
▁vienna	-5225
▁warsaw	-5226
▁wayans	-5227
▁compris	-5228
▁defense	-5229
▁delfino	-5230
▁joining	-5231
▁kendall	-5232
▁kurdish	-5233
▁lamezia	-5234
▁locally	-5235
▁macmill	-5236
▁mcmanus	-5237
▁pescara	-5238
▁potenza	-5239
▁resides	-5240
▁solanum	-5241
▁stephen	-5242
▁version	-5243
▁working	-5244
▁aberdeen	-5245
▁capacity	-5246
▁eberhard	-5247
▁fairhead	-5248
▁features	-5249
▁fountain	-5250
▁jacabian	-5251
▁particip	-5252
▁requires	-5253
▁springer	-5254
▁318875313	-5255
▁brutalist	-5256
▁gustavson	-5257
▁triestina	-5258
▁bundesliga	-5259
▁habbaniyah	-5260
▁literature	-5261
▁australians	-5262
▁universitat	-5263
▁westminster	-5264
▁academically	-5265
▁pavloopoulos	-5266
▁undergraduate	-5267
▁transportation	-5268
19	-5269
dl	-5270
of	-5271
▁?	-5272
asy	-5273
baz	-5274
elv	-5275
gos	-5276
ito	-5277
row	-5278
wen	-5279
▁cr	-5280
▁im	-5281
alan	-5282
atot	-5283
augh	-5284
dies	-5285
erhe	-5286
erst	-5287
hbaz	-5288
herd	-5289
hind	-5290
oord	-5291
orit	-5292
pher	-5293
▁199	-5294
▁672	-5295
▁abi	-5296
▁aso	-5297
▁bry	-5298
▁cov	-5299
▁fav	-5300
▁lav	-5301
▁mao	-5302
▁nak	-5303
▁pay	-5304
▁pdl	-5305
▁ssd	-5306
adori	-5307
elvin	-5308
jamin	-5309
mania	-5310
ostle	-5311
▁1510	-5312
▁1773	-5313
▁1865	-5314
▁2194	-5315
▁2195	-5316
▁3090	-5317
▁4019	-5318
▁came	-5319
▁gior	-5320
▁hays	-5321
▁lane	-5322
▁owen	-5323
▁show	-5324
▁when	-5325
aminis	-5326
atotes	-5327
erhero	-5328
ipines	-5329
itoite	-5330
rolled	-5331
uthale	-5332
▁basko	-5333
▁colón	-5334
▁exact	-5335
▁heads	-5336
▁heard	-5337
▁noord	-5338
▁stone	-5339
oneiche	-5340
portant	-5341
rovirus	-5342
▁behind	-5343
▁fulton	-5344
▁kelvin	-5345
▁lavern	-5346
▁patron	-5347
▁placed	-5348
▁reside	-5349
▁senate	-5350
▁apostle	-5351
▁cowpher	-5352
▁giorgos	-5353
▁kaminis	-5354
▁koreans	-5355
▁largely	-5356
▁numbers	-5357
▁origins	-5358
▁related	-5359
▁respons	-5360
▁shehbaz	-5361
▁studies	-5362
▁actually	-5363
▁archarya	-5364
▁benjamin	-5365
▁gemstone	-5366
▁germania	-5367
▁nakadori	-5368
▁retiring	-5369
▁shepherd	-5370
▁shuvalan	-5371
▁appletone	-5372
▁benitoite	-5373
▁haputhale	-5374
▁important	-5375
▁macmillan	-5376
▁operators	-5377
▁potatotes	-5378
▁recipient	-5379
▁superhero	-5380
▁appearance	-5381
▁asociacion	-5382
▁asociación	-5383
▁ethnically	-5384
▁occupation	-5385
▁positioned	-5386
▁retirement	-5387
▁retrovirus	-5388
▁schoneiche	-5389
▁phillipines	-5390
▁istanbulspor	-5391
▁specifically	-5392
ik	-5393
ux	-5394
ña	-5395
şə	-5396
▁é	-5397
611	-5398
aan	-5399
ajw	-5400
cel	-5401
gun	-5402
kar	-5403
mad	-5404
wan	-5405
áil	-5406
▁54	-5407
▁mu	-5408
▁nv	-5409
abağ	-5410
adao	-5411
aigh	-5412
asts	-5413
iona	-5414
ique	-5415
issn	-5416
ject	-5417
lena	-5418
reek	-5419
▁310	-5420
▁560	-5421
▁873	-5422
▁877	-5423
▁asd	-5424
▁asō	-5425
▁atw	-5426
▁cfc	-5427
▁fas	-5428
▁sub	-5429
61102	-5430
aanst	-5431
agoas	-5432
aited	-5433
ample	-5434
arrar	-5435
inent	-5436
iroux	-5437
kabau	-5438
oming	-5439
peror	-5440
şəkar	-5441
▁1219	-5442
▁1925	-5443
▁1960	-5444
▁1978	-5445
▁1999	-5446
▁3453	-5447
▁aman	-5448
▁ando	-5449
▁birr	-5450
▁bozo	-5451
▁bren	-5452
▁cant	-5453
▁dhal	-5454
▁dáil	-5455
▁ever	-5456
▁fant	-5457
▁iron	-5458
▁kacy	-5459
▁kate	-5460
▁linn	-5461
▁nola	-5462
▁peso	-5463
▁peña	-5464
▁rajw	-5465
▁rick	-5466
alliga	-5467
celona	-5468
hammad	-5469
▁apium	-5470
▁begun	-5471
▁berry	-5472
▁creek	-5473
▁eissn	-5474
▁laird	-5475
▁malik	-5476
▁metro	-5477
▁salle	-5478
▁spend	-5479
▁tadao	-5480
atively	-5481
derbaan	-5482
kenhead	-5483
oritner	-5484
▁aplena	-5485
▁barrow	-5486
▁boasts	-5487
▁centre	-5488
▁criona	-5489
▁farrar	-5490
▁giroux	-5491
▁hardie	-5492
▁licita	-5493
▁minang	-5494
▁sparta	-5495
▁straus	-5496
▁zaanst	-5497
burgbaan	-5498
▁1461102	-5499
▁abbrevi	-5500
▁alagoas	-5501
▁amateur	-5502
▁brenner	-5503
▁bryning	-5504
▁colours	-5505
▁emperor	-5506
▁enjoyed	-5507
▁everett	-5508
▁example	-5509
▁fantasy	-5510
▁library	-5511
▁peşəkar	-5512
▁product	-5513
▁qarabağ	-5514
▁rafique	-5515
▁rajwana	-5516
▁ranking	-5517
▁stanbul	-5518
▁thought	-5519
▁usually	-5520
▁various	-5521
▁éireann	-5522
ification	-5523
▁becoming	-5524
▁cantania	-5525
▁citizens	-5526
▁dhalaigh	-5527
▁formerly	-5528
▁germanic	-5529
▁johannis	-5530
▁muhammad	-5531
▁neighbor	-5532
▁alexander	-5533
▁barcelona	-5534
▁ethnicity	-5535
▁organized	-5536
▁affilaited	-5537
▁birkenhead	-5538
▁favoritner	-5539
▁kilometers	-5540
▁williamson	-5541
▁zaanstreek	-5542
▁minangkabau	-5543
▁stanbulspor	-5544
▁regionalliga	-5545
▁alternatively	-5546
▁classification	-5547
gt	-5548
há	-5549
sv	-5550
▁`	-5551
599	-5552
aki	-5553
alb	-5554
als	-5555
arō	-5556
cer	-5557
emm	-5558
for	-5559
hip	-5560
ked	-5561
mil	-5562
ole	-5563
ree	-5564
rum	-5565
▁ae	-5566
▁cd	-5567
▁jp	-5568
▁lo	-5569
▁ní	-5570
▁pr	-5571
adeh	-5572
ajor	-5573
alph	-5574
ames	-5575
anes	-5576
emor	-5577
hews	-5578
hála	-5579
ible	-5580
ilst	-5581
inae	-5582
inar	-5583
kalb	-5584
look	-5585
oret	-5586
ousi	-5587
rior	-5588
ters	-5589
xton	-5590
▁102	-5591
▁131	-5592
▁349	-5593
▁618	-5594
▁678	-5595
▁apn	-5596
▁asb	-5597
▁crí	-5598
▁fsv	-5599
▁ins	-5600
▁kid	-5601
▁slk	-5602
▁vin	-5603
attle	-5604
donal	-5605
entiv	-5606
ified	-5607
respi	-5608
rovir	-5609
wanen	-5610
▁1973	-5611
▁2953	-5612
▁8002	-5613
▁bank	-5614
▁days	-5615
▁enge	-5616
▁exch	-5617
▁held	-5618
▁masa	-5619
▁meal	-5620
▁orth	-5621
▁prom	-5622
▁tarr	-5623
▁tarō	-5624
▁term	-5625
▁took	-5626
▁vice	-5627
▁wang	-5628
▁winn	-5629
arlemm	-5630
donald	-5631
ermeer	-5632
wickau	-5633
▁39599	-5634
▁adice	-5635
▁ahora	-5636
▁basil	-5637
▁dhála	-5638
▁dinar	-5639
▁elkin	-5640
▁engle	-5641
▁fland	-5642
▁games	-5643
▁gerst	-5644
▁iraqi	-5645
▁laugh	-5646
▁lucky	-5647
▁lulia	-5648
▁major	-5649
▁money	-5650
▁noted	-5651
▁padeh	-5652
▁payne	-5653
▁prior	-5654
▁ralph	-5655
▁texan	-5656
▁valor	-5657
▁venue	-5658
▁whole	-5659
▁asians	-5660
▁barney	-5661
▁benton	-5662
▁bombed	-5663
▁buxton	-5664
▁crespi	-5665
▁críona	-5666
▁dekalb	-5667
▁fourth	-5668
▁houses	-5669
▁kidney	-5670
▁lentiv	-5671
▁planes	-5672
▁predom	-5673
▁soccer	-5674
▁source	-5675
▁tanaka	-5676
▁vinoly	-5677
▁whilst	-5678
▁zwanen	-5679
▁7877110	-5680
▁bananas	-5681
▁bernard	-5682
▁centrum	-5683
▁granted	-5684
▁marousi	-5685
▁marriot	-5686
▁masaaki	-5687
▁mathews	-5688
▁outlook	-5689
▁project	-5690
▁randall	-5691
▁seattle	-5692
▁tarrant	-5693
▁zwickau	-5694
oretrovir	-5695
▁admisham	-5696
▁commemor	-5697
▁complete	-5698
▁dhálaigh	-5699
▁exchange	-5700
▁flanders	-5701
▁gerstman	-5702
▁haarlemm	-5703
▁laughlin	-5704
▁phillipe	-5705
▁provides	-5706
▁schuster	-5707
▁valencia	-5708
▁attending	-5709
▁dumplings	-5710
▁kilometer	-5711
▁macdonald	-5712
▁prominent	-5713
▁residence	-5714
▁residents	-5715
▁classified	-5716
▁completion	-5717
▁identified	-5718
▁lentivirus	-5719
▁neighbours	-5720
▁distributor	-5721
▁responsible	-5722
oretrovirinae	-5723
▁abbreviating	-5724
▁participated	-5725
▁haarlemmermeer	-5726
▁zwanenburgbaan	-5727
16	-5728
99	-5729
hi	-5730
rs	-5731
tı	-5732
uy	-5733
▁~	-5734
202	-5735
dam	-5736
ius	-5737
lew	-5738
ofd	-5739
oss	-5740
ıtı	-5741
▁69	-5742
▁bi	-5743
▁cf	-5744
▁do	-5745
▁ec	-5746
▁os	-5747
▁şe	-5748
0770	-5749
6031	-5750
afay	-5751
ette	-5752
iflo	-5753
imon	-5754
loin	-5755
odon	-5756
pena	-5757
pris	-5758
rete	-5759
wber	-5760
▁140	-5761
▁142	-5762
▁929	-5763
▁aro	-5764
▁aud	-5765
▁ave	-5766
▁cor	-5767
▁jes	-5768
▁joh	-5769
▁lie	-5770
▁lif	-5771
▁pet	-5772
▁saw	-5773
▁wal	-5774
aneer	-5775
arhus	-5776
betti	-5777
bsite	-5778
force	-5779
igned	-5780
ingly	-5781
onent	-5782
ossil	-5783
sital	-5784
tenaw	-5785
▁1200	-5786
▁2003	-5787
▁2439	-5788
▁2939	-5789
▁2988	-5790
▁3678	-5791
▁6573	-5792
▁7202	-5793
▁afas	-5794
▁ages	-5795
▁balg	-5796
▁caul	-5797
▁dept	-5798
▁dict	-5799
▁flav	-5800
▁flew	-5801
▁frit	-5802
▁goes	-5803
▁help	-5804
▁left	-5805
▁only	-5806
▁onto	-5807
▁rico	-5808
▁runs	-5809
▁smil	-5810
▁sqkm	-5811
▁tech	-5812
▁unre	-5813
▁wink	-5814
▁wort	-5815
eleine	-5816
ferred	-5817
ground	-5818
▁abrev	-5819
▁anıtı	-5820
▁bakou	-5821
▁bimon	-5822
▁doshi	-5823
▁frans	-5824
▁hoofd	-5825
▁lafay	-5826
▁penet	-5827
▁ruled	-5828
▁ruler	-5829
▁three	-5830
▁wever	-5831
▁wheat	-5832
iflower	-5833
ostbaan	-5834
ructure	-5835
viously	-5836
▁120770	-5837
▁adding	-5838
▁around	-5839
▁counts	-5840
▁fossil	-5841
▁inside	-5842
▁island	-5843
▁marcos	-5844
▁millar	-5845
▁orders	-5846
▁paneer	-5847
▁recipe	-5848
▁speaks	-5849
▁walked	-5850
▁capable	-5851
▁cooking	-5852
▁crewman	-5853
▁ecology	-5854
▁editors	-5855
▁monthly	-5856
▁stadion	-5857
▁website	-5858
▁winkler	-5859
▁airforce	-5860
▁assigned	-5861
▁barbetti	-5862
▁concrete	-5863
▁covering	-5864
▁enrolled	-5865
▁fritters	-5866
▁hopsital	-5867
▁institue	-5868
▁japanese	-5869
▁mendriso	-5870
▁parented	-5871
▁produces	-5872
▁referred	-5873
▁romanian	-5874
▁smilodon	-5875
▁strawber	-5876
▁balgalore	-5877
▁bimonthly	-5878
▁component	-5879
▁comprised	-5880
▁lafayette	-5881
▁madeleine	-5882
▁obviously	-5883
▁populated	-5884
▁structure	-5885
▁techology	-5886
▁washtenaw	-5887
▁şehitleri	-5888
▁polderbaan	-5889
▁scriptures	-5890
▁tenderloin	-5891
▁wellington	-5892
▁cauliflower	-5893
▁hoofdklasse	-5894
▁neighboring	-5895
35	-5896
42	-5897
43	-5898
76	-5899
86	-5900
aa	-5901
cq	-5902
eu	-5903
ga	-5904
hu	-5905
ma	-5906
▁_	-5907
265	-5908
372	-5909
467	-5910
509	-5911
635	-5912
ajo	-5913
ben	-5914
bro	-5915
buy	-5916
eda	-5917
eho	-5918
erd	-5919
erk	-5920
hro	-5921
idg	-5922
idi	-5923
iev	-5924
ily	-5925
its	-5926
mod	-5927
non	-5928
ors	-5929
ply	-5930
sga	-5931
sor	-5932
til	-5933
ult	-5934
▁43	-5935
▁74	-5936
▁81	-5937
▁ff	-5938
▁ia	-5939
▁mr	-5940
▁sn	-5941
▁tr	-5942
▁wi	-5943
alsm	-5944
aran	-5945
away	-5946
cqag	-5947
eces	-5948
ened	-5949
evin	-5950
hich	-5951
ieti	-5952
inzō	-5953
iten	-5954
itin	-5955
loys	-5956
ogan	-5957
okar	-5958
opia	-5959
oval	-5960
sown	-5961
tter	-5962
uria	-5963
vall	-5964
ñoly	-5965
▁019	-5966
▁107	-5967
▁144	-5968
▁161	-5969
▁194	-5970
▁219	-5971
▁258	-5972
▁268	-5973
▁324	-5974
▁336	-5975
▁337	-5976
▁347	-5977
▁368	-5978
▁411	-5979
▁429	-5980
▁469	-5981
▁470	-5982
▁523	-5983
▁535	-5984
▁609	-5985
▁682	-5986
▁686	-5987
▁746	-5988
▁755	-5989
▁776	-5990
▁783	-5991
▁817	-5992
▁914	-5993
▁972	-5994
▁ait	-5995
▁cas	-5996
▁fac	-5997
▁fly	-5998
▁fun	-5999
▁kke	-6000
▁law	-6001
▁tac	-6002
brook	-6003
bsidi	-6004
ently	-6005
euben	-6006
herty	-6007
ially	-6008
icans	-6009
illas	-6010
inant	-6011
ionis	-6012
ities	-6013
iverr	-6014
oured	-6015
pared	-6016
ranch	-6017
uphol	-6018
zzard	-6019
▁1104	-6020
▁1142	-6021
▁1296	-6022
▁1421	-6023
▁1600	-6024
▁1635	-6025
▁2743	-6026
▁3300	-6027
▁9001	-6028
▁anne	-6029
▁auck	-6030
▁does	-6031
▁eeho	-6032
▁hugh	-6033
▁inag	-6034
▁life	-6035
▁loca	-6036
▁look	-6037
▁mahé	-6038
▁neal	-6039
▁need	-6040
▁neil	-6041
▁seal	-6042
▁tait	-6043
▁tall	-6044
▁them	-6045
▁utaa	-6046
▁very	-6047
alillo	-6048
hrooms	-6049
league	-6050
modern	-6051
sgaard	-6052
vallis	-6053
▁12467	-6054
▁94509	-6055
▁94531	-6056
▁aalsm	-6057
▁addid	-6058
▁alley	-6059
▁apple	-6060
▁arist	-6061
▁begin	-6062
▁binig	-6063
▁child	-6064
▁chose	-6065
▁clerk	-6066
▁danes	-6067
▁field	-6068
▁flows	-6069
▁forms	-6070
▁halls	-6071
▁kevin	-6072
▁large	-6073
▁logan	-6074
▁lpena	-6075
▁movie	-6076
▁poace	-6077
▁puidg	-6078
▁sytle	-6079
▁until	-6080
▁virus	-6081
▁worth	-6082
▁years	-6083
ecessor	-6084
eerbaan	-6085
itenvel	-6086
tterdam	-6087
▁102372	-6088
▁336265	-6089
▁achiev	-6090
▁airpor	-6091
▁almost	-6092
▁ascqag	-6093
▁branch	-6094
▁cannon	-6095
▁chieti	-6096
▁colors	-6097
▁desert	-6098
▁format	-6099
▁hosted	-6100
▁licata	-6101
▁locals	-6102
▁mainly	-6103
▁navajo	-6104
▁ranked	-6105
▁romero	-6106
▁shinzō	-6107
▁showed	-6108
▁simply	-6109
▁vicent	-6110
▁viñoly	-6111
▁winner	-6112
bsidiary	-6113
▁aaarhus	-6114
▁adviser	-6115
▁antonis	-6116
▁ausitin	-6117
▁battled	-6118
▁control	-6119
▁dillian	-6120
▁eastman	-6121
▁eehoorn	-6122
▁ethiopa	-6123
▁ethopia	-6124
▁greater	-6125
▁hazzard	-6126
▁laselle	-6127
▁olympia	-6128
▁pesokar	-6129
▁runaway	-6130
▁steuben	-6131
▁surpris	-6132
▁turkeys	-6133
▁univerr	-6134
▁winning	-6135
▁auckland	-6136
▁casillas	-6137
▁comprise	-6138
▁dictates	-6139
▁división	-6140
▁facility	-6141
▁featured	-6142
▁fighters	-6143
▁governor	-6144
▁interest	-6145
▁memberrs	-6146
▁mexicans	-6147
▁milionis	-6148
▁occupied	-6149
▁oostbaan	-6150
▁performs	-6151
▁prepared	-6152
▁richland	-6153
▁sandoval	-6154
▁schuphol	-6155
▁spending	-6156
▁sumatran	-6157
▁airportis	-6158
▁alcobenda	-6159
▁antioquio	-6160
▁beginning	-6161
▁buitenvel	-6162
▁connected	-6163
▁contained	-6164
▁corvallis	-6165
▁developed	-6166
▁dougherty	-6167
▁fransisco	-6168
▁frenchman	-6169
▁involving	-6170
▁monuments	-6171
▁mushrooms	-6172
▁rotterdam	-6173
▁unrelated	-6174
▁amatricana	-6175
▁andalusian	-6176
▁bernalillo	-6177
▁bundsgaard	-6178
▁catalonian	-6179
▁controlled	-6180
▁glastonbuy	-6181
▁homeground	-6182
▁leadership	-6183
▁northbrook	-6184
▁officially	-6185
▁postmodern	-6186
▁puidgemont	-6187
▁subsidiary	-6188
▁abreviation	-6189
▁competition	-6190
▁harrietsown	-6191
▁predecessor	-6192
▁predominant	-6193
▁univerrsity	-6194
▁aalsmeerbaan	-6195
▁commemorated	-6196
▁representing	-6197
▁architetturia	-6198
▁participating	-6199
▁premierleague	-6200
06	-6201
55	-6202
93	-6203
co	-6204
nn	-6205
pp	-6206
sc	-6207
ús	-6208
▁+	-6209
867	-6210
aag	-6211
adm	-6212
aen	-6213
aft	-6214
aid	-6215
ath	-6216
auc	-6217
bia	-6218
day	-6219
ech	-6220
een	-6221
ess	-6222
iat	-6223
itt	-6224
len	-6225
lma	-6226
lus	-6227
met	-6228
oma	-6229
omp	-6230
reo	-6231
ser	-6232
tro	-6233
ude	-6234
umn	-6235
uza	-6236
ven	-6237
vir	-6238
vot	-6239
yon	-6240
▁06	-6241
▁64	-6242
▁82	-6243
▁95	-6244
▁ig	-6245
▁ly	-6246
▁nu	-6247
3523	-6248
3671	-6249
adly	-6250
ails	-6251
amrk	-6252
arft	-6253
ause	-6254
cons	-6255
dert	-6256
enho	-6257
gest	-6258
iers	-6259
ifth	-6260
igen	-6261
inck	-6262
inds	-6263
inic	-6264
into	-6265
iott	-6266
ipad	-6267
ives	-6268
izes	-6269
lion	-6270
ocol	-6271
pite	-6272
read	-6273
reiv	-6274
sing	-6275
titt	-6276
ucia	-6277
ulan	-6278
urat	-6279
▁001	-6280
▁008	-6281
▁123	-6282
▁202	-6283
▁205	-6284
▁215	-6285
▁238	-6286
▁265	-6287
▁305	-6288
▁333	-6289
▁334	-6290
▁344	-6291
▁346	-6292
▁453	-6293
▁458	-6294
▁486	-6295
▁490	-6296
▁505	-6297
▁541	-6298
▁573	-6299
▁575	-6300
▁657	-6301
▁703	-6302
▁714	-6303
▁734	-6304
▁770	-6305
▁806	-6306
▁adn	-6307
▁alt	-6308
▁api	-6309
▁bcc	-6310
▁det	-6311
▁fig	-6312
▁iin	-6313
▁izm	-6314
▁jet	-6315
▁nws	-6316
▁por	-6317
▁rsc	-6318
▁son	-6319
▁sqk	-6320
▁wic	-6321
▁zel	-6322
admia	-6323
aenau	-6324
agana	-6325
alone	-6326
arily	-6327
arned	-6328
asian	-6329
ataka	-6330
ately	-6331
atten	-6332
ction	-6333
ctore	-6334
dered	-6335
estin	-6336
heria	-6337
hseda	-6338
ional	-6339
itaba	-6340
lmaar	-6341
ompan	-6342
opher	-6343
osest	-6344
rnell	-6345
trodu	-6346
voted	-6347
▁0867	-6348
▁1099	-6349
▁1239	-6350
▁1299	-6351
▁2007	-6352
▁2013	-6353
▁ajob	-6354
▁alch	-6355
▁best	-6356
▁bian	-6357
▁bing	-6358
▁bolf	-6359
▁cauc	-6360
▁dail	-6361
▁denm	-6362
▁dery	-6363
▁give	-6364
▁kaag	-6365
▁late	-6366
▁lost	-6367
▁site	-6368
▁util	-6369
▁whet	-6370
▁xial	-6371
367194	-6372
ements	-6373
esburg	-6374
ippino	-6375
lusdes	-6376
oteles	-6377
urated	-6378
▁13123	-6379
▁aarhu	-6380
▁actor	-6381
▁allam	-6382
▁allan	-6383
▁alumn	-6384
▁arhus	-6385
▁bakew	-6386
▁barak	-6387
▁carry	-6388
▁costa	-6389
▁cover	-6390
▁daugh	-6391
▁death	-6392
▁dying	-6393
▁eenho	-6394
▁eliot	-6395
▁fifth	-6396
▁going	-6397
▁jesús	-6398
▁julie	-6399
▁jusef	-6400
▁kaila	-6401
▁karan	-6402
▁makes	-6403
▁meter	-6404
▁metre	-6405
▁outer	-6406
▁overs	-6407
▁pasta	-6408
▁round	-6409
▁sadly	-6410
▁snack	-6411
▁souza	-6412
▁subst	-6413
▁tarts	-6414
▁teams	-6415
▁today	-6416
▁tripp	-6417
▁winck	-6418
▁would	-6419
ibility	-6420
intoite	-6421
ocolate	-6422
versity	-6423
▁active	-6424
▁airbas	-6425
▁airing	-6426
▁airpot	-6427
▁akrons	-6428
▁better	-6429
▁billie	-6430
▁canyon	-6431
▁colman	-6432
▁contra	-6433
▁earned	-6434
▁easter	-6435
▁helped	-6436
▁julius	-6437
▁kheria	-6438
▁linked	-6439
▁mashed	-6440
▁needed	-6441
▁newark	-6442
▁oliver	-6443
▁opened	-6444
▁others	-6445
▁poacea	-6446
▁porius	-6447
▁sauces	-6448
▁stared	-6449
▁styled	-6450
▁tacoma	-6451
▁tayler	-6452
▁voutis	-6453
▁widely	-6454
▁wiliam	-6455
▁zeland	-6456
ariciana	-6457
dertbaan	-6458
erstöger	-6459
reivated	-6460
▁advance	-6461
▁aircaft	-6462
▁aklmaar	-6463
▁amongst	-6464
▁appears	-6465
▁bakwell	-6466
▁banaman	-6467
▁because	-6468
▁biggest	-6469
▁binigit	-6470
▁blaenau	-6471
▁carried	-6472
▁carrier	-6473
▁claimed	-6474
▁closest	-6475
▁denamrk	-6476
▁derives	-6477
▁despite	-6478
▁details	-6479
▁devoted	-6480
▁eireann	-6481
▁employs	-6482
▁ethinic	-6483
▁falcons	-6484
▁ffestin	-6485
▁flavour	-6486
▁focuses	-6487
▁follows	-6488
▁gujurat	-6489
▁heinlen	-6490
▁helipad	-6491
▁indigen	-6492
▁introdu	-6493
▁kuttitt	-6494
▁lansing	-6495
▁machine	-6496
▁mariott	-6497
▁passing	-6498
▁present	-6499
▁produce	-6500
▁runways	-6501
▁serverd	-6502
▁shitake	-6503
▁station	-6504
▁variety	-6505
▁willian	-6506
▁winners	-6507
▁xialong	-6508
▁27367194	-6509
▁accadmia	-6510
▁accompan	-6511
▁aircarft	-6512
▁albilene	-6513
▁alcharya	-6514
▁apiaceae	-6515
▁bethseda	-6516
▁bordered	-6517
▁conrnell	-6518
▁curitaba	-6519
▁daughter	-6520
▁eenhoorn	-6521
▁founding	-6522
▁infrareo	-6523
▁kaagbaan	-6524
▁locaated	-6525
▁overseen	-6526
▁preserve	-6527
▁products	-6528
▁projects	-6529
▁recently	-6530
▁sausages	-6531
▁senators	-6532
▁shuvulan	-6533
▁studiies	-6534
▁telagana	-6535
▁universi	-6536
▁wiconsin	-6537
▁winckler	-6538
▁bartalone	-6539
▁beintoite	-6540
▁benedicts	-6541
▁caucasian	-6542
▁chocolate	-6543
▁commenced	-6544
▁covington	-6545
▁deryshire	-6546
▁discipine	-6547
▁ethelwald	-6548
▁filippino	-6549
▁fiorentia	-6550
▁flavoured	-6551
▁inclusdes	-6552
▁influence	-6553
▁institude	-6554
▁lufthaven	-6555
▁measuring	-6556
▁obtaining	-6557
▁organised	-6558
▁primarily	-6559
▁sandwhich	-6560
▁therefore	-6561
▁unversity	-6562
▁attendance	-6563
▁commelinid	-6564
▁competitor	-6565
▁components	-6566
▁consisting	-6567
▁developers	-6568
▁foundation	-6569
▁graduation	-6570
▁inagurated	-6571
▁karanataka	-6572
▁legislated	-6573
▁membership	-6574
▁operationg	-6575
▁rebelllion	-6576
▁strawberry	-6577
▁zamboangan	-6578
▁abbreivated	-6579
▁aristoteles	-6580
▁authorities	-6581
▁christopher	-6582
▁educational	-6583
▁identifiers	-6584
▁peterstöger	-6585
▁visvesaraya	-6586
▁achievements	-6587
▁affiliations	-6588
▁commemorates	-6589
▁johannesburg	-6590
▁retroviruses	-6591
▁strawberries	-6592
▁surprisingly	-6593
▁confectionary	-6594
▁kuttittattoor	-6595
▁predominantly	-6596
▁categorization	-6597
▁responsibility	-6598
12	-6599
57	-6600
cn	-6601
ew	-6602
fo	-6603
gi	-6604
gm	-6605
gé	-6606
ll	-6607
me	-6608
ms	-6609
oo	-6610
pn	-6611
rz	-6612
td	-6613
uo	-6614
xt	-6615
yk	-6616
ót	-6617
#12	-6618
130	-6619
853	-6620
911	-6621
agp	-6622
agr	-6623
ala	-6624
asi	-6625
ava	-6626
avy	-6627
bic	-6628
boh	-6629
cal	-6630
din	-6631
eli	-6632
erc	-6633
gem	-6634
het	-6635
hez	-6636
hia	-6637
hon	-6638
iay	-6639
inp	-6640
iog	-6641
ipi	-6642
jji	-6643
lgi	-6644
mis	-6645
nad	-6646
nng	-6647
oia	-6648
olg	-6649
olo	-6650
onn	-6651
ory	-6652
ota	-6653
oto	-6654
oun	-6655
pon	-6656
prt	-6657
rox	-6658
rst	-6659
sse	-6660
tch	-6661
tes	-6662
tim	-6663
ued	-6664
ume	-6665
uns	-6666
ush	-6667
wam	-6668
xia	-6669
▁ax	-6670
▁ba	-6671
▁es	-6672
▁jv	-6673
▁kw	-6674
▁no	-6675
▁om	-6676
▁oo	-6677
▁tx	-6678
▁ul	-6679
▁vl	-6680
▁wa	-6681
#124	-6682
0017	-6683
1865	-6684
3500	-6685
5739	-6686
9346	-6687
aded	-6688
adii	-6689
afio	-6690
alia	-6691
alor	-6692
anne	-6693
apor	-6694
aret	-6695
aruk	-6696
asya	-6697
atur	-6698
bbie	-6699
do	-6700
sa	-6701
ars	-6702
bag	-6703
gat	-6704
iar	-6705
jis	-6706
kes	-6707
nit	-6708
ogr	-6709
vas	-6710
was	-6711
▁bv	-6712
anul	-6713
asia	-6714
bits	-6715
bnai	-6716
bour	-6717
cent	-6718
chem	-6719
chez	-6720
chil	-6721
cncy	-6722
cole	-6723
ders	-6724
ects	-6725
emia	-6726
enet	-6727
enil	-6728
ethe	-6729
etim	-6730
fess	-6731
fier	-6732
hing	-6733
hore	-6734
iago	-6735
idsh	-6736
ieth	-6737
ings	-6738
ites	-6739
itif	-6740
jeda	-6741
keep	-6742
loit	-6743
mont	-6744
msen	-6745
nark	-6746
oing	-6747
olan	-6748
onio	-6749
ooqu	-6750
pens	-6751
pino	-6752
ples	-6753
rein	-6754
rowd	-6755
shed	-6756
udor	-6757
uese	-6758
ukyk	-6759
ular	-6760
viag	-6761
vous	-6762
ways	-6763
wiay	-6764
wich	-6765
ying	-6766
▁306	-6767
▁473	-6768
▁484	-6769
▁722	-6770
▁744	-6771
▁939	-6772
▁989	-6773
▁aer	-6774
▁ans	-6775
▁asp	-6776
▁bag	-6777
▁bah	-6778
▁bib	-6779
▁bit	-6780
▁buh	-6781
▁clu	-6782
▁dad	-6783
▁day	-6784
▁far	-6785
▁few	-6786
▁fur	-6787
▁get	-6788
▁hom	-6789
▁ipn	-6790
▁isp	-6791
▁jap	-6792
▁jhu	-6793
▁juf	-6794
▁jun	-6795
▁lad	-6796
▁lll	-6797
▁lot	-6798
▁ltd	-6799
ht	-6800
jey	-6801
pri	-6802
▁ew	-6803
▁hs	-6804
acio	-6805
club	-6806
fman	-6807
icle	-6808
kway	-6809
ores	-6810
pain	-6811
ract	-6812
rrol	-6813
ultz	-6814
usen	-6815
writ	-6816
▁014	-6817
▁234	-6818
▁adr	-6819
▁chc	-6820
▁eas	-6821
▁lun	-6822
▁mix	-6823
▁mom	-6824
▁nad	-6825
▁non	-6826
▁nut	-6827
▁oft	-6828
▁old	-6829
▁opr	-6830
▁pad	-6831
▁pai	-6832
▁pey	-6833
▁phr	-6834
▁qra	-6835
▁ref	-6836
▁rem	-6837
▁say	-6838
▁set	-6839
▁sin	-6840
▁six	-6841
▁sng	-6842
▁spp	-6843
▁sun	-6844
▁sán	-6845
▁tem	-6846
▁thr	-6847
▁tur	-6848
▁uns	-6849
#124;	-6850
acacy	-6851
achoy	-6852
acted	-6853
aiduy	-6854
ained	-6855
anded	-6856
annel	-6857
aphic	-6858
aries	-6859
arjji	-6860
atest	-6861
biata	-6862
bijan	-6863
chema	-6864
child	-6865
edaba	-6866
einir	-6867
elika	-6868
enure	-6869
enyet	-6870
erous	-6871
esity	-6872
essen	-6873
ethup	-6874
etter	-6875
ewort	-6876
gamie	-6877
gemat	-6878
hbhai	-6879
iaita	-6880
iccal	-6881
ilmar	-6882
inham	-6883
inica	-6884
iphol	-6885
ipoia	-6886
isted	-6887
itled	-6888
itric	-6889
itude	-6890
laore	-6891
liate	-6892
løkke	-6893
metre	-6894
milan	-6895
nadon	-6896
olgoy	-6897
opted	-6898
orpor	-6899
flu	-6900
log	-6901
low	-6902
oke	-6903
▁97	-6904
aves	-6905
cted	-6906
etth	-6907
kanc	-6908
ogor	-6909
pard	-6910
sico	-6911
stut	-6912
tura	-6913
ulic	-6914
uway	-6915
▁aab	-6916
▁did	-6917
▁ele	-6918
▁tid	-6919
acado	-6920
attor	-6921
elled	-6922
erage	-6923
gethe	-6924
ients	-6925
kanci	-6926
rance	-6927
redit	-6928
reens	-6929
rlian	-6930
sippi	-6931
stian	-6932
tains	-6933
tudor	-6934
ughly	-6935
ulted	-6936
ultry	-6937
unded	-6938
urred	-6939
ussed	-6940
weber	-6941
which	-6942
▁1027	-6943
▁1033	-6944
▁1062	-6945
▁1950	-6946
▁1977	-6947
▁2746	-6948
▁3993	-6949
▁4534	-6950
▁aboc	-6951
▁adam	-6952
▁aeth	-6953
▁airo	-6954
▁akti	-6955
▁amad	-6956
▁amat	-6957
▁anth	-6958
▁ares	-6959
▁ayem	-6960
▁ayma	-6961
▁baju	-6962
▁bini	-6963
▁bone	-6964
▁case	-6965
▁cocc	-6966
▁coll	-6967
▁copy	-6968
▁cult	-6969
▁down	-6970
▁drag	-6971
▁dubb	-6972
▁earl	-6973
▁edna	-6974
▁eruo	-6975
▁even	-6976
▁exam	-6977
▁feat	-6978
▁ferd	-6979
▁ffil	-6980
▁frie	-6981
▁gain	-6982
▁goer	-6983
▁good	-6984
▁gray	-6985
▁grop	-6986
▁heed	-6987
▁hone	-6988
▁honk	-6989
▁hund	-6990
▁iden	-6991
▁inab	-6992
▁isnn	-6993
▁izmi	-6994
▁jako	-6995
▁javk	-6996
▁jets	-6997
▁jhon	-6998
▁jodo	-6999
eau	-7000
int	-7001
iun	-7002
oper	-7003
pare	-7004
racy	-7005
tary	-7006
vile	-7007
work	-7008
▁111	-7009
▁240	-7010
▁773	-7011
▁die	-7012
▁scn	-7013
▁usn	-7014
acons	-7015
arist	-7016
eline	-7017
etime	-7018
icine	-7019
onese	-7020
pines	-7021
▁asia	-7022
▁kark	-7023
▁kccn	-7024
▁kear	-7025
▁kwat	-7026
▁leve	-7027
▁limm	-7028
▁list	-7029
▁love	-7030
▁maad	-7031
▁newj	-7032
▁next	-7033
▁nove	-7034
▁ohia	-7035
▁oven	-7036
▁pard	-7037
▁patr	-7038
▁peda	-7039
▁pell	-7040
▁pens	-7041
▁pete	-7042
▁publ	-7043
▁punl	-7044
▁purs	-7045
▁rele	-7046
▁reps	-7047
▁rodg	-7048
▁rust	-7049
▁sanc	-7050
▁sarc	-7051
▁side	-7052
▁sits	-7053
▁stri	-7054
▁take	-7055
▁tast	-7056
▁tboh	-7057
▁teat	-7058
▁thea	-7059
▁thee	-7060
▁thge	-7061
▁tory	-7062
▁ulia	-7063
▁vary	-7064
▁viel	-7065
▁want	-7066
▁weap	-7067
▁what	-7068
▁whic	-7069
▁whom	-7070
▁whos	-7071
▁wide	-7072
▁wond	-7073
▁zone	-7074
▁zwam	-7075
action	-7076
adolfo	-7077
afiore	-7078
agpore	-7079
alevel	-7080
alonia	-7081
alucia	-7082
alusia	-7083
apollo	-7084
aporae	-7085
attern	-7086
boured	-7087
edburg	-7088
elhand	-7089
engana	-7090
ercian	-7091
frafts	-7092
gether	-7093
getown	-7094
grated	-7095
iatian	-7096
iatons	-7097
ically	-7098
icious	-7099
aek	-7100
aja	-7101
nel	-7102
rty	-7103
uim	-7104
2000	-7105
amai	-7106
ayed	-7107
bhal	-7108
ceae	-7109
cept	-7110
iett	-7111
itea	-7112
rick	-7113
sequ	-7114
shio	-7115
umed	-7116
▁330	-7117
▁634	-7118
▁any	-7119
▁enh	-7120
araja	-7121
asair	-7122
bread	-7123
ernay	-7124
oring	-7125
ready	-7126
risio	-7127
▁1938	-7128
▁amap	-7129
▁buss	-7130
▁fron	-7131
▁role	-7132
antial	-7133
estown	-7134
icting	-7135
idsham	-7136
inpane	-7137
isards	-7138
ishnan	-7139
istrup	-7140
itated	-7141
ithish	-7142
iville	-7143
leated	-7144
lgiion	-7145
metics	-7146
onesca	-7147
onesia	-7148
onnica	-7149
ooquia	-7150
ounted	-7151
ourite	-7152
parate	-7153
recncy	-7154
regodi	-7155
riquez	-7156
ructed	-7157
ruited	-7158
season	-7159
serdam	-7160
serman	-7161
singhe	-7162
tching	-7163
ulucia	-7164
umenet	-7165
ummsen	-7166
urpris	-7167
virons	-7168
vously	-7169
writer	-7170
ylania	-7171
ysbury	-7172
óteles	-7173
▁19963	-7174
▁20014	-7175
▁20843	-7176
▁30853	-7177
▁33310	-7178
▁56009	-7179
▁aabba	-7180
▁abiba	-7181
▁aboce	-7182
▁acced	-7183
▁adaba	-7184
▁addic	-7185
▁adnin	-7186
▁adofo	-7187
▁adult	-7188
▁altog	-7189
▁areas	-7190
▁asked	-7191
▁assad	-7192
▁augur	-7193
▁azeri	-7194
▁bakes	-7195
▁bbrev	-7196
▁bears	-7197
▁beech	-7198
▁befor	-7199
ruo	-7200
igns	-7201
tarō	-7202
▁ibn	-7203
▁taz	-7204
iates	-7205
mitia	-7206
nered	-7207
onsia	-7208
roxim	-7209
▁1984	-7210
▁ajaz	-7211
▁catt	-7212
▁leds	-7213
ieties	-7214
▁ayamp	-7215
▁begre	-7216
▁birgm	-7217
▁bltis	-7218
▁board	-7219
▁botto	-7220
▁bvake	-7221
▁byvir	-7222
▁calio	-7223
▁calls	-7224
▁cames	-7225
▁carol	-7226
▁cheiv	-7227
▁chool	-7228
▁close	-7229
▁coinc	-7230
▁cones	-7231
▁coper	-7232
▁crowd	-7233
▁crust	-7234
▁edger	-7235
▁edits	-7236
▁ellit	-7237
▁ended	-7238
▁fired	-7239
▁flyde	-7240
▁garcy	-7241
▁getts	-7242
▁helps	-7243
▁hergé	-7244
▁homes	-7245
▁icole	-7246
▁igbal	-7247
▁igoro	-7248
▁inged	-7249
▁inind	-7250
▁ipena	-7251
▁isagr	-7252
▁izmur	-7253
▁jamin	-7254
▁jesus	-7255
▁johan	-7256
▁joing	-7257
▁jufus	-7258
▁kalia	-7259
▁karat	-7260
▁kinds	-7261
▁kluwe	-7262
▁kotta	-7263
▁labor	-7264
▁lahor	-7265
▁latun	-7266
▁lcolo	-7267
▁legue	-7268
▁levle	-7269
▁likes	-7270
▁lived	-7271
▁looks	-7272
▁lqbal	-7273
▁lybia	-7274
▁lying	-7275
▁madum	-7276
▁masam	-7277
▁maths	-7278
▁metal	-7279
▁metes	-7280
▁might	-7281
▁miler	-7282
▁minus	-7283
▁moran	-7284
▁naran	-7285
▁natur	-7286
▁negro	-7287
▁night	-7288
▁nolan	-7289
▁nuber	-7290
▁orgin	-7291
▁palsa	-7292
▁parks	-7293
▁patry	-7294
▁paula	-7295
▁payed	-7296
▁pedes	-7297
▁petro	-7298
▁piero	-7299
▁pilor	-7300
▁plaid	-7301
▁proud	-7302
▁pubic	-7303
▁purch	-7304
▁putin	-7305
▁rated	-7306
▁reach	-7307
▁recor	-7308
▁rents	-7309
▁riced	-7310
▁roots	-7311
▁rules	-7312
▁ruway	-7313
▁salem	-7314
▁sates	-7315
▁sause	-7316
▁sergi	-7317
▁shows	-7318
▁sioay	-7319
▁sizes	-7320
▁slang	-7321
▁soger	-7322
▁souce	-7323
▁spoke	-7324
▁stint	-7325
▁stree	-7326
▁strip	-7327
▁susan	-7328
▁tachn	-7329
▁takes	-7330
▁tasty	-7331
▁trams	-7332
▁tukyk	-7333
▁turks	-7334
▁twent	-7335
▁ultim	-7336
▁undia	-7337
▁utter	-7338
▁valis	-7339
▁value	-7340
▁vegat	-7341
▁veter	-7342
▁vises	-7343
▁visit	-7344
▁whree	-7345
alusian	-7346
ceiving	-7347
centage	-7348
embered	-7349
emorial	-7350
enilids	-7351
enistan	-7352
ericans	-7353
eworthy	-7354
iettura	-7355
inately	-7356
inently	-7357
itifier	-7358
orities	-7359
porting	-7360
rentina	-7361
ridient	-7362
stutute	-7363
▁&#124;	-7364
▁111464	-7365
▁130017	-7366
▁achaya	-7367
▁addres	-7368
▁aeinir	-7369
▁agrrem	-7370
▁airort	-7371
▁airway	-7372
▁akhito	-7373
▁akiita	-7374
▁aldren	-7375
▁alumni	-7376
▁always	-7377
▁anbard	-7378
▁angolo	-7379
▁aranac	-7380
▁arnham	-7381
▁ashbat	-7382
▁asolfo	-7383
▁ataruk	-7384
▁baajji	-7385
▁bachoy	-7386
▁bacong	-7387
▁baiduy	-7388
▁basked	-7389
▁bataks	-7390
▁beoing	-7391
▁bhajii	-7392
▁bhajis	-7393
▁bianca	-7394
▁bianco	-7395
▁britan	-7396
▁britsh	-7397
▁brynng	-7398
▁carpri	-7399
▁clacio	-7400
▁claims	-7401
▁cluade	-7402
▁coccer	-7403
▁colton	-7404
▁copies	-7405
▁corpor	-7406
▁countr	-7407
▁crated	-7408
▁credit	-7409
▁debbie	-7410
▁demark	-7411
▁demogr	-7412
▁downed	-7413
▁dubbed	-7414
▁easily	-7415
▁elevel	-7416
▁elloit	-7417
▁engish	-7418
▁enjoys	-7419
▁entern	-7420
▁entity	-7421
▁esadii	-7422
▁except	-7423
▁fellow	-7424
▁fences	-7425
▁fenvas	-7426
▁figher	-7427
▁figter	-7428
▁figure	-7429
▁filled	-7430
▁forces	-7431
▁formed	-7432
▁friend	-7433
▁futebl	-7434
▁garard	-7435
▁garret	-7436
▁genada	-7437
▁goerge	-7438
▁grants	-7439
▁greens	-7440
▁grouns	-7441
▁guarat	-7442
▁gujura	-7443
▁highly	-7444
▁honour	-7445
▁hotels	-7446
▁hunger	-7447
▁icewas	-7448
▁iinflu	-7449
▁inagra	-7450
▁indain	-7451
▁istarō	-7452
▁jespon	-7453
▁julian	-7454
▁junior	-7455
▁kethup	-7456
▁latest	-7457
▁leased	-7458
▁leaves	-7459
▁lenght	-7460
▁letter	-7461
▁liking	-7462
▁lloilo	-7463
▁locaed	-7464
▁locale	-7465
▁lohore	-7466
▁looked	-7467
▁lunada	-7468
▁maddin	-7469
▁malaya	-7470
▁manage	-7471
▁manore	-7472
▁maryrs	-7473
▁matter	-7474
▁memory	-7475
▁mostly	-7476
▁mumbia	-7477
▁nearby	-7478
▁noords	-7479
▁nutrit	-7480
▁oddies	-7481
▁owning	-7482
▁padang	-7483
▁paired	-7484
▁panyet	-7485
▁parane	-7486
▁pedals	-7487
▁pedras	-7488
▁penhet	-7489
▁penjey	-7490
▁peyney	-7491
▁phrase	-7492
▁pounds	-7493
▁qrabag	-7494
▁ratten	-7495
▁reigns	-7496
▁resume	-7497
▁sanesh	-7498
▁separd	-7499
▁shakur	-7500
▁shamai	-7501
▁shiraf	-7502
▁slices	-7503
▁snacks	-7504
▁speech	-7505
▁stated	-7506
▁stores	-7507
▁strret	-7508
▁stuary	-7509
▁temper	-7510
▁things	-7511
▁torini	-7512
▁tsipra	-7513
▁turmen	-7514
▁unites	-7515
▁upkeep	-7516
▁usnavy	-7517
▁valcio	-7518
▁verses	-7519
▁vitsse	-7520
▁warren	-7521
▁wheeer	-7522
▁widoto	-7523
▁withre	-7524
▁wonder	-7525
▁worthy	-7526
▁youths	-7527
▁zwamem	-7528
57392246	-7529
76798317	-7530
anulspor	-7531
gematica	-7532
istrated	-7533
stitutes	-7534
utalethe	-7535
▁adopted	-7536
▁adrmore	-7537
▁aidsham	-7538
▁airline	-7539
▁airoprt	-7540
▁airpori	-7541
▁airpoty	-7542
▁alcatrz	-7543
▁aldrein	-7544
▁alfonso	-7545
▁already	-7546
▁alumnus	-7547
▁amapara	-7548
▁amitric	-7549
▁asilmar	-7550
▁aspects	-7551
▁attends	-7552
▁avacado	-7553
▁avenure	-7554
▁average	-7555
▁bagator	-7556
▁bahajji	-7557
▁bakewel	-7558
▁bakewll	-7559
▁banjeda	-7560
▁batogor	-7561
▁belgiun	-7562
▁belguim	-7563
▁bhajjis	-7564
▁bharjji	-7565
▁bingnit	-7566
▁borders	-7567
▁bounded	-7568
▁britian	-7569
▁brnadon	-7570
▁callled	-7571
▁carrrol	-7572
▁channel	-7573
▁charile	-7574
▁chciago	-7575
▁classic	-7576
▁collage	-7577
▁concert	-7578
▁counrty	-7579
▁covered	-7580
▁creater	-7581
▁culture	-7582
▁deadman	-7583
▁defence	-7584
▁delawre	-7585
▁demarco	-7586
▁denmaek	-7587
▁denonym	-7588
▁deploys	-7589
▁deserts	-7590
▁dimitea	-7591
▁dimitia	-7592
▁earlier	-7593
▁eceived	-7594
▁englush	-7595
▁enhance	-7596
▁enthnic	-7597
▁falling	-7598
▁falluja	-7599
▁filpino	-7600
▁flacons	-7601
▁fonesca	-7602
▁fossils	-7603
▁further	-7604
▁gaining	-7605
▁gardens	-7606
▁garlicy	-7607
▁garnder	-7608
▁grasson	-7609
▁gujaret	-7610
▁hailing	-7611
▁happens	-7612
▁harback	-7613
▁harbour	-7614
▁hautale	-7615
▁heading	-7616
▁heinlin	-7617
▁hundred	-7618
▁iiocano	-7619
▁inspain	-7620
▁invaded	-7621
▁ispeter	-7622
▁jacabia	-7623
▁jalsico	-7624
▁javkson	-7625
▁jayawrd	-7626
▁kearala	-7627
▁kimbery	-7628
▁lamexia	-7629
▁leaderr	-7630
▁locates	-7631
▁locheed	-7632
▁longest	-7633
▁looking	-7634
▁maadrid	-7635
▁malasia	-7636
▁malasya	-7637
▁marcoli	-7638
▁menbers	-7639
▁meteres	-7640
▁narenda	-7641
▁nations	-7642
▁noodels	-7643
▁numbere	-7644
▁numberr	-7645
▁opelika	-7646
▁oprated	-7647
▁pallota	-7648
▁pardesh	-7649
▁picture	-7650
▁piloted	-7651
▁pinhals	-7652
▁poaceas	-7653
▁polales	-7654
▁poultry	-7655
▁precede	-7656
▁prepare	-7657
▁profess	-7658
▁provice	-7659
▁pursued	-7660
▁rebulic	-7661
▁rectore	-7662
▁retiral	-7663
▁retiree	-7664
▁romanan	-7665
▁roughly	-7666
▁roulean	-7667
▁runwiay	-7668
▁rutceae	-7669
▁sadiqis	-7670
▁salvado	-7671
▁sanchez	-7672
▁sandash	-7673
▁sanwich	-7674
▁schultz	-7675
▁sciphol	-7676
▁screens	-7677
▁servers	-7678
▁shortly	-7679
▁speaker	-7680
▁sppoken	-7681
▁streets	-7682
▁subject	-7683
▁subsequ	-7684
▁sánchez	-7685
▁tejanos	-7686
▁telanga	-7687
▁tidbits	-7688
▁titular	-7689
▁totally	-7690
▁trained	-7691
▁utilize	-7692
▁varient	-7693
▁walters	-7694
▁weapons	-7695
▁wolfwan	-7696
asairport	-7697
blishment	-7698
graduates	-7699
graduayed	-7700
identally	-7701
orporates	-7702
weberries	-7703
▁45344811	-7704
▁57399346	-7705
▁academia	-7706
▁acharaya	-7707
▁achieved	-7708
▁adalusia	-7709
▁advocado	-7710
▁aethwald	-7711
▁affliate	-7712
▁ahmedaba	-7713
▁airbases	-7714
▁ajobanco	-7715
▁aldernay	-7716
▁allianza	-7717
▁altitude	-7718
▁amadavad	-7719
▁amercian	-7720
▁amounted	-7721
▁amserdam	-7722
▁anthonio	-7723
▁aportiva	-7724
▁approxim	-7725
▁assaults	-7726
▁assisted	-7727
▁bakewall	-7728
▁bangalor	-7729
▁beefkway	-7730
▁bibowski	-7731
▁binigrit	-7732
▁bionicle	-7733
▁bionicoa	-7734
▁brithish	-7735
▁buharest	-7736
▁buschema	-7737
▁comanded	-7738
▁consumed	-7739
▁controls	-7740
▁countyof	-7741
▁creating	-7742
▁creation	-7743
▁denmnark	-7744
▁distract	-7745
▁educated	-7746
▁employee	-7747
▁entitled	-7748
▁environs	-7749
▁ethipoia	-7750
▁examples	-7751
▁familiar	-7752
▁ferderal	-7753
▁focussed	-7754
▁formally	-7755
▁fransico	-7756
▁grounded	-7757
▁honoring	-7758
▁hungaria	-7759
▁indonsia	-7760
▁japonese	-7761
▁journeal	-7762
▁karataka	-7763
▁labelled	-7764
▁laderney	-7765
▁lifetime	-7766
▁literary	-7767
▁loaction	-7768
▁locacted	-7769
▁locatedd	-7770
▁lohannis	-7771
▁lufthave	-7772
▁madeline	-7773
▁mainland	-7774
▁managers	-7775
▁margethe	-7776
▁material	-7777
▁mcdonnel	-7778
▁medicine	-7779
▁medrisio	-7780
▁mendrisi	-7781
▁missiles	-7782
▁momument	-7783
▁monacacy	-7784
▁numerous	-7785
▁occupies	-7786
▁occurred	-7787
▁outgamie	-7788
▁patrrick	-7789
▁pellesen	-7790
▁poaceaea	-7791
▁polinica	-7792
▁politics	-7793
▁precedes	-7794
▁publshed	-7795
▁ramussen	-7796
▁rasmusen	-7797
▁released	-7798
▁relgiion	-7799
▁resulted	-7800
▁rouleeau	-7801
▁scneider	-7802
▁sealevel	-7803
▁sebstian	-7804
▁sehitler	-7805
▁separate	-7806
▁sequeled	-7807
▁shepards	-7808
▁smashing	-7809
▁sngapore	-7810
▁solanium	-7811
▁solanles	-7812
▁spallett	-7813
▁sporting	-7814
▁sportive	-7815
▁stephens	-7816
▁strongly	-7817
▁studying	-7818
▁sunmitra	-7819
▁tazaddum	-7820
▁terrance	-7821
▁thetudor	-7822
▁tirstruo	-7823
▁together	-7824
▁townshio	-7825
▁tristrup	-7826
▁utilizes	-7827
▁vajubnai	-7828
▁varation	-7829
▁variants	-7830
▁versions	-7831
▁veterans	-7832
▁voutisis	-7833
▁worlfman	-7834
▁ziaolong	-7835
▁accademis	-7836
▁accademiz	-7837
▁accedemia	-7838
▁admedabad	-7839
▁aerbaijan	-7840
▁airondack	-7841
▁ajobkanci	-7842
▁andalucia	-7843
▁andulucia	-7844
▁anericans	-7845
▁antooquia	-7846
▁arrabiata	-7847
▁augurated	-7848
▁austrlian	-7849
▁azerbijan	-7850
▁banglaore	-7851
▁benregodi	-7852
▁bingignit	-7853
▁binignits	-7854
▁biniignit	-7855
▁birminham	-7856
▁bucharist	-7857
▁bvakewell	-7858
▁canonnica	-7859
▁capitalod	-7860
▁collected	-7861
▁colombain	-7862
▁comprises	-7863
▁conceived	-7864
▁currecncy	-7865
▁davutogly	-7866
▁delicious	-7867
▁depicting	-7868
▁designing	-7869
▁developer	-7870
▁dictating	-7871
▁directore	-7872
▁fairchild	-7873
▁fairfield	-7874
▁favourite	-7875
▁featuring	-7876
▁ffiliated	-7877
▁foundered	-7878
▁getysburg	-7879
▁graduates	-7880
▁greenvile	-7881
▁greeville	-7882
▁identfier	-7883
▁igredient	-7884
▁indigenes	-7885
▁institure	-7886
▁instutute	-7887
▁invasions	-7888
▁issilvano	-7889
▁johnsonis	-7890
▁karnatake	-7891
▁kimberley	-7892
▁lakewhich	-7893
▁landmarks	-7894
▁larsløkke	-7895
▁libraries	-7896
▁limmerick	-7897
▁locationa	-7898
▁lufthavan	-7899
▁magedburg	-7900
▁maintains	-7901
▁managerof	-7902
▁manhatten	-7903
▁monocracy	-7904
▁monumenet	-7905
▁naturally	-7906
▁neighbors	-7907
▁newjersey	-7908
▁nicknames	-7909
▁occupying	-7910
▁ooostbaan	-7911
▁orginated	-7912
▁originaly	-7913
▁origintes	-7914
▁pallessen	-7915
▁parliment	-7916
▁partnered	-7917
▁plderbaan	-7918
▁politican	-7919
▁	-7920
a	-7921
e	-7922
i	-7923
n	-7924
t	-7925
s	-7926
o	-7927
r	-7928
h	-7929
l	-7930
d	-7931
c	-7932
u	-7933
m	-7934
p	-7935
f	-7936
b	-7937
.	-7938
g	-7939
w	-7940
y	-7941
,	-7942
v	-7943
k	-7944
1	-7945
0	-7946
j	-7947
2	-7948
3	-7949
9	-7950
z	-7951
6	-7952
;	-7953
&	-7954
8	-7955
4	-7956
q	-7957
5	-7958
7	-7959
x	-7960
-	-7961
(	-7962
)	-7963
/	-7964
:	-7965
á	-7966
–	-7967
ü	-7968
é	-7969
ã	-7970
ç	-7971
ä	-7972
í	-7973
ò	-7974
ö	-7975
̇	-7976
ğ	-7977
ó	-7978
ø	-7979
!	-7980
æ	-7981
ş	-7982
â	-7983
ă	-7984
ō	-7985
ș	-7986
#	-7987
ñ	-7988
ı	-7989
?	-7990
ə	-7991
`	-7992
~	-7993
_	-7994
+	-7995
ú	-7996
