<unk>	0
<s>	0
</s>	0
▁i	-0
an	-1
he	-2
▁A	-3
▁t	-4
er	-5
▁the	-6
▁o	-7
▁is	-8
ed	-9
at	-10
ar	-11
as	-12
▁w	-13
on	-14
▁in	-15
▁of	-16
and	-17
ic	-18
or	-19
es	-20
it	-21
in	-22
al	-23
en	-24
▁and	-25
▁T	-26
▁S	-27
is	-28
▁b	-29
▁c	-30
▁C	-31
▁a	-32
re	-33
▁p	-34
▁l	-35
ou	-36
▁s	-37
▁f	-38
▁M	-39
▁B	-40
▁The	-41
om	-42
▁m	-43
▁1	-44
▁was	-45
▁I	-46
ad	-47
il	-48
am	-49
et	-50
▁h	-51
oc	-52
▁U	-53
▁P	-54
▁wh	-55
▁Al	-56
ion	-57
el	-58
us	-59
▁R	-60
ay	-61
▁D	-62
▁d	-63
ol	-64
oun	-65
▁H	-66
ated	-67
▁F	-68
ir	-69
ac	-70
▁St	-71
▁G	-72
▁Un	-73
ing	-74
▁has	-75
ich	-76
ia	-77
▁W	-78
are	-79
art	-80
▁N	-81
▁by	-82
ent	-83
em	-84
▁L	-85
ers	-86
▁J	-87
ur	-88
iv	-89
gr	-90
▁which	-91
00	-92
ity	-93
th	-94
ag	-95
▁E	-96
orn	-97
ig	-98
ates	-99
ation	-100
ited	-101
un	-102
ount	-103
▁2	-104
▁United	-105
▁In	-106
▁are	-107
ch	-108
ian	-109
▁le	-110
▁fr	-111
▁States	-112
▁loc	-113
ber	-114
ot	-115
▁19	-116
st	-117
▁from	-118
ap	-119
ce	-120
▁pl	-121
le	-122
ub	-123
▁an	-124
▁whe	-125
ort	-126
▁Am	-127
▁n	-128
ab	-129
res	-130
▁where	-131
ov	-132
▁K	-133
▁An	-134
▁on	-135
id	-136
ican	-137
▁for	-138
▁located	-139
▁as	-140
▁play	-141
▁gr	-142
ish	-143
ter	-144
um	-145
ak	-146
port	-147
▁V	-148
▁lead	-149
▁born	-150
▁O	-151
all	-152
os	-153
ow	-154
ith	-155
▁r	-156
ts	-157
▁with	-158
ec	-159
ex	-160
usic	-161
▁k	-162
hn	-163
▁music	-164
ounty	-165
▁Amer	-166
op	-167
▁leader	-168
ul	-169
▁American	-170
ip	-171
▁to	-172
▁County	-173
ra	-174
▁Ab	-175
ew	-176
ut	-177
▁or	-178
▁Air	-179
▁It	-180
▁part	-181
ound	-182
ain	-183
oup	-184
▁Ar	-185
▁at	-186
▁com	-187
ital	-188
▁st	-189
od	-190
▁(	-191
▁As	-192
ry	-193
▁Ad	-194
▁who	-195
▁per	-196
ud	-197
0.	-198
▁Ind	-199
▁re	-200
▁3	-201
ate	-202
ist	-203
ang	-204
ational	-205
ok	-206
▁New	-207
ant	-208
▁group	-209
ill	-210
▁He	-211
▁et	-212
ember	-213
hnic	-214
▁ethnic	-215
▁al	-216
▁Ch	-217
est	-218
ell	-219
▁di	-220
qu	-221
av	-222
▁sp	-223
ton	-224
▁Sp	-225
eg	-226
ep	-227
▁city	-228
ivers	-229
im	-230
ard	-231
so	-232
▁its	-233
ive	-234
▁Americans	-235
ey	-236
▁Airport	-237
apital	-238
▁g	-239
hed	-240
etres	-241
io	-242
▁capital	-243
▁And	-244
eng	-245
▁Mar	-246
ong	-247
age	-248
▁Univers	-249
▁En	-250
▁count	-251
way	-252
▁plays	-253
land	-254
▁Tex	-255
▁man	-256
erv	-257
ie	-258
▁country	-259
ine	-260
▁University	-261
lub	-262
▁Texas	-263
ff	-264
ack	-265
▁At	-266
▁Eng	-267
▁be	-268
ess	-269
ock	-270
isc	-271
ust	-272
ace	-273
▁200	-274
tern	-275
fr	-276
▁Aar	-277
own	-278
angu	-279
ork	-280
igin	-281
▁langu	-282
ran	-283
▁found	-284
▁origin	-285
▁serv	-286
sis	-287
▁also	-288
ib	-289
▁member	-290
ington	-291
ore	-292
oci	-293
per	-294
▁10	-295
end	-296
▁died	-297
ubl	-298
uc	-299
ash	-300
ient	-301
▁played	-302
▁Ak	-303
▁run	-304
lo	-305
ame	-306
olo	-307
edient	-308
▁ingr	-309
vel	-310
▁ingredient	-311
▁club	-312
ly	-313
ign	-314
if	-315
▁runway	-316
oken	-317
▁spoken	-318
▁FC	-319
▁language	-320
ative	-321
▁Rom	-322
rew	-323
ont	-324
ished	-325
ilom	-326
▁one	-327
ect	-328
▁ch	-329
ah	-330
der	-331
▁4	-332
ico	-333
her	-334
ond	-335
ary	-336
igh	-337
63	-338
▁se	-339
01	-340
rit	-341
▁Pr	-342
▁5	-343
▁Cal	-344
lish	-345
▁manag	-346
ternational	-347
▁Ap	-348
▁English	-349
att	-350
▁International	-351
▁air	-352
ice	-353
over	-354
man	-355
▁it	-356
▁Wash	-357
▁Alan	-358
emb	-359
our	-360
▁Gre	-361
ek	-362
▁Washington	-363
ose	-364
pl	-365
▁he	-366
umber	-367
▁Y	-368
▁gen	-369
▁dish	-370
▁11	-371
lu	-372
ri	-373
▁th	-374
ones	-375
ge	-376
iana	-377
▁Te	-378
ord	-379
▁rock	-380
lin	-381
▁Tur	-382
▁Aust	-383
▁Anders	-384
▁ab	-385
onn	-386
▁leng	-387
soci	-388
sh	-389
och	-390
enn	-391
lant	-392
▁Jo	-393
▁oper	-394
▁length	-395
ue	-396
▁Aaron	-397
ev	-398
ade	-399
▁Mart	-400
▁genre	-401
ean	-402
▁v	-403
▁kilom	-404
any	-405
ark	-406
▁US	-407
resid	-408
acon	-409
ire	-410
orm	-411
▁fo	-412
iforn	-413
▁Mad	-414
▁led	-415
▁number	-416
6.	-417
ball	-418
▁Californ	-419
ston	-420
ee	-421
ena	-422
ove	-423
▁Bak	-424
▁groups	-425
ite	-426
▁Sc	-427
▁Alb	-428
▁ground	-429
▁California	-430
ham	-431
form	-432
ams	-433
otball	-434
se	-435
▁City	-436
ik	-437
ara	-438
ama	-439
▁whose	-440
chn	-441
▁Ac	-442
po	-443
▁te	-444
▁Ro	-445
ett	-446
▁Ital	-447
▁Gr	-448
anc	-449
0.0	-450
▁name	-451
▁his	-452
▁AI	-453
▁201	-454
▁Afr	-455
8.	-456
org	-457
iz	-458
ons	-459
▁area	-460
ric	-461
eded	-462
zz	-463
▁disc	-464
bert	-465
▁II	-466
▁comes	-467
igned	-468
eb	-469
-1	-470
resident	-471
▁suc	-472
▁metres	-473
eks	-474
ipp	-475
▁ep	-476
son	-477
au	-478
amp	-479
▁Ge	-480
▁epoch	-481
▁Aleks	-482
enc	-483
▁band	-484
▁perform	-485
▁national	-486
▁served	-487
▁De	-488
▁Col	-489
ional	-490
aun	-491
ater	-492
olog	-493
oug	-494
ome	-495
ob	-496
lues	-497
▁reg	-498
▁inc	-499
▁York	-500
ays	-501
▁level	-502
▁Martin	-503
uil	-504
▁kn	-505
ass	-506
▁publ	-507
▁bo	-508
ner	-509
▁km	-510
▁eng	-511
▁sea	-512
▁known	-513
▁John	-514
▁that	-515
▁airport	-516
▁kilometres	-517
2.	-518
▁Techn	-519
▁above	-520
▁region	-521
lud	-522
▁6	-523
▁Z	-524
ight	-525
iated	-526
▁sing	-527
000	-528
ast	-529
▁Georg	-530
▁location	-531
▁"	-532
▁Atlant	-533
▁includ	-534
quare	-535
▁Spain	-536
ru	-537
▁engine	-538
iam	-539
▁Ant	-540
▁buil	-541
▁African	-542
▁made	-543
▁India	-544
▁AID	-545
abl	-546
▁call	-547
▁Fran	-548
▁pop	-549
.0	-550
▁Bu	-551
yl	-552
arac	-553
ro	-554
▁called	-555
ott	-556
▁Alex	-557
arl	-558
▁199	-559
▁off	-560
cho	-561
fred	-562
▁Mon	-563
adem	-564
▁cre	-565
▁Indiana	-566
uf	-567
rin	-568
▁Reg	-569
▁team	-570
ave	-571
ollo	-572
chit	-573
▁Apollo	-574
▁Austin	-575
outh	-576
▁Aleksand	-577
▁ingredients	-578
▁195	-579
▁date	-580
▁Alfred	-581
▁Will	-582
eop	-583
▁El	-584
▁associ	-585
▁football	-586
ial	-587
lack	-588
▁main	-589
▁musical	-590
▁18	-591
▁War	-592
bur	-593
▁All	-594
ica	-595
▁singer	-596
▁operated	-597
eople	-598
ison	-599
▁Hou	-600
ick	-601
▁can	-602
▁Part	-603
▁Technolog	-604
▁For	-605
ja	-606
ument	-607
AS	-608
hus	-609
▁met	-610
▁associated	-611
dul	-612
urr	-613
▁198	-614
ence	-615
▁Abdul	-616
ma	-617
ilot	-618
▁bacon	-619
ute	-620
▁Mal	-621
▁Bar	-622
▁Turk	-623
arg	-624
rem	-625
▁pilot	-626
ris	-627
9.	-628
▁Albert	-629
iod	-630
4.	-631
▁Wh	-632
0000	-633
▁curr	-634
▁period	-635
▁state	-636
ert	-637
▁12	-638
3.	-639
▁Mat	-640
▁people	-641
ns	-642
arr	-643
▁blues	-644
vil	-645
▁published	-646
▁manager	-647
▁7	-648
▁us	-649
ough	-650
▁home	-651
ceeded	-652
▁Italy	-653
adu	-654
▁Ph	-655
▁Ass	-656
ka	-657
ersey	-658
rid	-659
▁Aston	-660
▁Jersey	-661
oll	-662
▁Mex	-663
▁Andrew	-664
plet	-665
bital	-666
▁Indones	-667
▁Brit	-668
▁succeeded	-669
ASA	-670
▁apo	-671
▁NASA	-672
ague	-673
▁laun	-674
▁apoap	-675
▁square	-676
ania	-677
aracter	-678
▁Asian	-679
▁apoapsis	-680
▁Aarhus	-681
ten	-682
▁comp	-683
ffil	-684
000.0	-685
ines	-686
▁25	-687
stit	-688
▁Native	-689
▁President	-690
▁AIDA	-691
▁16	-692
▁Ag	-693
▁Mend	-694
ais	-695
cadem	-696
stitute	-697
▁Mexico	-698
rans	-699
attle	-700
▁discover	-701
act	-702
▁writ	-703
▁affil	-704
▁orbital	-705
ft	-706
1.	-707
5.	-708
▁stud	-709
ron	-710
▁Dec	-711
que	-712
ure	-713
▁Ake	-714
▁17	-715
auce	-716
▁Can	-717
▁Man	-718
▁des	-719
▁sauce	-720
▁Akeem	-721
▁Rec	-722
▁work	-723
▁Record	-724
▁musician	-725
▁serves	-726
▁ow	-727
▁comm	-728
▁written	-729
▁Institute	-730
aj	-731
▁crew	-732
▁Jul	-733
ondon	-734
▁popul	-735
▁Ang	-736
▁King	-737
ablished	-738
up	-739
embers	-740
resent	-741
ura	-742
▁built	-743
▁London	-744
▁members	-745
▁affiliated	-746
▁originates	-747
▁She	-748
ai	-749
▁Party	-750
ina	-751
634	-752
▁un	-753
▁0	-754
arya	-755
charya	-756
▁White	-757
▁IS	-758
ans	-759
▁Acharya	-760
iap	-761
iapsis	-762
▁periapsis	-763
ins	-764
established	-765
▁sh	-766
erb	-767
▁William	-768
ens	-769
ct	-770
▁8	-771
▁Malays	-772
argest	-773
▁Mary	-774
eed	-775
▁Sci	-776
▁Rome	-777
▁discovered	-778
ile	-779
▁largest	-780
▁established	-781
mark	-782
ach	-783
burg	-784
chool	-785
▁Indonesia	-786
),	-787
han	-788
▁Records	-789
ought	-790
iation	-791
▁Georgia	-792
▁designed	-793
oy	-794
▁193	-795
▁Span	-796
▁Town	-797
7.	-798
rev	-799
ene	-800
arth	-801
▁ar	-802
▁worked	-803
▁Ger	-804
ives	-805
shire	-806
ned	-807
▁Ah	-808
▁gradu	-809
▁fought	-810
▁Regional	-811
▁AC	-812
▁Den	-813
ical	-814
▁there	-815
iet	-816
▁192	-817
▁Com	-818
▁Madrid	-819
▁pr	-820
ched	-821
▁Battle	-822
▁Inf	-823
mer	-824
).	-825
ase	-826
▁created	-827
hy	-828
las	-829
ired	-830
ost	-831
▁art	-832
▁Space	-833
▁cont	-834
▁office	-835
▁Force	-836
ants	-837
▁Anderson	-838
▁fl	-839
ster	-840
ased	-841
led	-842
▁Adam	-843
▁Phil	-844
▁Gu	-845
eral	-846
ress	-847
ship	-848
▁Wil	-849
▁Pol	-850
dom	-851
thm	-852
arian	-853
▁leaders	-854
hythm	-855
▁1634	-856
▁Denmark	-857
uth	-858
▁March	-859
▁9	-860
▁Bat	-861
▁July	-862
▁House	-863
▁14	-864
▁Br	-865
ander	-866
ae	-867
▁managed	-868
ella	-869
old	-870
ered	-871
▁Rib	-872
ublic	-873
▁Adams	-874
▁Hall	-875
▁Kingdom	-876
ors	-877
▁Ser	-878
▁Monument	-879
▁Alf	-880
▁AF	-881
ister	-882
▁27	-883
▁Con	-884
▁solo	-885
ales	-886
aw	-887
▁graduated	-888
-2	-889
og	-890
▁trans	-891
▁archit	-892
ding	-893
ta	-894
▁Q	-895
▁Th	-896
ufact	-897
▁Ahm	-898
icoff	-899
ville	-900
▁Ay	-901
▁student	-902
▁Technology	-903
-0	-904
▁de	-905
▁Ribicoff	-906
▁long	-907
▁launched	-908
ago	-909
olf	-910
▁Her	-911
▁Rep	-912
▁character	-913
▁under	-914
orth	-915
▁Ald	-916
areer	-917
▁career	-918
▁Township	-919
erm	-920
uss	-921
▁103	-922
ufactur	-923
▁originated	-924
▁German	-925
▁School	-926
▁book	-927
onnect	-928
raz	-929
▁15	-930
▁Sum	-931
▁Philipp	-932
▁Jones	-933
▁196	-934
osa	-935
inc	-936
uay	-937
▁Vir	-938
▁based	-939
una	-940
▁rel	-941
▁Spanish	-942
▁architect	-943
otal	-944
hem	-945
▁Aldrin	-946
ies	-947
▁manufactur	-948
ita	-949
▁31	-950
▁metal	-951
hab	-952
▁December	-953
▁National	-954
▁performs	-955
▁AL	-956
▁Canad	-957
▁total	-958
▁bir	-959
ivil	-960
▁Atlantic	-961
ubur	-962
▁der	-963
ages	-964
▁Min	-965
▁Shep	-966
ld	-967
ne	-968
hio	-969
▁flo	-970
▁Civil	-971
ola	-972
abel	-973
▁Er	-974
▁Ell	-975
▁ret	-976
hens	-977
rist	-978
▁their	-979
▁Shepard	-980
▁y	-981
▁have	-982
▁Malaysia	-983
uthor	-984
oz	-985
▁Sing	-986
▁Infant	-987
ape	-988
ere	-989
-3	-990
▁Ohio	-991
istan	-992
▁birth	-993
aka	-994
ria	-995
▁Fr	-996
▁191	-997
▁Abra	-998
▁Black	-999
▁Abraham	-1000
ollow	-1001
▁Sw	-1002
▁Mendris	-1003
▁DC	-1004
▁Add	-1005
▁owned	-1006
atic	-1007
▁contain	-1008
▁Le	-1009
onnell	-1010
▁Mendrisio	-1011
▁retired	-1012
▁Bo	-1013
▁Infantry	-1014
19	-1015
az	-1016
Donnell	-1017
▁23	-1018
▁Its	-1019
aid	-1020
▁Soci	-1021
▁Akron	-1022
▁1963	-1023
nal	-1024
isco	-1025
ment	-1026
usion	-1027
▁Bur	-1028
▁includes	-1029
▁Athens	-1030
▁Buzz	-1031
▁Sport	-1032
ars	-1033
aya	-1034
ylv	-1035
ency	-1036
iot	-1037
▁Eur	-1038
onsin	-1039
▁fusion	-1040
ier	-1041
min	-1042
ether	-1043
ilene	-1044
lands	-1045
▁j	-1046
ward	-1047
▁inhab	-1048
▁Elliot	-1049
isconsin	-1050
▁Madison	-1051
rd	-1052
▁Mich	-1053
▁Albany	-1054
▁Social	-1055
▁Akita	-1056
▁Ob	-1057
▁See	-1058
apore	-1059
▁dess	-1060
▁but	-1061
▁both	-1062
▁Singapore	-1063
ames	-1064
▁Abilene	-1065
▁Connect	-1066
▁rec	-1067
▁commander	-1068
▁beg	-1069
ny	-1070
gra	-1071
andw	-1072
▁Atlanta	-1073
▁Av	-1074
icut	-1075
▁Nether	-1076
▁Ju	-1077
igan	-1078
55	-1079
▁Connecticut	-1080
ied	-1081
▁Dr	-1082
born	-1083
▁1634:	-1084
▁Public	-1085
▁Britain	-1086
26	-1087
▁e	-1088
▁Sh	-1089
▁Mah	-1090
99	-1091
ikov	-1092
▁ass	-1093
▁former	-1094
▁related	-1095
▁Aleksandr	-1096
▁Sri	-1097
fer	-1098
▁Turner	-1099
▁Bus	-1100
▁artist	-1101
▁inhabit	-1102
ato	-1103
eal	-1104
▁Alp	-1105
▁signed	-1106
ime	-1107
ournal	-1108
▁current	-1109
▁dessert	-1110
ouis	-1111
▁Ram	-1112
▁assemb	-1113
▁Su	-1114
▁bel	-1115
sociation	-1116
▁Jan	-1117
▁bod	-1118
▁complet	-1119
irst	-1120
▁Pal	-1121
▁began	-1122
ide	-1123
▁May	-1124
▁Baku	-1125
▁Bean	-1126
▁population	-1127
base	-1128
▁sandw	-1129
▁belong	-1130
ahe	-1131
▁students	-1132
▁Wisconsin	-1133
ug	-1134
▁AFC	-1135
▁Ber	-1136
▁Abel	-1137
▁Angola	-1138
.,	-1139
more	-1140
raft	-1141
▁Louis	-1142
ference	-1143
71	-1144
unk	-1145
ering	-1146
▁used	-1147
▁comic	-1148
ys	-1149
ous	-1150
▁Dav	-1151
▁completed	-1152
▁Netherlands	-1153
arn	-1154
atives	-1155
ason	-1156
▁record	-1157
▁2014	-1158
eron	-1159
▁while	-1160
▁rocket	-1161
ece	-1162
udi	-1163
ador	-1164
▁academ	-1165
▁Michigan	-1166
▁inhabitants	-1167
▁Arian	-1168
▁Cl	-1169
▁England	-1170
▁Dem	-1171
▁Club	-1172
▁France	-1173
ull	-1174
▁back	-1175
▁academic	-1176
▁currency	-1177
ench	-1178
iness	-1179
▁body	-1180
▁start	-1181
▁Christ	-1182
yr	-1183
gon	-1184
▁Del	-1185
▁Lan	-1186
▁Wer	-1187
▁now	-1188
uburn	-1189
▁Hel	-1190
▁Auburn	-1191
▁manufactured	-1192
▁Mc	-1193
▁label	-1194
▁founded	-1195
".	-1196
var	-1197
▁var	-1198
▁Association	-1199
ium	-1200
▁av	-1201
▁Alv	-1202
▁test	-1203
▁Ta	-1204
ions	-1205
uring	-1206
▁Bacon	-1207
▁Greece	-1208
aceae	-1209
de	-1210
aul	-1211
enns	-1212
▁Cent	-1213
ylvania	-1214
60	-1215
00.	-1216
▁Os	-1217
ares	-1218
quer	-1219
▁Great	-1220
▁Penns	-1221
querque	-1222
▁Philippines	-1223
iy	-1224
ira	-1225
ande	-1226
siss	-1227
▁Jav	-1228
ississ	-1229
uquerque	-1230
▁Business	-1231
▁assembled	-1232
▁Pennsylvania	-1233
iss	-1234
ippi	-1235
▁dens	-1236
▁were	-1237
▁award	-1238
▁flight	-1239
▁density	-1240
▁Albuquerque	-1241
▁Alison	-1242
ississippi	-1243
▁att	-1244
▁Serie	-1245
▁Indian	-1246
ict	-1247
▁Minister	-1248
ail	-1249
▁rhythm	-1250
▁transport	-1251
▁Mississippi	-1252
39	-1253
ating	-1254
BN	-1255
▁Nov	-1256
▁they	-1257
▁started	-1258
jan	-1259
ings	-1260
▁Obama	-1261
88	-1262
ept	-1263
▁had	-1264
▁State	-1265
ein	-1266
▁Alc	-1267
gin	-1268
istric	-1269
▁Italian	-1270
▁AM	-1271
▁Arr	-1272
▁contains	-1273
arb	-1274
osc	-1275
▁cod	-1276
▁Barack	-1277
ake	-1278
jas	-1279
▁Is	-1280
▁sq	-1281
▁Ban	-1282
▁ISBN	-1283
▁Long	-1284
imetres	-1285
iel	-1286
brev	-1287
ginia	-1288
/2	-1289
▁Sy	-1290
ountain	-1291
▁Virginia	-1292
▁sandwich	-1293
ried	-1294
▁Loc	-1295
▁Pak	-1296
alore	-1297
essor	-1298
▁company	-1299
te	-1300
aff	-1301
▁Born	-1302
▁within	-1303
▁Fountain	-1304
resentatives	-1305
ves	-1306
▁fin	-1307
▁league	-1308
▁Bang	-1309
haj	-1310
▁Il	-1311
▁Vis	-1312
aheim	-1313
overn	-1314
07	-1315
▁el	-1316
▁sec	-1317
▁origins	-1318
olis	-1319
▁One	-1320
▁Pakistan	-1321
▁Bangalore	-1322
ois	-1323
▁Az	-1324
▁His	-1325
▁Road	-1326
▁Anaheim	-1327
ternative	-1328
adh	-1329
cio	-1330
▁variation	-1331
▁NR	-1332
aisa	-1333
▁Par	-1334
▁Calcio	-1335
pe	-1336
yle	-1337
▁deriv	-1338
▁Representatives	-1339
itz	-1340
▁La	-1341
ended	-1342
dam	-1343
esc	-1344
▁Mahm	-1345
▁food	-1346
▁mill	-1347
▁Ahmet	-1348
mp	-1349
rad	-1350
▁197	-1351
▁Cam	-1352
▁Park	-1353
▁been	-1354
▁Canada	-1355
ana	-1356
▁Or	-1357
▁Prime	-1358
▁belongs	-1359
eak	-1360
rug	-1361
lege	-1362
▁Hun	-1363
▁Tenn	-1364
pleton	-1365
ruguay	-1366
ences	-1367
▁full	-1368
▁speak	-1369
tt	-1370
agn	-1371
▁Rid	-1372
▁con	-1373
ewell	-1374
▁Alexand	-1375
▁Appleton	-1376
▁rep	-1377
oscow	-1378
▁ship	-1379
▁Moscow	-1380
▁Uruguay	-1381
anco	-1382
▁AMC	-1383
▁Dan	-1384
lanco	-1385
▁X	-1386
les	-1387
alli	-1388
▁esc	-1389
ocity	-1390
istrict	-1391
▁escape	-1392
▁Accadem	-1393
▁SC	-1394
▁vel	-1395
▁Archit	-1396
▁Sciences	-1397
▁velocity	-1398
dd	-1399
▁Ex	-1400
▁Aja	-1401
▁Accademia	-1402
uit	-1403
▁Fel	-1404
▁Ajax	-1405
▁South	-1406
▁Mahmud	-1407
aba	-1408
ero	-1409
▁1.	-1410
▁Pl	-1411
orial	-1412
▁Antares	-1413
erland	-1414
▁Adolf	-1415
▁20	-1416
▁21	-1417
▁Juan	-1418
▁North	-1419
itzerland	-1420
▁Ray	-1421
▁British	-1422
▁College	-1423
▁Christian	-1424
70	-1425
str	-1426
▁Kh	-1427
▁Lanka	-1428
esh	-1429
mit	-1430
▁Comp	-1431
▁Rock	-1432
▁mater	-1433
▁Romania	-1434
▁Art	-1435
▁Fort	-1436
▁Switzerland	-1437
able	-1438
odge	-1439
▁org	-1440
udding	-1441
▁Europ	-1442
▁Turkish	-1443
SN	-1444
eny	-1445
enyet	-1446
ionico	-1447
isa	-1448
▁Fl	-1449
▁Taib	-1450
ingham	-1451
▁Rayel	-1452
▁Architett	-1453
▁Kov	-1454
▁Chie	-1455
▁Verm	-1456
▁Dodge	-1457
▁place	-1458
▁staff	-1459
emorial	-1460
▁season	-1461
uart	-1462
▁Romeo	-1463
▁floors	-1464
apan	-1465
▁pre	-1466
▁pudding	-1467
▁European	-1468
eter	-1469
gent	-1470
aijan	-1471
icago	-1472
▁Hamp	-1473
ighter	-1474
▁Chicago	-1475
▁Maryland	-1476
▁Hampshire	-1477
▁Architettura	-1478
97	-1479
nes	-1480
reet	-1481
▁Addis	-1482
▁Garth	-1483
▁Argent	-1484
erbaijan	-1485
▁represent	-1486
my	-1487
luna	-1488
inese	-1489
▁Ababa	-1490
arnat	-1491
linois	-1492
▁Karnat	-1493
▁ty	-1494
oris	-1495
ootball	-1496
▁Street	-1497
▁Illinois	-1498
▁Azerbaijan	-1499
plos	-1500
▁hop	-1501
▁ISSN	-1502
plosion	-1503
▁AIDAluna	-1504
ceded	-1505
▁style	-1506
▁Karnataka	-1507
89	-1508
arajas	-1509
▁Vermont	-1510
omb	-1511
▁Cle	-1512
▁Reb	-1513
ature	-1514
▁days	-1515
▁Charl	-1516
▁Clevel	-1517
iva	-1518
▁Rebell	-1519
▁Summit	-1520
▁Turkey	-1521
▁Cleveland	-1522
▁Alfa	-1523
▁Agnes	-1524
▁Visves	-1525
ocr	-1526
aska	-1527
lint	-1528
uary	-1529
▁Asad	-1530
varaya	-1531
▁Flint	-1532
▁Abarth	-1533
wer	-1534
▁Adolfo	-1535
▁Democr	-1536
▁January	-1537
▁Rebellion	-1538
▁Spaceport	-1539
▁Visvesvaraya	-1540
▁13	-1541
▁Eric	-1542
▁Technological	-1543
92	-1544
ally	-1545
▁millimetres	-1546
▁SV	-1547
otter	-1548
▁first	-1549
▁alternative	-1550
15	-1551
oza	-1552
▁Sam	-1553
▁Amar	-1554
▁co	-1555
hatt	-1556
heel	-1557
▁pow	-1558
▁uses	-1559
▁James	-1560
▁San	-1561
uthority	-1562
bal	-1563
▁Ridge	-1564
eth	-1565
hel	-1566
egun	-1567
▁Aug	-1568
▁Acta	-1569
izab	-1570
▁Elizab	-1571
▁include	-1572
job	-1573
▁AZ	-1574
▁1955	-1575
▁Sara	-1576
ission	-1577
▁Ariane	-1578
▁Bionico	-1579
▁Authority	-1580
▁Elizabeth	-1581
▁Conference	-1582
stem	-1583
▁Sar	-1584
ignit	-1585
▁Osborn	-1586
▁awarded	-1587
egre	-1588
▁succ	-1589
inignit	-1590
joblanco	-1591
▁president	-1592
▁5.	-1593
ator	-1594
▁Kong	-1595
▁Alaska	-1596
▁Andrews	-1597
▁Osborne	-1598
▁November	-1599
/3	-1600
ret	-1601
une	-1602
▁Tw	-1603
▁Bel	-1604
▁Camp	-1605
▁Hong	-1606
▁alma	-1607
unc	-1608
00.0	-1609
▁bec	-1610
▁1000	-1611
isaire	-1612
▁Sportiva	-1613
▁successor	-1614
ky	-1615
ley	-1616
ious	-1617
pool	-1618
▁Bav	-1619
atric	-1620
risis	-1621
▁Ayam	-1622
▁speed	-1623
▁penyet	-1624
▁Houston	-1625
▁Bavarian	-1626
▁Teisaire	-1627
▁Lib	-1628
▁Grey	-1629
▁Java	-1630
▁Prov	-1631
▁paisa	-1632
41	-1633
BQ	-1634
ane	-1635
place	-1636
▁Asilom	-1637
▁August	-1638
▁Bakewell	-1639
▁Blackpool	-1640
24	-1641
oli	-1642
wak	-1643
▁Laun	-1644
▁order	-1645
Barajas	-1646
▁Crisis	-1647
▁League	-1648
▁Mathem	-1649
▁Austria	-1650
▁Asilomar	-1651
▁preceded	-1652
▁USA	-1653
rie	-1654
▁Sec	-1655
abama	-1656
allas	-1657
▁NRBQ	-1658
yshire	-1659
▁Atlas	-1660
▁champ	-1661
▁Dallas	-1662
▁Launch	-1663
▁Sarawak	-1664
oga	-1665
▁164	-1666
▁Cra	-1667
nikov	-1668
▁Roma	-1669
▁Stad	-1670
▁Zeal	-1671
▁airc	-1672
▁Matador	-1673
▁Zealand	-1674
illa	-1675
icken	-1676
illar	-1677
▁mass	-1678
▁fighter	-1679
erbyshire	-1680
▁birthplace	-1681
▁2006.	-1682
▁popular	-1683
▁me	-1684
▁inv	-1685
▁June	-1686
▁code	-1687
▁abbrev	-1688
▁Alabama	-1689
▁Johnson	-1690
▁Derbyshire	-1691
▁Cr	-1692
erson	-1693
▁Frank	-1694
▁Chinese	-1695
▁Football	-1696
▁,	-1697
choy	-1698
▁250	-1699
▁Baked	-1700
andeja	-1701
▁party	-1702
▁Alpena	-1703
▁Bandeja	-1704
▁represented	-1705
amil	-1706
illo	-1707
enate	-1708
▁Explosion	-1709
eet	-1710
ral	-1711
▁Audi	-1712
▁West	-1713
oaceae	-1714
▁organ	-1715
revious	-1716
▁Ly	-1717
werp	-1718
▁add	-1719
▁mean	-1720
▁Antwerp	-1721
▁Science	-1722
LC	-1723
▁cl	-1724
atraz	-1725
ersus	-1726
▁2000	-1727
▁Prud	-1728
▁youth	-1729
▁meters	-1730
▁Alberto	-1731
▁chicken	-1732
▁Fin	-1733
▁Zit	-1734
▁Aless	-1735
▁follow	-1736
istr	-1737
▁white	-1738
lington	-1739
▁Zitarr	-1740
▁during	-1741
▁Prudnikov	-1742
65	-1743
ince	-1744
lymp	-1745
▁Big	-1746
▁Olymp	-1747
80	-1748
ji	-1749
ese	-1750
eder	-1751
▁Libr	-1752
▁Acura	-1753
▁Versus	-1754
▁currently	-1755
33	-1756
ney	-1757
aterp	-1758
▁Caterp	-1759
ruis	-1760
▁Car	-1761
regon	-1762
▁aircraft	-1763
▁Zitarrosa	-1764
▁languages	-1765
▁Caterpillar	-1766
64	-1767
ph	-1768
▁Leg	-1769
elect	-1770
▁head	-1771
itra	-1772
▁Mil	-1773
▁black	-1774
▁Alcatraz	-1775
wh	-1776
▁Mid	-1777
▁Sab	-1778
▁Alfredo	-1779
▁champions	-1780
At	-1781
▁'	-1782
ale	-1783
▁Se	-1784
▁UK	-1785
ivis	-1786
▁Inc	-1787
▁Jenn	-1788
▁Germany	-1789
CLC	-1790
uct	-1791
hann	-1792
link	-1793
▁Oct	-1794
icial	-1795
ietro	-1796
▁Mont	-1797
▁teow	-1798
▁Klink	-1799
▁Sabin	-1800
▁French	-1801
▁Pietro	-1802
ix	-1803
▁Dag	-1804
▁ten	-1805
▁Senate	-1806
▁kilomet	-1807
edas	-1808
▁Dagg	-1809
▁Evil	-1810
▁Ayers	-1811
▁Jennings	-1812
29	-1813
asm	-1814
▁2006	-1815
▁Army	-1816
▁Belg	-1817
▁Doug	-1818
agnoli	-1819
ef	-1820
▁-	-1821
ipe	-1822
ood	-1823
0.0.	-1824
00.0.	-1825
▁Oregon	-1826
▁Ajoblanco	-1827
▁Librarian	-1828
▁Romagnoli	-1829
12	-1830
▁Ed	-1831
istor	-1832
▁Franc	-1833
raq	-1834
abat	-1835
akar	-1836
▁100	-1837
▁Ash	-1838
▁Gor	-1839
▁Val	-1840
istoric	-1841
con	-1842
eum	-1843
ini	-1844
▁Af	-1845
▁Ne	-1846
▁Agra	-1847
▁OCLC	-1848
▁beam	-1849
allero	-1850
▁Admin	-1851
▁pedas	-1852
irm	-1853
▁Iraq	-1854
▁Wheel	-1855
▁Alessio	-1856
iat	-1857
eget	-1858
▁Way	-1859
ables	-1860
▁Mars	-1861
▁this	-1862
▁Allen	-1863
▁previous	-1864
▁Librarians	-1865
▁&	-1866
▁0.	-1867
ahra	-1868
akes	-1869
ober	-1870
▁Cab	-1871
▁Fer	-1872
▁Ice	-1873
▁Wat	-1874
▁Mark	-1875
iament	-1876
▁Angel	-1877
▁Disco	-1878
▁October	-1879
egetables	-1880
mond	-1881
iller	-1882
▁Coup	-1883
▁Felipe	-1884
▁Forres	-1885
▁Watson	-1886
arliament	-1887
▁Caballero	-1888
aa	-1889
asp	-1890
▁Gl	-1891
omot	-1892
▁101	-1893
▁Mag	-1894
▁Asam	-1895
▁Werft	-1896
The	-1897
iad	-1898
uch	-1899
▁30	-1900
▁Ter	-1901
iadis	-1902
izard	-1903
▁Abub	-1904
▁Alaa	-1905
▁Roman	-1906
omotive	-1907
aus	-1908
▁RS	-1909
ange	-1910
▁Gorb	-1911
▁Plac	-1912
▁Sept	-1913
▁type	-1914
▁Alvah	-1915
▁Press	-1916
▁county	-1917
▁Georgiadis	-1918
▁34	-1919
otel	-1920
▁Blues	-1921
▁negre	-1922
▁pages	-1923
▁Gorbach	-1924
▁District	-1925
CO	-1926
án	-1927
cil	-1928
urch	-1929
▁cel	-1930
▁key	-1931
▁ALCO	-1932
▁Main	-1933
ouncil	-1934
▁vegetables	-1935
68	-1936
▁means	-1937
▁Alfons	-1938
▁Wizard	-1939
▁attended	-1940
har	-1941
ateg	-1942
ense	-1943
rish	-1944
erona	-1945
gabat	-1946
▁Abner	-1947
▁Bella	-1948
▁fried	-1949
▁Forrest	-1950
▁Ashgabat	-1951
▁.	-1952
ami	-1953
out	-1954
▁52	-1955
▁mon	-1956
▁hard	-1957
▁Cruis	-1958
▁categ	-1959
▁Amster	-1960
▁compet	-1961
▁Batchoy	-1962
▁VI	-1963
onis	-1964
▁Los	-1965
istic	-1966
▁Arab	-1967
▁Rams	-1968
▁Japan	-1969
olloway	-1970
▁Adonis	-1971
▁Abubakar	-1972
▁Holloway	-1973
▁Dy	-1974
▁ex	-1975
edal	-1976
onda	-1977
▁Lev	-1978
▁Arap	-1979
▁They	-1980
▁once	-1981
▁post	-1982
▁Angeles	-1983
▁Co	-1984
▁Mo	-1985
rint	-1986
▁Bay	-1987
▁Row	-1988
epart	-1989
▁Serv	-1990
▁live	-1991
▁Honda	-1992
epartment	-1993
▁Amarillo	-1994
73	-1995
sal	-1996
▁26	-1997
qbal	-1998
▁Birm	-1999
▁Craig	-2000
▁Guiana	-2001
▁Birmingham	-2002
hes	-2003
enue	-2004
oyal	-2005
▁ALV	-2006
▁Met	-2007
▁Wal	-2008
▁car	-2009
▁Bhaj	-2010
▁Wasp	-2011
▁kway	-2012
stella	-2013
▁Iqbal	-2014
▁print	-2015
▁Allama	-2016
▁Wheeler	-2017
▁Character	-2018
▁Democratic	-2019
iams	-2020
orld	-2021
ounds	-2022
▁Deer	-2023
▁Kant	-2024
▁later	-2025
▁became	-2026
▁Colmore	-2027
▁Williams	-2028
▁guit	-2029
▁Alder	-2030
▁World	-2031
▁Argentina	-2032
06	-2033
aman	-2034
erly	-2035
▁Lee	-2036
▁Atat	-2037
▁Council	-2038
▁Alderney	-2039
05	-2040
21	-2041
ear	-2042
ibut	-2043
▁600	-2044
quart	-2045
▁Corn	-2046
▁beef	-2047
▁Loyal	-2048
▁AIDAstella	-2049
▁Parliament	-2050
af	-2051
ink	-2052
▁Ert	-2053
▁Pop	-2054
▁ice	-2055
▁This	-2056
▁Twil	-2057
▁styl	-2058
anaman	-2059
▁final	-2060
▁launch	-2061
▁Twilight	-2062
▁Aleksandra	-2063
91	-2064
▁Jr	-2065
▁2009	-2066
Atlant	-2067
iction	-2068
▁Avenue	-2069
▁Bananaman	-2070
▁September	-2071
▁derivative	-2072
sp	-2073
umb	-2074
▁Ef	-2075
ancer	-2076
▁Dancer	-2077
▁Martyr	-2078
▁Ertegun	-2079
▁Ol	-2080
icip	-2081
▁Tom	-2082
▁ant	-2083
iraqu	-2084
▁Glen	-2085
▁guitar	-2086
Atlantic	-2087
▁Memorial	-2088
▁Arapiraqu	-2089
nd	-2090
ban	-2091
▁ja	-2092
ennie	-2093
▁elev	-2094
▁jazz	-2095
▁prod	-2096
▁anthem	-2097
▁Finland	-2098
▁Service	-2099
atriciana	-2100
▁Albennie	-2101
▁Amsterdam	-2102
▁headquart	-2103
▁operating	-2104
▁Arapiraquense	-2105
ón	-2106
mir	-2107
▁GT	-2108
ando	-2109
line	-2110
oviet	-2111
▁Levy	-2112
▁batt	-2113
hangra	-2114
▁Asser	-2115
▁Delaw	-2116
▁Hotel	-2117
ilm	-2118
ino	-2119
▁sub	-2120
cover	-2121
▁Hess	-2122
reland	-2123
ysburg	-2124
▁Milan	-2125
▁Colomb	-2126
▁Delaware	-2127
Ar	-2128
▁invol	-2129
ederick	-2130
▁Rhythm	-2131
▁Daggett	-2132
▁Ireland	-2133
▁Fortress	-2134
▁Frederick	-2135
LX	-2136
ony	-2137
rez	-2138
akov	-2139
▁TLX	-2140
useum	-2141
▁Gett	-2142
▁Helena	-2143
▁Scales	-2144
▁followed	-2145
ids	-2146
nan	-2147
agen	-2148
amed	-2149
opert	-2150
elected	-2151
▁selected	-2152
▁Gettysburg	-2153
bury	-2154
▁Day	-2155
▁Adare	-2156
▁Andra	-2157
▁Miller	-2158
▁author	-2159
▁involv	-2160
▁Locomotive	-2161
CC	-2162
jo	-2163
ath	-2164
▁8.	-2165
orid	-2166
aiden	-2167
onica	-2168
ground	-2169
▁Moore	-2170
▁Engine	-2171
▁stylistic	-2172
93	-2173
enh	-2174
oin	-2175
radit	-2176
razil	-2177
▁Sand	-2178
▁monument	-2179
8,	-2180
Un	-2181
ards	-2182
heast	-2183
▁Assemb	-2184
▁Robert	-2185
▁Secret	-2186
▁tradit	-2187
▁Charlie	-2188
▁Province	-2189
CCN	-2190
els	-2191
▁am	-2192
▁all	-2193
▁Green	-2194
▁building	-2195
▁Engineering	-2196
▁traditional	-2197
eef	-2198
tor	-2199
ume	-2200
kins	-2201
para	-2202
▁Adv	-2203
▁Hal	-2204
▁mil	-2205
▁LCCN	-2206
▁Pena	-2207
▁Polish	-2208
▁organis	-2209
▁Amatriciana	-2210
43	-2211
ped	-2212
▁Ard	-2213
▁tit	-2214
essee	-2215
▁Beef	-2216
einoup	-2217
▁2009.	-2218
▁Ardmore	-2219
ubb	-2220
árez	-2221
▁Cop	-2222
▁Efx	-2223
▁mar	-2224
▁oil	-2225
emper	-2226
▁disco	-2227
enhagen	-2228
▁Suárez	-2229
▁Assembly	-2230
▁involved	-2231
▁Efxeinoup	-2232
▁Tennessee	-2233
▁organisation	-2234
air	-2235
Rosa	-2236
irey	-2237
onso	-2238
▁185	-2239
ubbio	-2240
▁Hern	-2241
▁Sold	-2242
▁Airey	-2243
▁Neave	-2244
ibuting	-2245
▁Brazil	-2246
▁Copenhagen	-2247
▁performing	-2248
cup	-2249
med	-2250
olk	-2251
rot	-2252
▁hip	-2253
▁van	-2254
ipline	-2255
▁Gubbio	-2256
▁Museum	-2257
▁second	-2258
▁Binignit	-2259
09	-2260
▁47	-2261
ebut	-2262
etta	-2263
orge	-2264
rance	-2265
▁Cost	-2266
▁Harb	-2267
▁Lake	-2268
▁Magd	-2269
▁Serg	-2270
operty	-2271
▁Spart	-2272
▁debut	-2273
▁Wilder	-2274
▁married	-2275
▁background	-2276
▁Hip	-2277
▁Anti	-2278
▁Luna	-2279
▁Rich	-2280
▁Burns	-2281
▁Costa	-2282
▁celest	-2283
ributing	-2284
▁Historic	-2285
▁performer	-2286
vo	-2287
▁Ba	-2288
▁Des	-2289
▁Dim	-2290
▁Sch	-2291
aeont	-2292
▁AIDS	-2293
▁Jack	-2294
▁Wolf	-2295
ailable	-2296
▁Ampara	-2297
▁Verona	-2298
▁Antioch	-2299
▁Poaceae	-2300
▁Palaeont	-2301
▁Administr	-2302
▁celestial	-2303
AI	-2304
hs	-2305
und	-2306
▁0-	-2307
berg	-2308
▁Dia	-2309
apolis	-2310
▁Agrem	-2311
▁Marri	-2312
▁leads	-2313
▁named	-2314
ivision	-2315
mission	-2316
▁Bhajji	-2317
▁Govern	-2318
▁Martyrs	-2319
▁formerly	-2320
▁kilometre	-2321
▁transmission	-2322
13	-2323
ado	-2324
wayd	-2325
▁AIP	-2326
▁Sev	-2327
▁1036	-2328
▁Gany	-2329
▁Groz	-2330
▁Baade	-2331
▁Samar	-2332
▁being	-2333
▁Chievo	-2334
▁Daniel	-2335
▁Severed	-2336
gs	-2337
eon	-2338
▁107	-2339
▁Ace	-2340
gress	-2341
isham	-2342
▁Hera	-2343
▁Jwayd	-2344
▁Grozny	-2345
▁Cruises	-2346
▁Ganymed	-2347
48	-2348
IT	-2349
ão	-2350
-17	-2351
elv	-2352
ield	-2353
olit	-2354
▁Carl	-2355
▁Baths	-2356
▁Medal	-2357
▁class	-2358
LA	-2359
▁Apr	-2360
▁ELA	-2361
▁Koc	-2362
▁Carr	-2363
salami	-2364
▁Camilla	-2365
▁Jwaydan	-2366
▁powered	-2367
▁available	-2368
▁previously	-2369
▁Abdulsalami	-2370
74	-2371
eh	-2372
ics	-2373
ike	-2374
aten	-2375
▁Ben	-2376
▁Pre	-2377
▁Sky	-2378
embrie	-2379
struct	-2380
▁April	-2381
▁Delta	-2382
▁temper	-2383
▁Decembrie	-2384
▁Indianapolis	-2385
cr	-2386
ylde	-2387
▁300	-2388
▁Barb	-2389
▁Monoc	-2390
▁Marriott	-2391
▁temperature	-2392
AL	-2393
Qu	-2394
▁Ja	-2395
urul	-2396
zmir	-2397
▁Rod	-2398
▁sur	-2399
Arena	-2400
▁1918	-2401
▁Asunc	-2402
▁Gurul	-2403
▁Trans	-2404
▁Walter	-2405
▁govern	-2406
▁tenant	-2407
▁Department	-2408
04	-2409
009	-2410
aker	-2411
▁pot	-2412
▁Dent	-2413
▁Hunt	-2414
▁Bakso	-2415
▁Quart	-2416
▁Guruli	-2417
▁Quarterly	-2418
acy	-2419
atu	-2420
dor	-2421
eid	-2422
ize	-2423
ory	-2424
ique	-2425
▁war	-2426
arent	-2427
▁Administrative	-2428
Am	-2429
oln	-2430
alle	-2431
ilar	-2432
▁Ann	-2433
▁Eth	-2434
ement	-2435
field	-2436
▁surf	-2437
▁Fylde	-2438
▁Romance	-2439
▁Congress	-2440
▁official	-2441
▁Aleksandre	-2442
orno	-2443
road	-2444
uner	-2445
hatta	-2446
▁Frew	-2447
▁Radh	-2448
ivorno	-2449
▁Agust	-2450
▁Dales	-2451
▁title	-2452
arghatta	-2453
▁Grounds	-2454
▁Greenville	-2455
▁Hessarghatta	-2456
▁Efxeinoupolis	-2457
bre	-2458
▁56	-2459
▁UT	-2460
anah	-2461
dent	-2462
▁Cont	-2463
▁With	-2464
▁rice	-2465
apalli	-2466
dentif	-2467
▁Anton	-2468
▁Union	-2469
rishnan	-2470
▁Radhak	-2471
anahalli	-2472
▁Adisham	-2473
▁Arlington	-2474
▁hardcover	-2475
ery	-2476
hol	-2477
uel	-2478
itiy	-2479
▁LaS	-2480
▁Cast	-2481
▁Glas	-2482
▁Lock	-2483
▁meas	-2484
itiyat	-2485
▁56009	-2486
▁Khara	-2487
vapalli	-2488
▁Soldev	-2489
▁Airbase	-2490
▁Central	-2491
▁Dimitra	-2492
▁Glaston	-2493
▁Journal	-2494
▁Kharaitiyat	-2495
▁abbreviated	-2496
▁Radhakrishnan	-2497
▁Soldevanahalli	-2498
bra	-2499
▁22	-2500
▁AW	-2501
ault	-2502
edic	-2503
heed	-2504
▁Tor	-2505
▁lit	-2506
▁min	-2507
▁1910	-2508
▁Chir	-2509
▁gran	-2510
▁Orange	-2511
▁Assault	-2512
▁discipline	-2513
42	-2514
BS	-2515
ač	-2516
ideo	-2517
itas	-2518
▁0.0	-2519
▁Att	-2520
▁DBS	-2521
▁Ham	-2522
▁Har	-2523
▁Mic	-2524
▁Pet	-2525
▁sim	-2526
unity	-2527
▁same	-2528
elvins	-2529
evideo	-2530
hambra	-2531
▁Allan	-2532
▁Academ	-2533
▁potato	-2534
▁Aleksey	-2535
▁Barboza	-2536
▁Company	-2537
▁Samaras	-2538
▁Alhambra	-2539
▁Lockheed	-2540
▁Sarvapalli	-2541
BC	-2542
men	-2543
acob	-2544
akis	-2545
alls	-2546
enos	-2547
icia	-2548
uter	-2549
▁Old	-2550
▁red	-2551
aguay	-2552
▁Bill	-2553
▁Hung	-2554
▁Phill	-2555
▁LaSalle	-2556
▁Livorno	-2557
▁Richard	-2558
▁Canadian	-2559
▁Glastonbury	-2560
-15	-2561
▁(6	-2562
olun	-2563
▁Bob	-2564
▁Daw	-2565
▁Comm	-2566
▁Math	-2567
▁Kovac	-2568
▁Volun	-2569
breaker	-2570
▁Attica	-2571
▁Centre	-2572
▁Dawson	-2573
▁parent	-2574
▁journal	-2575
▁manages	-2576
▁Chirikov	-2577
▁Register	-2578
▁Socialist	-2579
ien	-2580
▁sy	-2581
fect	-2582
teer	-2583
▁Lar	-2584
▁dedic	-2585
▁Places	-2586
▁Stadium	-2587
▁Volunteer	-2588
▁Montevideo	-2589
LT	-2590
hen	-2591
▁Im	-2592
▁NW	-2593
enad	-2594
▁Nav	-2595
erala	-2596
icipal	-2597
▁Manor	-2598
▁Werder	-2599
▁player	-2600
unicipal	-2601
▁Belgium	-2602
▁Spartak	-2603
▁battles	-2604
▁dedicated	-2605
▁footballer	-2606
abb	-2607
▁AS	-2608
ouse	-2609
weed	-2610
▁Feb	-2611
ached	-2612
octor	-2613
umezz	-2614
▁1923	-2615
▁starr	-2616
haretta	-2617
▁Kerala	-2618
▁Lumezz	-2619
▁similar	-2620
ty	-2621
avad	-2622
ific	-2623
▁Amd	-2624
▁Cla	-2625
▁Fal	-2626
▁NWC	-2627
▁Pri	-2628
atics	-2629
ellor	-2630
remen	-2631
ridge	-2632
▁Cape	-2633
▁1963.	-2634
▁Bremen	-2635
▁Grenad	-2636
▁Paraguay	-2637
▁Lumezzane	-2638
▁Alpharetta	-2639
pop	-2640
ufa	-2641
▁BLT	-2642
▁Don	-2643
Quaid	-2644
eider	-2645
▁Arem	-2646
▁Gufa	-2647
▁Mass	-2648
▁diam	-2649
▁Kovač	-2650
▁Johann	-2651
▁doctor	-2652
chneider	-2653
▁Amdavad	-2654
▁McQuaid	-2655
▁Turkmen	-2656
dentifier	-2657
46	-2658
ano	-2659
isl	-2660
kma	-2661
iger	-2662
mann	-2663
▁AWH	-2664
▁Tit	-2665
ances	-2666
▁Port	-2667
▁Russ	-2668
hester	-2669
▁Parker	-2670
▁publis	-2671
▁surface	-2672
▁Schneider	-2673
oto	-2674
▁ni	-2675
iden	-2676
kmaar	-2677
▁Barny	-2678
▁David	-2679
▁Potter	-2680
▁Titans	-2681
▁maiden	-2682
▁Mathematics	-2683
As	-2684
Mar	-2685
iaç	-2686
ula	-2687
ists	-2688
▁Glo	-2689
▁Rut	-2690
iação	-2691
other	-2692
▁Chum	-2693
▁bass	-2694
estley	-2695
▁cream	-2696
▁Advances	-2697
▁Chumakov	-2698
▁property	-2699
▁Priestley	-2700
CA	-2701
fore	-2702
▁BBC	-2703
▁Roy	-2704
▁Tab	-2705
▁sit	-2706
igner	-2707
▁many	-2708
▁DeMar	-2709
▁Grant	-2710
▁Texans	-2711
▁airbase	-2712
▁artists	-2713
▁Alexandria	-2714
▁icebreaker	-2715
ms	-2716
▁28	-2717
▁lat	-2718
uated	-2719
▁Abrad	-2720
▁Aires	-2721
▁along	-2722
▁among	-2723
▁Afonso	-2724
▁Alkmaar	-2725
▁DeMarce	-2726
▁speaking	-2727
▁73	-2728
▁Sol	-2729
▁ban	-2730
ingen	-2731
▁1998	-2732
▁Bund	-2733
▁Navy	-2734
▁Stev	-2735
▁Work	-2736
▁Arena	-2737
▁Nation	-2738
▁diameter	-2739
▁Francisco	-2740
▁performed	-2741
St	-2742
elf	-2743
▁Hop	-2744
▁Pad	-2745
pital	-2746
▁AZAL	-2747
▁Base	-2748
▁Jazz	-2749
▁added	-2750
▁Buenos	-2751
▁Abradab	-2752
▁Phillip	-2753
▁situated	-2754
iro	-2755
max	-2756
uis	-2757
utt	-2758
▁Sa	-2759
alus	-2760
▁110	-2761
ublin	-2762
which	-2763
▁Gras	-2764
▁Indie	-2765
▁gover	-2766
▁north	-2767
ospital	-2768
▁Baymax	-2769
▁Dublin	-2770
▁Square	-2771
▁backup	-2772
▁produc	-2773
▁Cornell	-2774
▁studied	-2775
New	-2776
onia	-2777
▁Gaz	-2778
▁Ste	-2779
▁Matt	-2780
▁folk	-2781
▁floor	-2782
▁Gazett	-2783
▁Grasso	-2784
▁division	-2785
▁construct	-2786
▁eg	-2787
enir	-2788
▁Cat	-2789
▁Est	-2790
arlic	-2791
ruary	-2792
▁2005	-2793
▁Alba	-2794
▁Bras	-2795
▁Vice	-2796
▁well	-2797
raight	-2798
▁Alvis	-2799
▁Stuart	-2800
▁system	-2801
▁Andalus	-2802
bor	-2803
Soto	-2804
▁Pen	-2805
adesh	-2806
▁1099	-2807
▁join	-2808
▁seat	-2809
Ammann	-2810
isting	-2811
▁Aenir	-2812
▁Chanc	-2813
▁draft	-2814
▁famil	-2815
▁resid	-2816
▁DeSoto	-2817
▁person	-2818
▁Douglas	-2819
▁Pradesh	-2820
▁Aviation	-2821
▁February	-2822
▁Hospital	-2823
▁Addiction	-2824
▁Grantville	-2825
23	-2826
56	-2827
iop	-2828
uez	-2829
▁Bl	-2830
ttar	-2831
▁Guj	-2832
gonal	-2833
ulton	-2834
▁Educ	-2835
▁Niger	-2836
▁space	-2837
▁family	-2838
▁kelvins	-2839
▁Diagonal	-2840
▁Education	-2841
rys	-2842
inki	-2843
▁Ces	-2844
▁Gen	-2845
kilom	-2846
roadc	-2847
▁Hels	-2848
▁Rodr	-2849
0000.0	-2850
bridge	-2851
▁Uttar	-2852
▁Ethiop	-2853
▁Rotter	-2854
▁Rotterdam	-2855
fl	-2856
hu	-2857
alt	-2858
abad	-2859
iata	-2860
umip	-2861
utera	-2862
uished	-2863
ussels	-2864
▁Bumip	-2865
▁Madin	-2866
▁Malay	-2867
▁Bobina	-2868
▁Fulton	-2869
roadcast	-2870
▁Brussels	-2871
▁Helsinki	-2872
kilometres	-2873
▁Bumiputera	-2874
istinguished	-2875
▁headquarters	-2876
be	-2877
eil	-2878
ilv	-2879
arat	-2880
▁2015	-2881
▁Gott	-2882
▁Paul	-2883
▁Parti	-2884
abbiata	-2885
▁Carlos	-2886
▁Antonis	-2887
▁starred	-2888
▁Gottingen	-2889
▁Malaysian	-2890
its	-2891
▁Mr	-2892
▁Si	-2893
agor	-2894
sburg	-2895
▁1927	-2896
000.0.	-2897
▁Booga	-2898
▁Chief	-2899
▁Mayor	-2900
▁Harbor	-2901
▁Trance	-2902
▁Andalusia	-2903
6,	-2904
ze	-2905
uren	-2906
▁Jon	-2907
▁Sib	-2908
abour	-2909
▁Silv	-2910
▁Buuren	-2911
▁Poland	-2912
▁almond	-2913
▁Agustin	-2914
▁Gujarat	-2915
▁Boogaard	-2916
47	-2917
iaz	-2918
jab	-2919
oor	-2920
pat	-2921
ione	-2922
▁Joe	-2923
▁her	-2924
asmus	-2925
emish	-2926
ociaz	-2927
unjab	-2928
▁Coupe	-2929
▁Sibal	-2930
▁Zahra	-2931
▁polit	-2932
ociazione	-2933
amb	-2934
aug	-2935
nth	-2936
oid	-2937
olt	-2938
arez	-2939
tone	-2940
▁Pow	-2941
ederal	-2942
ondack	-2943
▁Armin	-2944
▁Plant	-2945
▁Suarez	-2946
outheast	-2947
▁Bertone	-2948
▁Bhangra	-2949
▁Erasmus	-2950
▁Flemish	-2951
▁Universit	-2952
83	-2953
urs	-2954
name	-2955
rich	-2956
▁Bor	-2957
▁Rah	-2958
erage	-2959
▁Adir	-2960
▁Hero	-2961
▁Marc	-2962
▁Stan	-2963
▁Vand	-2964
▁Veil	-2965
▁Wild	-2966
astern	-2967
nthpop	-2968
▁Labour	-2969
▁Federal	-2970
▁average	-2971
▁Governor	-2972
▁Adirondack	-2973
▁Indonesian	-2974
edd	-2975
ión	-2976
oke	-2977
▁35	-2978
agle	-2979
▁Gal	-2980
▁Pes	-2981
▁funk	-2982
▁site	-2983
▁took	-2984
enberg	-2985
▁Arbor	-2986
▁Davis	-2987
▁Miche	-2988
▁Africa	-2989
▁Punjab	-2990
▁Mendoza	-2991
000000.0.	-2992
▁Agremiação	-2993
▁Vandenberg	-2994
▁Distinguished	-2995
8.8	-2996
kry	-2997
ler	-2998
ung	-2999
▁top	-3000
iphol	-3001
▁milk	-3002
▁Arros	-3003
▁Fried	-3004
▁garlic	-3005
▁doctoral	-3006
▁straight	-3007
▁elevation	-3008
788	-3009
ram	-3010
emin	-3011
▁los	-3012
mouth	-3013
▁1706	-3014
▁1989	-3015
▁Bert	-3016
▁Linc	-3017
▁cook	-3018
▁Asher	-3019
▁Biden	-3020
▁Bertram	-3021
▁Lincoln	-3022
▁Schiphol	-3023
ilo	-3024
mas	-3025
alla	-3026
▁Cas	-3027
▁Jal	-3028
athan	-3029
▁1950	-3030
▁Funk	-3031
▁cakes	-3032
▁before	-3033
▁17068.8	-3034
▁Turkmenistan	-3035
▁transportation	-3036
gg	-3037
urk	-3038
▁ed	-3039
elso	-3040
hand	-3041
otta	-3042
utes	-3043
▁Akh	-3044
▁Egg	-3045
▁Lah	-3046
▁Moy	-3047
▁bak	-3048
▁1089	-3049
▁Mike	-3050
▁Tama	-3051
United	-3052
elsohn	-3053
eonato	-3054
ileiro	-3055
onnais	-3056
▁Above	-3057
▁Catal	-3058
▁Davut	-3059
▁Moyine	-3060
▁System	-3061
▁Virage	-3062
▁Jonathan	-3063
▁Lyonnais	-3064
▁Republic	-3065
▁Olympique	-3066
▁Brasileiro	-3067
▁Campeonato	-3068
49	-3069
sy	-3070
yg	-3071
ayl	-3072
eff	-3073
esp	-3074
▁61	-3075
,000	-3076
igbe	-3077
▁Hyg	-3078
▁Jar	-3079
▁Mot	-3080
aylor	-3081
weeds	-3082
▁Bers	-3083
▁owner	-3084
▁Cesena	-3085
▁Lahore	-3086
▁Pesaka	-3087
▁banana	-3088
▁Bersatu	-3089
▁Ethiopia	-3090
▁Mendelsohn	-3091
30	-3092
AM	-3093
to	-3094
iea	-3095
▁3.	-3096
▁AE	-3097
▁So	-3098
ehic	-3099
▁Mey	-3100
▁nov	-3101
augur	-3102
overs	-3103
stock	-3104
▁Jeff	-3105
▁cuis	-3106
▁flow	-3107
▁wave	-3108
hattan	-3109
▁Terek	-3110
▁ended	-3111
▁Cumber	-3112
▁Hygiea	-3113
▁Akhigbe	-3114
▁Carroll	-3115
▁Rostock	-3116
▁cuisine	-3117
▁Technical	-3118
▁including	-3119
▁Cumberland	-3120
▁Philippine	-3121
dia	-3122
inn	-3123
nam	-3124
▁41	-3125
iers	-3126
west	-3127
▁dem	-3128
▁Fall	-3129
espace	-3130
▁Dynam	-3131
▁Meyer	-3132
▁vehic	-3133
fecture	-3134
▁Sergio	-3135
▁derived	-3136
▁Mathemat	-3137
▁Catalonia	-3138
▁Colombian	-3139
▁Wildweeds	-3140
▁Prefecture	-3141
aca	-3142
ibb	-3143
odi	-3144
cone	-3145
omac	-3146
▁Sal	-3147
800.0	-3148
obend	-3149
aduate	-3150
remier	-3151
▁Casey	-3152
▁south	-3153
udiomac	-3154
▁inaugur	-3155
▁produced	-3156
udiomaccone	-3157
▁Claudiomaccone	-3158
ij	-3159
ctor	-3160
eyin	-3161
ilmi	-3162
▁ACM	-3163
▁Manc	-3164
▁2014.	-3165
▁Fench	-3166
▁Hilmi	-3167
▁lives	-3168
igneria	-3169
▁latter	-3170
▁minutes	-3171
▁Alcobend	-3172
▁Figneria	-3173
▁Fenchurch	-3174
▁flowering	-3175
▁Arrabbiata	-3176
▁Manchester	-3177
ras	-3178
▁sw	-3179
anac	-3180
andez	-3181
▁1932	-3182
▁four	-3183
▁went	-3184
▁1932.	-3185
▁Scott	-3186
▁Semin	-3187
▁sweet	-3188
▁Ataturk	-3189
▁Premier	-3190
▁Synthpop	-3191
▁Manhattan	-3192
20	-3193
264	-3194
ank	-3195
bus	-3196
osi	-3197
eigh	-3198
ends	-3199
oman	-3200
ther	-3201
▁Der	-3202
▁Off	-3203
▁Ott	-3204
arden	-3205
▁Vinc	-3206
teroid	-3207
▁11264	-3208
▁2005.	-3209
▁Sumat	-3210
▁Arabic	-3211
▁Boston	-3212
▁Hungar	-3213
▁Eastern	-3214
▁Ottoman	-3215
▁Saranac	-3216
▁Vincent	-3217
▁asteroid	-3218
▁Hernandez	-3219
1,	-3220
▁1,	-3221
▁EN	-3222
akur	-3223
ioqu	-3224
▁Hor	-3225
▁tart	-3226
▁Subur	-3227
▁Suburban	-3228
▁operates	-3229
▁Alexandra	-3230
▁Alcobendas	-3231
▁Battlefield	-3232
4,	-3233
57	-3234
RE	-3235
ke	-3236
▁29	-3237
▁Ty	-3238
AIRE	-3239
arch	-3240
▁act	-3241
adhim	-3242
orida	-3243
▁High	-3244
▁Assad	-3245
▁Lydia	-3246
▁ENAIRE	-3247
▁Kadhim	-3248
islature	-3249
▁Antioqu	-3250
▁Batagor	-3251
▁Florida	-3252
▁governed	-3253
53	-3254
rk	-3255
▁–	-3256
077	-3257
lex	-3258
▁18.	-3259
▁190	-3260
▁AEK	-3261
▁won	-3262
▁year	-3263
ausage	-3264
▁1969.	-3265
▁Boris	-3266
▁Deram	-3267
▁Mario	-3268
▁Peron	-3269
▁novel	-3270
▁plant	-3271
ersburg	-3272
▁Thakur	-3273
▁Sumatra	-3274
▁broadcast	-3275
,.	-3276
odo	-3277
▁Pe	-3278
arol	-3279
ture	-3280
▁700	-3281
▁Cor	-3282
▁Mir	-3283
▁Euro	-3284
▁Lipp	-3285
▁Tyus	-3286
▁pork	-3287
▁punk	-3288
▁Botta	-3289
▁Halim	-3290
▁wheel	-3291
▁Lippinc	-3292
▁Wilkins	-3293
▁Alexander	-3294
▁Secretary	-3295
▁contributing	-3296
18	-3297
/19	-3298
iba	-3299
ürk	-3300
▁FD	-3301
arem	-3302
▁12.	-3303
▁Sid	-3304
eptun	-3305
▁1101	-3306
▁Clem	-3307
▁Khor	-3308
▁Lars	-3309
▁Miri	-3310
▁Mumb	-3311
▁sold	-3312
airman	-3313
uching	-3314
▁Island	-3315
▁Neptun	-3316
▁nation	-3317
▁Complex	-3318
▁Monocacy	-3319
▁Antioquia	-3320
▁Lippincott	-3321
▁originally	-3322
▁Arianespace	-3323
439	-3324
enz	-3325
▁33	-3326
▁ol	-3327
0777	-3328
idro	-3329
iven	-3330
▁Vik	-3331
itiba	-3332
nando	-3333
ussen	-3334
▁Cust	-3335
▁Jorge	-3336
▁Rutte	-3337
▁olive	-3338
▁Isidro	-3339
▁Mattar	-3340
▁Mumbai	-3341
▁Office	-3342
▁Sidcup	-3343
▁Kuching	-3344
▁Located	-3345
▁Shivers	-3346
▁publisher	-3347
ho	-3348
ila	-3349
lue	-3350
oma	-3351
yan	-3352
▁RO	-3353
pedo	-3354
uben	-3355
▁III	-3356
▁Jus	-3357
▁Rey	-3358
▁Seb	-3359
▁1097	-3360
▁Gang	-3361
▁Rasm	-3362
▁Soho	-3363
▁cent	-3364
▁dean	-3365
ateurs	-3366
▁2000.	-3367
▁Ahmad	-3368
▁Spani	-3369
▁clubs	-3370
▁Custom	-3371
▁560090.	-3372
▁Fernando	-3373
▁district	-3374
▁memorial	-3375
▁Rasmussen	-3376
▁categoris	-3377
▁Mattarella	-3378
-130	-3379
atis	-3380
part	-3381
size	-3382
ures	-3383
▁Cit	-3384
▁Rou	-3385
organ	-3386
▁1962	-3387
▁Falc	-3388
arrant	-3389
igator	-3390
▁Reyes	-3391
▁There	-3392
▁house	-3393
▁Borman	-3394
▁Morgan	-3395
▁Sebast	-3396
graduate	-3397
▁Hamburg	-3398
▁Torpedo	-3399
▁Clematis	-3400
▁Nigerian	-3401
▁Phillips	-3402
▁chairman	-3403
▁categorised	-3404
RA	-3405
är	-3406
alb	-3407
▁Dol	-3408
asion	-3409
▁1996	-3410
▁Jusuf	-3411
▁Vicia	-3412
▁Falcons	-3413
▁Station	-3414
▁Steuben	-3415
▁Asuncion	-3416
▁Spaniards	-3417
▁identifier	-3418
▁Palaeontolog	-3419
▁88	-3420
6063	-3421
engo	-3422
▁737	-3423
▁Hap	-3424
▁Nik	-3425
▁Pan	-3426
▁Que	-3427
▁shr	-3428
illed	-3429
▁East	-3430
▁nood	-3431
Soviet	-3432
▁Julia	-3433
▁Kalla	-3434
▁Peter	-3435
▁General	-3436
▁service	-3437
▁Polonica	-3438
▁constructed	-3439
▁inaugurated	-3440
▁Associazione	-3441
54	-3442
CAO	-3443
een	-3444
ger	-3445
ple	-3446
rup	-3447
▁43	-3448
▁Pu	-3449
asan	-3450
cher	-3451
colo	-3452
emon	-3453
ocon	-3454
omay	-3455
uppo	-3456
▁Aur	-3457
lines	-3458
olini	-3459
▁ICAO	-3460
oconut	-3461
▁Tirst	-3462
▁Gruppo	-3463
▁active	-3464
▁killed	-3465
▁Tarrant	-3466
▁mission	-3467
▁southeast	-3468
▁Palaeontologica	-3469
52	-3470
wo	-3471
iga	-3472
imo	-3473
kes	-3474
urg	-3475
▁KW	-3476
▁Lu	-3477
apit	-3478
uell	-3479
▁Hus	-3480
ocado	-3481
▁1999	-3482
▁last	-3483
uellos	-3484
▁2015.	-3485
▁Bengo	-3486
▁Speed	-3487
▁Works	-3488
▁Jarama	-3489
▁school	-3490
▁vehicle	-3491
▁Tirstrup	-3492
aracuellos	-3493
da	-3494
rip	-3495
▁45	-3496
▁Do	-3497
▁Kl	-3498
▁MB	-3499
▁Mi	-3500
alth	-3501
iver	-3502
oriz	-3503
quel	-3504
read	-3505
▁Nar	-3506
▁two	-3507
eburg	-3508
speed	-3509
▁1928	-3510
▁cour	-3511
▁Klaus	-3512
▁Mihaj	-3513
▁Health	-3514
▁Legends	-3515
▁sausage	-3516
▁municipal	-3517
▁Chancellor	-3518
▁Paracuellos	-3519
lov	-3520
▁Du	-3521
ermo	-3522
imer	-3523
▁109	-3524
▁Lok	-3525
Zahra	-3526
ilogr	-3527
▁Modi	-3528
▁meat	-3529
▁town	-3530
▁1986.	-3531
▁Castle	-3532
▁Narend	-3533
▁Soviet	-3534
▁Jackson	-3535
▁Palermo	-3536
▁competed	-3537
▁Magdeburg	-3538
▁abbreviation	-3539
òs	-3540
2.3	-3541
huk	-3542
tiy	-3543
6391	-3544
anil	-3545
▁399	-3546
▁exp	-3547
▁kms	-3548
abhuk	-3549
arble	-3550
inghe	-3551
▁AFIT	-3552
▁Cand	-3553
▁Jens	-3554
▁Wick	-3555
▁lies	-3556
averal	-3557
▁Ahmed	-3558
▁Coupé	-3559
▁Ranil	-3560
▁other	-3561
abhukum	-3562
▁Motors	-3563
▁kilogr	-3564
▁marble	-3565
▁Wickrem	-3566
▁granite	-3567
▁resides	-3568
▁Dynamics	-3569
▁Mihajlov	-3570
▁Narendra	-3571
▁soldiers	-3572
▁Canaveral	-3573
▁wheelbase	-3574
..	-3575
▁44	-3576
▁Ot	-3577
kara	-3578
tiye	-3579
wide	-3580
▁Hum	-3581
aster	-3582
▁1957	-3583
▁pass	-3584
icitas	-3585
▁Dykes	-3586
▁Greek	-3587
▁Otkry	-3588
▁Powys	-3589
▁Solan	-3590
esinghe	-3591
▁Ankara	-3592
▁Stadio	-3593
▁course	-3594
▁plants	-3595
iversity	-3596
abhukumar	-3597
▁Alligator	-3598
▁Felicitas	-3599
▁Otkrytiye	-3600
▁Wickremesinghe	-3601
/36	-3602
aro	-3603
▁03	-3604
▁Sé	-3605
inos	-3606
▁Cow	-3607
▁Sus	-3608
▁cit	-3609
berts	-3610
ronze	-3611
urple	-3612
▁1994	-3613
▁Kutt	-3614
▁cake	-3615
▁come	-3616
▁cond	-3617
▁form	-3618
▁Death	-3619
▁Humph	-3620
▁Série	-3621
▁Cowper	-3622
000000.0	-3623
▁Larcher	-3624
▁coconut	-3625
▁command	-3626
▁binignit	-3627
▁kilograms	-3628
▁nationwide	-3629
▁university	-3630
▁Prabhukumar	-3631
78	-3632
-41	-3633
inh	-3634
oul	-3635
▁Ga	-3636
▁SB	-3637
atch	-3638
ived	-3639
opis	-3640
umai	-3641
yrol	-3642
▁Def	-3643
▁Ras	-3644
▁Six	-3645
▁dep	-3646
-4165	-3647
▁Alma	-3648
▁Lanc	-3649
▁Lira	-3650
▁Pinh	-3651
▁camp	-3652
attoor	-3653
▁litre	-3654
journal	-3655
▁Church	-3656
▁Susana	-3657
▁Atatürk	-3658
▁Community	-3659
FK	-3660
ind	-3661
▁TC	-3662
▁To	-3663
oglu	-3664
omas	-3665
▁PFK	-3666
▁Pac	-3667
▁Wid	-3668
onent	-3669
▁1993	-3670
▁Fiat	-3671
▁Tony	-3672
▁Ward	-3673
▁away	-3674
abbrev	-3675
▁Croma	-3676
▁Grove	-3677
▁Sixma	-3678
▁Tyrol	-3679
▁codes	-3680
▁confl	-3681
▁measu	-3682
▁water	-3683
▁Ferenc	-3684
▁Kuttik	-3685
▁Thomas	-3686
▁Widodo	-3687
▁campus	-3688
▁Germans	-3689
▁Metapan	-3690
▁Pacific	-3691
▁Pinhais	-3692
▁Franklin	-3693
▁Humphrys	-3694
▁Jefferson	-3695
▁governing	-3696
192	-3697
eph	-3698
ius	-3699
esel	-3700
▁Fav	-3701
izade	-3702
▁Bolt	-3703
rement	-3704
▁0-439	-3705
▁Arròs	-3706
▁Plack	-3707
92000.0	-3708
▁Contra	-3709
▁Siomay	-3710
▁covers	-3711
▁passed	-3712
▁Kuttikk	-3713
▁Canonica	-3714
▁Rasizade	-3715
▁Davutoglu	-3716
▁Grenadier	-3717
▁McDonnell	-3718
▁measurement	-3719
ern	-3720
oko	-3721
zhn	-3722
char	-3723
ford	-3724
▁5.3	-3725
▁bet	-3726
▁col	-3727
▁den	-3728
▁dos	-3729
▁new	-3730
▁rup	-3731
▁Joko	-3732
▁sour	-3733
▁west	-3734
ociere	-3735
▁Artur	-3736
▁Stell	-3737
▁spent	-3738
▁Staten	-3739
▁Academy	-3740
▁Tennant	-3741
▁conflict	-3742
▁Kuttikkattoor	-3743
22	-3744
He	-3745
326	-3746
ata	-3747
bul	-3748
elk	-3749
imp	-3750
kin	-3751
win	-3752
xur	-3753
tain	-3754
uban	-3755
ural	-3756
▁Mer	-3757
▁Tan	-3758
ohann	-3759
▁Brom	-3760
▁Dead	-3761
▁Drum	-3762
▁Ryan	-3763
▁cons	-3764
▁feet	-3765
ohannis	-3766
▁Buchar	-3767
▁Plante	-3768
▁Sports	-3769
▁Systems	-3770
▁derives	-3771
▁Airlines	-3772
▁Crociere	-3773
▁Ahmedabad	-3774
▁municipality	-3775
AG	-3776
3.9	-3777
▁dr	-3778
ails	-3779
otus	-3780
riet	-3781
stan	-3782
ween	-3783
xury	-3784
▁151	-3785
▁186	-3786
▁Nix	-3787
▁rot	-3788
endam	-3789
ician	-3790
ogson	-3791
utale	-3792
▁find	-3793
▁rais	-3794
▁such	-3795
insula	-3796
▁25326	-3797
▁Lotus	-3798
▁beans	-3799
▁elect	-3800
▁Manuel	-3801
▁Member	-3802
▁Rahman	-3803
▁native	-3804
▁sequel	-3805
▁Austral	-3806
▁Halimah	-3807
▁between	-3808
▁Bucharest	-3809
▁Burlington	-3810
▁Stellendam	-3811
DE	-3812
IV	-3813
-0.	-3814
DEN	-3815
ask	-3816
che	-3817
rop	-3818
▁CO	-3819
▁VK	-3820
▁11.	-3821
▁Cul	-3822
▁HIV	-3823
▁Sat	-3824
6063)	-3825
apitol	-3826
varosi	-3827
▁CODEN	-3828
▁Doris	-3829
▁Steve	-3830
▁Valls	-3831
▁Yacob	-3832
▁(66063)	-3833
▁Michele	-3834
▁Haputale	-3835
▁reference	-3836
▁manufacturer	-3837
",	-3838
▁36	-3839
▁39	-3840
▁da	-3841
▁inf	-3842
alene	-3843
anese	-3844
▁2013	-3845
▁Just	-3846
▁Austr	-3847
▁Mason	-3848
▁Super	-3849
▁hails	-3850
stanbul	-3851
▁Oldend	-3852
▁Pogson	-3853
▁Purple	-3854
▁2014-15	-3855
▁Harriet	-3856
▁connect	-3857
▁grounds	-3858
▁Cambridge	-3859
▁Marcolini	-3860
▁Parkersburg	-3861
▁Ferencvarosi	-3862
▁Congressional	-3863
▁architectural	-3864
03	-3865
84	-3866
▁4.	-3867
anda	-3868
eddy	-3869
▁8.3	-3870
▁But	-3871
▁Fut	-3872
aving	-3873
umbus	-3874
uncan	-3875
▁Real	-3876
▁tall	-3877
▁Bures	-3878
▁Roule	-3879
▁eaten	-3880
▁given	-3881
▁power	-3882
▁Duncan	-3883
▁Newport	-3884
▁253260.0	-3885
▁Iohannis	-3886
▁attached	-3887
▁exponent	-3888
▁Friedrich	-3889
▁Magdalene	-3890
0,	-3891
14	-3892
1.6	-3893
tic	-3894
afen	-3895
ajan	-3896
inco	-3897
isch	-3898
real	-3899
▁Eat	-3900
▁Gra	-3901
▁Per	-3902
enton	-3903
igher	-3904
stown	-3905
▁Kent	-3906
▁Ober	-3907
▁Vein	-3908
▁Welf	-3909
▁came	-3910
▁nick	-3911
entina	-3912
ersham	-3913
helman	-3914
idered	-3915
▁131.6	-3916
▁Guner	-3917
▁Hamil	-3918
▁Paris	-3919
▁Reddy	-3920
▁Scrip	-3921
▁bands	-3922
▁influ	-3923
ticinco	-3924
▁Eaters	-3925
▁bronze	-3926
▁Butuner	-3927
▁Mahajan	-3928
▁Monarch	-3929
▁Welfare	-3930
▁creator	-3931
▁Hamilton	-3932
▁Javanese	-3933
▁Montreal	-3934
▁Oldendor	-3935
▁Faversham	-3936
▁Wolfsburg	-3937
▁Oberhelman	-3938
▁Veinticinco	-3939
11	-3940
ald	-3941
ver	-3942
▁3,	-3943
Kalb	-3944
etts	-3945
▁Bro	-3946
▁kgs	-3947
▁mod	-3948
herty	-3949
▁Accr	-3950
oridis	-3951
shafen	-3952
▁2006,	-3953
▁Makis	-3954
▁Stars	-3955
▁Campus	-3956
▁Guards	-3957
▁Taylor	-3958
▁higher	-3959
▁Huseyin	-3960
▁Rouleau	-3961
▁Sumitra	-3962
▁Voridis	-3963
▁Columbus	-3964
abbreviated	-3965
▁Accrington	-3966
▁Harrietstown	-3967
/28	-3968
HAM	-3969
aum	-3970
eat	-3971
ech	-3972
ulf	-3973
▁lu	-3974
osen	-3975
utch	-3976
well	-3977
▁ARA	-3978
▁Cur	-3979
▁Kar	-3980
▁Rol	-3981
achus	-3982
doria	-3983
iment	-3984
ussia	-3985
▁1001	-3986
▁Jose	-3987
▁MBAs	-3988
▁RHAM	-3989
▁Samp	-3990
▁pred	-3991
arable	-3992
▁instr	-3993
▁stars	-3994
▁DeKalb	-3995
▁Petrot	-3996
▁cooked	-3997
▁Gaussia	-3998
achusetts	-3999
▁Austrian	-4000
▁included	-4001
▁Dougherty	-4002
▁Oldendorf	-4003
▁Sampdoria	-4004
▁instrument	-4005
▁politician	-4006
▁Universities	-4007
▁Massachusetts	-4008
Al	-4009
fts	-4010
oit	-4011
▁Ma	-4012
▁Vi	-4013
▁oc	-4014
bank	-4015
ulia	-4016
▁MIT	-4017
▁Tel	-4018
▁typ	-4019
agine	-4020
itsot	-4021
▁Graz	-4022
▁Gulf	-4023
▁Imst	-4024
▁film	-4025
▁than	-4026
▁China	-4027
▁Johns	-4028
▁Benoit	-4029
▁Berlin	-4030
▁Mitsot	-4031
▁Region	-4032
▁chosen	-4033
▁luxury	-4034
▁Belgaum	-4035
▁Hopkins	-4036
formation	-4037
▁Colombia	-4038
▁Mitsotakis	-4039
▁comparable	-4040
▁considered	-4041
▁discoverer	-4042
▁Friedrichshafen	-4043
196	-4044
loy	-4045
oss	-4046
eing	-4047
▁120	-4048
▁18,	-4049
▁252	-4050
▁Mac	-4051
▁aut	-4052
stant	-4053
▁Kids	-4054
▁Saab	-4055
▁when	-4056
abelle	-4057
▁Heart	-4058
▁Izmir	-4059
▁Luanda	-4060
▁Valenc	-4061
▁Burbank	-4062
▁Imagine	-4063
▁Roberts	-4064
▁Isabelle	-4065
▁Istanbul	-4066
▁Scripture	-4067
▁postgraduate	-4068
add	-4069
bem	-4070
▁63	-4071
▁83	-4072
ayaw	-4073
elos	-4074
▁320	-4075
▁Cyr	-4076
▁Kon	-4077
▁Luf	-4078
▁mid	-4079
▁you	-4080
addum	-4081
arkov	-4082
epura	-4083
ition	-4084
omato	-4085
▁Kore	-4086
▁Star	-4087
achine	-4088
▁Carol	-4089
▁Count	-4090
▁Jayaw	-4091
▁Nikos	-4092
▁Popov	-4093
▁Satem	-4094
▁Their	-4095
▁flour	-4096
▁Halton	-4097
amateurs	-4098
bemaster	-4099
▁America	-4100
▁address	-4101
▁almonds	-4102
▁Konstant	-4103
▁rotation	-4104
▁Palaeontol	-4105
akh	-4106
ghe	-4107
oye	-4108
viv	-4109
▁2.	-4110
▁6.	-4111
▁Yu	-4112
four	-4113
paty	-4114
vent	-4115
▁Esp	-4116
▁leg	-4117
▁voy	-4118
▁Jano	-4119
▁Lviv	-4120
▁Pall	-4121
▁USAF	-4122
▁Zamb	-4123
qaddum	-4124
ventus	-4125
zhnoye	-4126
▁1996.	-4127
▁front	-4128
actions	-4129
▁Barkov	-4130
▁Design	-4131
▁joined	-4132
▁tomato	-4133
▁voyage	-4134
▁Gazette	-4135
▁Karpaty	-4136
▁Juventus	-4137
▁Yuzhnoye	-4138
▁elevated	-4139
ardenepura	-4140
▁Richardson	-4141
▁Globemaster	-4142
▁Jayawardenepura	-4143
-04	-4144
ipz	-4145
0002	-4146
adoi	-4147
here	-4148
osun	-4149
outs	-4150
▁210	-4151
▁Yin	-4152
▁bar	-4153
▁jam	-4154
▁out	-4155
▁rap	-4156
▁soy	-4157
6391)	-4158
gheau	-4159
ierce	-4160
ipzig	-4161
ylvia	-4162
▁164,	-4163
▁1933	-4164
▁Rose	-4165
▁edit	-4166
▁leaf	-4167
outsis	-4168
▁Badoi	-4169
▁Gloom	-4170
▁Greym	-4171
▁Jacob	-4172
▁Stern	-4173
▁Tosun	-4174
▁George	-4175
▁Viking	-4176
▁battle	-4177
▁predec	-4178
▁Leipzig	-4179
▁Olympic	-4180
▁Voutsis	-4181
▁Bergheau	-4182
▁Carolina	-4183
▁category	-4184
▁Greymachine	-4185
▁Transactions	-4186
.)	-4187
67	-4188
It	-4189
ox	-4190
2.8	-4191
ife	-4192
kar	-4193
uma	-4194
5426	-4195
atar	-4196
enan	-4197
ival	-4198
onge	-4199
onny	-4200
rote	-4201
▁Jos	-4202
▁non	-4203
0777)	-4204
enced	-4205
▁Osim	-4206
▁Rand	-4207
▁arem	-4208
▁eggs	-4209
▁Jonny	-4210
▁bread	-4211
▁wrote	-4212
elkhand	-4213
▁Adenan	-4214
▁Boeing	-4215
▁Pierce	-4216
▁Sylvia	-4217
▁butter	-4218
▁(66391)	-4219
▁Massimo	-4220
▁noodles	-4221
ottingham	-4222
▁Alexandre	-4223
▁Peninsula	-4224
▁Aleksander	-4225
▁Bundelkhand	-4226
▁Information	-4227
íg	-4228
670	-4229
705	-4230
hit	-4231
loc	-4232
ots	-4233
sip	-4234
otte	-4235
▁(41	-4236
▁Pav	-4237
arnie	-4238
opoul	-4239
íguez	-4240
▁1930	-4241
▁Mayo	-4242
▁Prok	-4243
▁Tsip	-4244
▁will	-4245
atrick	-4246
sville	-4247
▁1966.	-4248
▁Drago	-4249
▁Kotte	-4250
▁Qatar	-4251
opoulos	-4252
▁475426	-4253
▁Alexis	-4254
▁height	-4255
▁Patrick	-4256
▁poaceae	-4257
▁Prokopis	-4258
▁Rodríguez	-4259
▁Solanales	-4260
▁Uruguayan	-4261
▁Valencian	-4262
▁Marysville	-4263
▁Contributing	-4264
-8	-4265
51	-4266
dez	-4267
ets	-4268
one	-4269
uty	-4270
▁AT	-4271
▁FK	-4272
ilst	-4273
onym	-4274
reek	-4275
yard	-4276
▁Amb	-4277
▁Ros	-4278
anger	-4279
ender	-4280
ández	-4281
▁Oper	-4282
▁Perm	-4283
▁dire	-4284
▁17000	-4285
▁Enter	-4286
▁Iulia	-4287
▁Paisa	-4288
▁death	-4289
▁Shumai	-4290
▁sarnie	-4291
tainment	-4292
▁Capitol	-4293
▁Tsipras	-4294
▁(410777)	-4295
▁Hernández	-4296
▁Petrotrin	-4297
▁Mathematica	-4298
▁nationality	-4299
▁predecessor	-4300
▁Entertainment	-4301
TU	-4302
sk	-4303
zh	-4304
-03	-4305
-11	-4306
8.0	-4307
ior	-4308
tel	-4309
uff	-4310
▁09	-4311
▁kg	-4312
back	-4313
iece	-4314
oria	-4315
üner	-4316
▁Ska	-4317
▁Van	-4318
▁sam	-4319
▁squ	-4320
eanut	-4321
merce	-4322
uffin	-4323
▁1907	-4324
▁Live	-4325
▁barm	-4326
angled	-4327
buster	-4328
▁1962.	-4329
▁1995.	-4330
▁2004.	-4331
▁Eagle	-4332
▁Stock	-4333
▁butty	-4334
lymouth	-4335
▁Banner	-4336
▁editor	-4337
▁muffin	-4338
▁sambal	-4339
00000000	-4340
▁Russian	-4341
▁demonym	-4342
▁tenants	-4343
ockbuster	-4344
▁Commerce	-4345
▁Spangled	-4346
▁Hungarica	-4347
▁Academical	-4348
▁Konstantinos	-4349
7,	-4350
-20	-4351
55)	-4352
esl	-4353
ual	-4354
vis	-4355
wan	-4356
▁69	-4357
▁Tu	-4358
ffer	-4359
lyde	-4360
▁159	-4361
▁32.	-4362
▁Bal	-4363
▁Här	-4364
▁sev	-4365
ctech	-4366
itary	-4367
onnes	-4368
▁(192	-4369
▁9000	-4370
▁Blue	-4371
▁Ship	-4372
esliga	-4373
league	-4374
▁1979.	-4375
▁2016.	-4376
▁Chute	-4377
▁Clube	-4378
▁Futeb	-4379
▁Wiley	-4380
▁model	-4381
▁piece	-4382
▁Härtel	-4383
▁Korean	-4384
▁sanger	-4385
▁whilst	-4386
icialist	-4387
▁(19255)	-4388
▁Arctech	-4389
▁bhangra	-4390
▁organiz	-4391
▁Plymouth	-4392
▁Shipyard	-4393
▁director	-4394
▁nickname	-4395
▁community	-4396
▁government	-4397
▁Justicialist	-4398
eo	-4399
-01	-4400
1.2	-4401
ael	-4402
▁51	-4403
▁53	-4404
▁70	-4405
▁MA	-4406
edon	-4407
iazz	-4408
leri	-4409
otyl	-4410
▁277	-4411
▁MTU	-4412
▁Rev	-4413
▁Two	-4414
▁cob	-4415
▁pro	-4416
▁ras	-4417
ensed	-4418
iguez	-4419
▁1974	-4420
▁Nova	-4421
▁Palo	-4422
▁Seco	-4423
▁Vila	-4424
▁wife	-4425
stroke	-4426
▁Clyde	-4427
▁Lokke	-4428
▁Piazz	-4429
▁lemon	-4430
▁Placid	-4431
▁rasher	-4432
otyledon	-4433
▁Futebol	-4434
▁Penarol	-4435
▁Asunción	-4436
▁Gazettes	-4437
▁Italians	-4438
▁Bundesliga	-4439
▁Blockbuster	-4440
▁Superleague	-4441
86	-4442
ci	-4443
ić	-4444
-07	-4445
-2)	-4446
735	-4447
ejo	-4448
iya	-4449
uro	-4450
▁Aw	-4451
▁Ev	-4452
▁Kn	-4453
acew	-4454
illi	-4455
imov	-4456
iton	-4457
oles	-4458
ular	-4459
▁5.7	-4460
▁Sao	-4461
▁ind	-4462
ashid	-4463
▁Aure	-4464
▁Hein	-4465
▁Rakh	-4466
▁Whig	-4467
▁Wien	-4468
▁euro	-4469
mashed	-4470
▁Afara	-4471
▁Awadh	-4472
▁rupee	-4473
▁Conejo	-4474
▁Rashid	-4475
▁Spacew	-4476
▁Defence	-4477
▁Piazzia	-4478
▁Rolando	-4479
▁Sandesh	-4480
▁coached	-4481
▁granola	-4482
▁periton	-4483
▁Africans	-4484
▁Aureoles	-4485
▁Rakhimov	-4486
▁Rodriguez	-4487
▁Spacewatch	-4488
2,	-4489
▁Í	-4490
80.	-4491
eez	-4492
ode	-4493
▁4,	-4494
▁Ra	-4495
▁ap	-4496
▁cy	-4497
788)	-4498
atus	-4499
bour	-4500
itis	-4501
udor	-4502
▁(15	-4503
▁Fil	-4504
phalt	-4505
▁Salv	-4506
▁sign	-4507
▁Amkar	-4508
▁Billy	-4509
▁Fallu	-4510
▁aired	-4511
▁reign	-4512
▁Ícolo	-4513
▁Gerard	-4514
▁colour	-4515
▁status	-4516
▁(15788)	-4517
▁63800.0	-4518
▁Cameron	-4519
▁Silvano	-4520
▁raisins	-4521
▁Curitiba	-4522
▁Argentine	-4523
▁legislature	-4524
▁peritonitis	-4525
Kh	-4526
ely	-4527
jah	-4528
ota	-4529
sid	-4530
ude	-4531
uso	-4532
▁7.	-4533
▁78	-4534
▁op	-4535
Khor	-4536
quez	-4537
than	-4538
▁Inv	-4539
▁mms	-4540
▁tur	-4541
-1768	-4542
arage	-4543
eezed	-4544
ellow	-4545
ibbet	-4546
▁Gold	-4547
chedel	-4548
ifican	-4549
▁1957.	-4550
▁Maran	-4551
▁Thema	-4552
▁coach	-4553
▁cylin	-4554
oughlin	-4555
ublican	-4556
▁Dothan	-4557
▁Lancia	-4558
▁subsid	-4559
sychedel	-4560
▁Grenada	-4561
▁avocado	-4562
▁records	-4563
▁Fallujah	-4564
▁Salvador	-4565
▁connected	-4566
▁significan	-4567
▁Monocotyledon	-4568
-3,	-4569
-3.	-4570
6.0	-4571
80-	-4572
adi	-4573
ije	-4574
▁49	-4575
▁Ya	-4576
▁ad	-4577
exas	-4578
▁441	-4579
▁App	-4580
▁McL	-4581
▁Mor	-4582
▁bat	-4583
▁hot	-4584
▁Flib	-4585
▁Pagn	-4586
▁Pont	-4587
▁That	-4588
▁prov	-4589
▁falls	-4590
▁fruit	-4591
▁occup	-4592
▁weigh	-4593
capital	-4594
igibbet	-4595
▁Sergey	-4596
▁Jalisco	-4597
▁Pagnell	-4598
▁Invasion	-4599
▁McLoughlin	-4600
▁significant	-4601
ša	-4602
305	-4603
aph	-4604
iti	-4605
▁Em	-4606
▁On	-4607
avan	-4608
eare	-4609
leas	-4610
lect	-4611
oice	-4612
ries	-4613
thur	-4614
▁Gab	-4615
▁Mel	-4616
ators	-4617
elije	-4618
endic	-4619
etown	-4620
iniša	-4621
raero	-4622
▁Bako	-4623
▁Cons	-4624
▁Dian	-4625
▁Jaya	-4626
▁Korn	-4627
▁Pavl	-4628
▁Solo	-4629
▁nort	-4630
▁size	-4631
ceived	-4632
eareas	-4633
▁Cross	-4634
▁Demak	-4635
▁Filip	-4636
▁Jalan	-4637
▁Pleas	-4638
▁Sehit	-4639
▁Appeal	-4640
▁Arthur	-4641
▁Sendic	-4642
▁Siniša	-4643
▁Wilson	-4644
▁shrimp	-4645
▁classed	-4646
▁Flibbert	-4647
▁Infraero	-4648
▁Pleasant	-4649
▁military	-4650
▁Kornelije	-4651
▁buildings	-4652
▁northeast	-4653
▁Mihajlović	-4654
▁Ponteareas	-4655
▁Recordings	-4656
▁influenced	-4657
▁kilometers	-4658
▁Pavlopoulos	-4659
-16	-4660
613	-4661
633	-4662
aft	-4663
cam	-4664
hai	-4665
nyk	-4666
▁Tr	-4667
chup	-4668
elin	-4669
rata	-4670
▁Ana	-4671
▁che	-4672
aiser	-4673
oales	-4674
ology	-4675
orizo	-4676
where	-4677
▁1983	-4678
▁pers	-4679
▁time	-4680
▁turn	-4681
etchup	-4682
▁Aniti	-4683
▁Metal	-4684
▁Music	-4685
▁Sycam	-4686
▁Almond	-4687
▁Errata	-4688
▁Kaiser	-4689
▁Ramaph	-4690
▁Static	-4691
▁Tennis	-4692
▁cheese	-4693
▁Caravan	-4694
▁subsidi	-4695
▁bakewell	-4696
▁measures	-4697
▁Sehitleri	-4698
▁southwest	-4699
▁Republican	-4700
▁organization	-4701
▁Flibbertigibbet	-4702
ss	-4703
uy	-4704
/21	-4705
7.1	-4706
kub	-4707
▁Re	-4708
▁ST	-4709
adzh	-4710
lein	-4711
loom	-4712
mill	-4713
ssex	-4714
▁16.	-4715
▁Sea	-4716
▁pep	-4717
esame	-4718
iving	-4719
whose	-4720
▁1500	-4721
▁Dona	-4722
▁Fior	-4723
▁Hard	-4724
▁Iuso	-4725
▁Mold	-4726
▁Ruth	-4727
▁2013.	-4728
▁Cyril	-4729
▁Edwin	-4730
▁Elect	-4731
▁Gadzh	-4732
▁Rojas	-4733
▁Swiss	-4734
▁100305	-4735
▁Russia	-4736
▁Seagle	-4737
▁Territ	-4738
▁organs	-4739
▁weighs	-4740
ervative	-4741
▁Greater	-4742
▁Heinlein	-4743
▁Sycamore	-4744
▁electric	-4745
▁received	-4746
▁Ramaphosa	-4747
▁Nottingham	-4748
25	-4749
5.3	-4750
irc	-4751
onz	-4752
elly	-4753
hers	-4754
iano	-4755
reed	-4756
ubic	-4757
▁211	-4758
▁3.0	-4759
▁ACF	-4760
▁Rad	-4761
▁may	-4762
igion	-4763
İzmir	-4764
▁0.04	-4765
▁Gonz	-4766
▁Gran	-4767
▁gram	-4768
▁land	-4769
▁pick	-4770
asanjo	-4771
▁Auron	-4772
▁Bloom	-4773
▁belly	-4774
▁short	-4775
elinids	-4776
▁Tomato	-4777
▁peanut	-4778
▁sponge	-4779
▁Arabian	-4780
▁Stanley	-4781
▁Obasanjo	-4782
▁religion	-4783
▁Psychedel	-4784
▁northwest	-4785
▁architecture	-4786
▁headquartered	-4787
352	-4788
AID	-4789
mar	-4790
oba	-4791
set	-4792
sta	-4793
▁DA	-4794
▁Ho	-4795
enaw	-4796
oang	-4797
ucci	-4798
▁Arp	-4799
imera	-4800
itoba	-4801
tenaw	-4802
wheel	-4803
▁Olus	-4804
▁past	-4805
▁spec	-4806
430000	-4807
reedom	-4808
risten	-4809
uction	-4810
▁Essex	-4811
▁Sands	-4812
▁Worth	-4813
▁genus	-4814
▁makes	-4815
eymouth	-4816
isional	-4817
▁centre	-4818
▁offset	-4819
▁Panucci	-4820
▁Primera	-4821
▁element	-4822
▁Manitoba	-4823
▁Olusegun	-4824
▁Zamboang	-4825
▁fullname	-4826
▁Christmas	-4827
▁Hamburger	-4828
▁Washtenaw	-4829
▁0-439-1768	-4830
▁Fiorentina	-4831
▁Williamson	-4832
▁Conservative	-4833
58	-4834
AC	-4835
/32	-4836
900	-4837
aac	-4838
ijm	-4839
ián	-4840
met	-4841
oud	-4842
red	-4843
roe	-4844
▁4-	-4845
egen	-4846
emer	-4847
ians	-4848
jano	-4849
lins	-4850
oger	-4851
▁23,	-4852
▁Jak	-4853
▁Pat	-4854
▁Tic	-4855
▁Tim	-4856
▁UTC	-4857
orden	-4858
▁0.01	-4859
▁1966	-4860
▁1995	-4861
▁2004	-4862
▁Nijm	-4863
▁Post	-4864
▁Puig	-4865
▁Radb	-4866
▁fish	-4867
▁line	-4868
▁near	-4869
▁then	-4870
marine	-4871
▁Dolph	-4872
▁Emile	-4873
▁Irish	-4874
▁Isaac	-4875
▁Maine	-4876
▁Royce	-4877
▁citiz	-4878
▁games	-4879
▁local	-4880
umberto	-4881
▁Center	-4882
▁Chiefs	-4883
▁Ganges	-4884
▁Monroe	-4885
▁Ticino	-4886
▁Worden	-4887
▁living	-4888
▁Cullins	-4889
▁Freedom	-4890
▁Galicia	-4891
▁compete	-4892
▁Humberto	-4893
▁Nijmegen	-4894
▁christen	-4895
▁Sebastián	-4896
▁subsidiary	-4897
▁Provisional	-4898
075	-4899
emp	-4900
▁08	-4901
9343	-4902
adio	-4903
amel	-4904
apán	-4905
arta	-4906
ilow	-4907
ould	-4908
oust	-4909
yria	-4910
▁1.9	-4911
▁610	-4912
▁978	-4913
▁Bru	-4914
▁Odd	-4915
andon	-4916
▁1799	-4917
▁3180	-4918
▁Pain	-4919
▁Parc	-4920
▁Wich	-4921
▁army	-4922
andard	-4923
ircuit	-4924
oustic	-4925
▁1930.	-4926
▁1963,	-4927
▁1989,	-4928
▁Creek	-4929
▁Marry	-4930
▁Queen	-4931
▁Salem	-4932
ameleon	-4933
▁479343	-4934
▁Brooke	-4935
▁Stoger	-4936
▁states	-4937
▁Banilow	-4938
▁Brandon	-4939
▁Jackets	-4940
▁Jakarta	-4941
▁Metapán	-4942
▁Radboud	-4943
▁Revival	-4944
▁Wichita	-4945
▁playing	-4946
▁Dolphins	-4947
▁Chameleon	-4948
▁countries	-4949
▁479343000.0	-4950
▁Zamboangans	-4951
II	-4952
kg	-4953
ema	-4954
nai	-4955
osl	-4956
▁up	-4957
acao	-4958
amin	-4959
ayas	-4960
bell	-4961
oard	-4962
omer	-4963
uyah	-4964
▁546	-4965
▁Peñ	-4966
ansas	-4967
hames	-4968
iacao	-4969
obeat	-4970
▁1850	-4971
▁32.2	-4972
▁3500	-4973
▁roll	-4974
▁some	-4975
000.0,	-4976
▁39971	-4977
▁Aster	-4978
▁Class	-4979
▁Cuyah	-4980
▁Grand	-4981
▁Oddie	-4982
▁Roger	-4983
▁Sweet	-4984
▁hired	-4985
▁indie	-4986
merican	-4987
▁179942	-4988
▁Benton	-4989
▁Kansas	-4990
▁People	-4991
▁Roemer	-4992
▁Thames	-4993
▁coming	-4994
▁diesel	-4995
▁having	-4996
▁inches	-4997
▁Charles	-4998
▁Michael	-4999
▁Visayas	-5000
▁Afrobeat	-5001
▁Campbell	-5002
▁Cuyahoga	-5003
▁historic	-5004
▁Democracy	-5005
▁condensed	-5006
ebi	-5007
nie	-5008
pel	-5009
uck	-5010
▁60	-5011
▁Ig	-5012
▁Ni	-5013
▁af	-5014
▁cm	-5015
ogao	-5016
▁Cel	-5017
aperb	-5018
thaca	-5019
under	-5020
velop	-5021
yster	-5022
▁4410	-5023
▁Bebi	-5024
▁Opel	-5025
▁Syst	-5026
▁Zuma	-5027
hennai	-5028
▁Tudor	-5029
▁after	-5030
▁carri	-5031
assador	-5032
eringue	-5033
ighting	-5034
▁Crafts	-5035
▁Poales	-5036
▁partly	-5037
aperback	-5038
▁Circuit	-5039
▁Gangsta	-5040
▁Thunder	-5041
▁Municipal	-5042
▁Agremiacao	-5043
▁Ambassador	-5044
▁variations	-5045
▁441092000.0	-5046
▁Alternative	-5047
▁Commelinids	-5048
/1	-5049
ha	-5050
ps	-5051
749	-5052
aik	-5053
ati	-5054
ipo	-5055
ole	-5056
▁38	-5057
0756	-5058
091.	-5059
8388	-5060
agon	-5061
azio	-5062
▁288	-5063
▁Anb	-5064
▁Cov	-5065
▁End	-5066
▁egg	-5067
▁him	-5068
-2060	-5069
aracy	-5070
iches	-5071
metal	-5072
ungen	-5073
▁Buil	-5074
▁Igor	-5075
▁Koch	-5076
▁Mata	-5077
▁Naik	-5078
▁cold	-5079
▁coup	-5080
▁dark	-5081
▁lira	-5082
▁16000	-5083
▁Award	-5084
▁Divis	-5085
▁Lazio	-5086
▁cubic	-5087
▁neigh	-5088
▁1-4165	-5089
▁440756	-5090
▁Balder	-5091
▁Candle	-5092
▁Solent	-5093
▁Styria	-5094
▁common	-5095
091.8388	-5096
electric	-5097
▁Chennai	-5098
▁Coaracy	-5099
▁Country	-5100
▁asphalt	-5101
▁División	-5102
▁Enduring	-5103
▁Standard	-5104
▁potatoes	-5105
▁Sebastian	-5106
▁commanders	-5107
▁sandwiches	-5108
▁1-4165-2060	-5109
▁Fredericksburg	-5110
pa	-5111
tà	-5112
Ind	-5113
alo	-5114
eca	-5115
gew	-5116
lef	-5117
lic	-5118
sky	-5119
the	-5120
▁Nu	-5121
2164	-5122
adal	-5123
elle	-5124
eppe	-5125
ring	-5126
▁15,	-5127
▁Akt	-5128
▁Ast	-5129
▁aus	-5130
▁big	-5131
adipo	-5132
ffalo	-5133
handl	-5134
inced	-5135
▁1913	-5136
▁4371	-5137
▁Cant	-5138
▁Cook	-5139
▁Dave	-5140
▁Fons	-5141
▁Petr	-5142
▁east	-5143
▁owns	-5144
achini	-5145
ariant	-5146
gewood	-5147
ischen	-5148
lefish	-5149
▁10000	-5150
▁1955.	-5151
▁Anbar	-5152
▁Batum	-5153
▁Città	-5154
▁Ernie	-5155
▁Kochi	-5156
▁autom	-5157
▁forms	-5158
▁names	-5159
▁wagon	-5160
▁162164	-5161
▁Falcon	-5162
▁Guadal	-5163
▁Igorot	-5164
▁Ithaca	-5165
▁Oliver	-5166
▁Queens	-5167
▁itself	-5168
▁minced	-5169
▁Abhandl	-5170
▁Buffalo	-5171
▁Fonseca	-5172
▁Harbour	-5173
▁Oladipo	-5174
▁Seminar	-5175
▁station	-5176
uttlefish	-5177
▁Castilla	-5178
▁Fighting	-5179
▁specific	-5180
▁Ridgewood	-5181
▁Identifier	-5182
▁440756000.0	-5183
▁Abhandlungen	-5184
▁162164091.8388	-5185
▁Mathematischen	-5186
Ta	-5187
312	-5188
722	-5189
Its	-5190
abi	-5191
ela	-5192
ird	-5193
off	-5194
yss	-5195
▁TV	-5196
3968	-5197
cabi	-5198
erts	-5199
ieto	-5200
▁1.5	-5201
▁emp	-5202
2.846	-5203
73513	-5204
ajara	-5205
arese	-5206
onnel	-5207
rique	-5208
▁1904	-5209
▁1986	-5210
▁21.2	-5211
▁Diya	-5212
▁Lega	-5213
▁Marg	-5214
▁Tesh	-5215
▁Wyss	-5216
▁drum	-5217
▁more	-5218
▁1928.	-5219
▁1981.	-5220
▁1998.	-5221
▁43717	-5222
▁70634	-5223
▁Manag	-5224
▁Nieto	-5225
▁Perón	-5226
▁baked	-5227
2.33968	-5228
▁373513	-5229
▁Akties	-5230
▁Batumi	-5231
▁Mellow	-5232
▁Philip	-5233
▁deputy	-5234
Taqaddum	-5235
ashville	-5236
▁Enrique	-5237
▁Iachini	-5238
▁Maccabi	-5239
▁Randall	-5240
▁Teshome	-5241
▁builder	-5242
▁Asherton	-5243
▁Location	-5244
▁Petrakov	-5245
▁Weymouth	-5246
▁carriers	-5247
▁musicians	-5248
▁political	-5249
▁submarine	-5250
▁Guadalajara	-5251
▁Legislature	-5252
▁Jacksonville	-5253
40	-5254
9,	-5255
ax	-5256
fL	-5257
ku	-5258
158	-5259
392	-5260
egh	-5261
vaz	-5262
▁2,	-5263
▁6,	-5264
▁ac	-5265
▁ev	-5266
0.29	-5267
1634	-5268
2603	-5269
3528	-5270
5589	-5271
earb	-5272
ekom	-5273
iale	-5274
jang	-5275
ombe	-5276
park	-5277
vard	-5278
wood	-5279
▁108	-5280
▁RCA	-5281
▁Sim	-5282
▁VfL	-5283
▁not	-5284
▁own	-5285
3.722	-5286
akles	-5287
rethe	-5288
▁3.04	-5289
▁Chap	-5290
▁Dean	-5291
▁Shan	-5292
▁cars	-5293
▁open	-5294
▁sago	-5295
▁warm	-5296
000270	-5297
ansing	-5298
ekomst	-5299
▁1.524	-5300
▁1923.	-5301
▁1987.	-5302
▁Ahvaz	-5303
▁Citta	-5304
▁hogao	-5305
▁sport	-5306
anciale	-5307
▁135589	-5308
▁142603	-5309
▁360.29	-5310
▁Agency	-5311
▁Estegh	-5312
▁Panama	-5313
▁Steven	-5314
▁Valery	-5315
▁attack	-5316
▁provid	-5317
▁trance	-5318
▁8000270	-5319
▁Harvard	-5320
▁debuted	-5321
▁serving	-5322
▁Candombe	-5323
▁Electric	-5324
▁Toekomst	-5325
▁plantain	-5326
▁regional	-5327
▁Margrethe	-5328
▁Operation	-5329
▁Sportpark	-5330
▁production	-5331
▁373513000.0	-5332
▁437170000.0	-5333
)'	-5334
-93	-5335
4.0	-5336
603	-5337
ann	-5338
lia	-5339
▁5,	-5340
▁Gi	-5341
▁Ir	-5342
▁SK	-5343
▁br	-5344
3329	-5345
anku	-5346
aron	-5347
code	-5348
ders	-5349
ling	-5350
race	-5351
▁1.2	-5352
▁280	-5353
▁911	-5354
▁Fru	-5355
▁Pro	-5356
▁Put	-5357
Texas	-5358
achie	-5359
names	-5360
opped	-5361
oslar	-5362
▁2160	-5363
▁Crew	-5364
▁Disc	-5365
▁Hail	-5366
▁Marv	-5367
▁Wall	-5368
▁chil	-5369
ressed	-5370
▁1927.	-5371
▁Lufth	-5372
▁chich	-5373
▁523329	-5374
▁Airbus	-5375
▁Goslar	-5376
▁Joseph	-5377
▁Peoria	-5378
▁Tuanku	-5379
▁blanco	-5380
▁Another	-5381
▁Cornish	-5382
▁Georges	-5383
▁Lansing	-5384
▁Terrace	-5385
▁chorizo	-5386
▁operate	-5387
▁variant	-5388
▁1513.722	-5389
▁belonged	-5390
▁finished	-5391
▁particip	-5392
▁Nashville	-5393
▁Shanachie	-5394
▁Territory	-5395
▁following	-5396
▁Government	-5397
▁Bloomington	-5398
ya	-5399
395	-5400
608	-5401
aan	-5402
aza	-5403
egn	-5404
lay	-5405
nod	-5406
uda	-5407
▁87	-5408
▁Be	-5409
4071	-5410
4989	-5411
570.	-5412
alin	-5413
alop	-5414
ecut	-5415
enza	-5416
wald	-5417
ydor	-5418
öger	-5419
▁14.	-5420
▁3.8	-5421
▁973	-5422
▁Eal	-5423
▁FAS	-5424
▁Wet	-5425
▁dis	-5426
▁ink	-5427
▁ser	-5428
▁she	-5429
1634:	-5430
alegn	-5431
anyum	-5432
edded	-5433
nodar	-5434
ourou	-5435
▁Kras	-5436
▁Stud	-5437
▁doll	-5438
395158	-5439
alopod	-5440
dorman	-5441
earbox	-5442
namese	-5443
square	-5444
▁1956.	-5445
▁2011.	-5446
▁Arabs	-5447
▁Kuban	-5448
▁Plaza	-5449
▁Rabad	-5450
▁Voice	-5451
▁brown	-5452
▁degre	-5453
570.608	-5454
ecutive	-5455
located	-5456
▁16,000	-5457
▁254989	-5458
▁288749	-5459
▁Anglia	-5460
▁Hailem	-5461
▁Kourou	-5462
▁Samuda	-5463
▁Stalin	-5464
▁tonnes	-5465
ubanelle	-5466
▁6004071	-5467
▁Develop	-5468
▁Polydor	-5469
▁Sandage	-5470
▁battled	-5471
▁gearbox	-5472
anyumasan	-5473
ephalopod	-5474
ietnamese	-5475
▁52395158	-5476
▁Aurakles	-5477
▁Desalegn	-5478
▁Rabadash	-5479
▁Ealdorman	-5480
▁Krasnodar	-5481
▁Transport	-5482
▁executive	-5483
▁explosion	-5484
▁guitarist	-5485
▁personnel	-5486
▁publishes	-5487
▁department	-5488
▁Development	-5489
▁254989570.608	-5490
▁523951582.33968	-5491
."	-5492
øk	-5493
-42	-5494
-9.	-5495
447	-5496
53-	-5497
718	-5498
ali	-5499
aut	-5500
kab	-5501
pad	-5502
tar	-5503
yam	-5504
▁07	-5505
▁Fa	-5506
▁Qu	-5507
▁Sq	-5508
0008	-5509
075)	-5510
ajor	-5511
aple	-5512
epar	-5513
etti	-5514
inor	-5515
iral	-5516
økke	-5517
▁(29	-5518
▁-3.	-5519
▁11,	-5520
▁2.0	-5521
▁331	-5522
▁ATK	-5523
▁Hol	-5524
Black	-5525
Stars	-5526
ajaya	-5527
ariam	-5528
askat	-5529
ights	-5530
tario	-5531
▁5115	-5532
▁Both	-5533
▁Gius	-5534
▁Isis	-5535
▁Kway	-5536
▁Mahe	-5537
▁Mami	-5538
▁Pant	-5539
▁VIAG	-5540
▁prop	-5541
-4253-	-5542
chewan	-5543
market	-5544
others	-5545
ronaut	-5546
rysler	-5547
▁1958.	-5548
▁1959.	-5549
▁Berry	-5550
▁Chall	-5551
▁Crewe	-5552
▁Faber	-5553
▁Royal	-5554
▁Turin	-5555
▁arepa	-5556
▁separ	-5557
-1-4165	-5558
helwald	-5559
▁Rivers	-5560
▁Saskat	-5561
▁deploy	-5562
▁oyster	-5563
▁series	-5564
▁sesame	-5565
▁sounds	-5566
▁(29075)	-5567
▁560090,	-5568
▁Asajaya	-5569
▁Estadio	-5570
▁Fighter	-5571
▁Lufthav	-5572
▁Orbital	-5573
▁Peñarol	-5574
▁Wolfman	-5575
▁ketchup	-5576
ederation	-5577
▁1202.846	-5578
▁Brothers	-5579
▁Chrysler	-5580
▁Giuseppe	-5581
▁Goslarer	-5582
▁Panthers	-5583
▁Stanford	-5584
▁Wetlands	-5585
▁commonly	-5586
▁separate	-5587
▁tomatoes	-5588
▁Challinor	-5589
▁Newmarket	-5590
▁Riverside	-5591
▁automatic	-5592
▁neighbour	-5593
ightsbridge	-5594
millimetres	-5595
▁Vietnamese	-5596
▁containing	-5597
▁Hailemariam	-5598
-1-4165-4253-	-5599
▁Saskatchewan	-5600
amo	-5601
api	-5602
com	-5603
eme	-5604
keh	-5605
lal	-5606
ncr	-5607
oca	-5608
sil	-5609
tti	-5610
uto	-5611
xle	-5612
▁94	-5613
▁AK	-5614
000.	-5615
3.0.	-5616
Hung	-5617
auli	-5618
esen	-5619
ible	-5620
ogan	-5621
ully	-5622
▁24.	-5623
▁512	-5624
▁560	-5625
▁605	-5626
▁7.5	-5627
▁Din	-5628
▁tub	-5629
adium	-5630
inist	-5631
lande	-5632
ncrom	-5633
patac	-5634
riela	-5635
▁107.	-5636
▁1987	-5637
▁2011	-5638
▁Bart	-5639
▁Form	-5640
▁Koln	-5641
▁Linn	-5642
▁Okeh	-5643
▁Taro	-5644
▁Walt	-5645
▁axle	-5646
▁base	-5647
▁like	-5648
apioca	-5649
olitan	-5650
silent	-5651
▁1974.	-5652
▁Colon	-5653
▁Limer	-5654
▁Logan	-5655
▁Løkke	-5656
▁Maple	-5657
▁Price	-5658
▁Sauli	-5659
▁Tomsk	-5660
▁bevel	-5661
▁coupe	-5662
▁fully	-5663
▁lever	-5664
▁parts	-5665
▁plate	-5666
▁shaft	-5667
00000.0	-5668
syncrom	-5669
▁605718	-5670
▁Cruise	-5671
▁Dinamo	-5672
▁Stöger	-5673
▁change	-5674
▁clutch	-5675
▁joints	-5676
▁spiral	-5677
football	-5678
▁-3.3528	-5679
▁Niinist	-5680
▁Seattle	-5681
▁batchoy	-5682
▁citizen	-5683
▁severed	-5684
▁singing	-5685
▁stadium	-5686
▁tubular	-5687
patacones	-5688
ropolitan	-5689
▁Coritiba	-5690
▁Gabriela	-5691
▁Hollande	-5692
▁Limerick	-5693
▁Mamiffer	-5694
▁Michetti	-5695
▁floating	-5696
▁invasion	-5697
▁shredded	-5698
syncromesh	-5699
▁Australia	-5700
▁Ellington	-5701
▁Esteghlal	-5702
▁ajoblanco	-5703
▁commanded	-5704
▁condiment	-5705
▁launchpad	-5706
▁Banyumasan	-5707
▁Federation	-5708
▁compressed	-5709
▁475426000.0	-5710
▁254989570.60815	-5711
BI	-5712
of	-5713
vd	-5714
2-2	-5715
3.8	-5716
orc	-5717
ñol	-5718
▁57	-5719
▁UC	-5720
▁gu	-5721
▁ye	-5722
-27.	-5723
0906	-5724
alez	-5725
onet	-5726
otto	-5727
yang	-5728
▁125	-5729
▁139	-5730
▁AFB	-5731
▁Ajo	-5732
▁Luc	-5733
▁Red	-5734
▁arr	-5735
▁rom	-5736
▁ska	-5737
50000	-5738
altic	-5739
ennis	-5740
ocano	-5741
▁1971	-5742
▁2001	-5743
▁Blvd	-5744
▁Clay	-5745
▁Diaz	-5746
▁Eman	-5747
▁Lamb	-5748
▁Land	-5749
▁Laur	-5750
▁Line	-5751
▁Pale	-5752
▁Publ	-5753
▁Rahm	-5754
▁Tink	-5755
▁View	-5756
▁fill	-5757
▁real	-5758
ellors	-5759
▁1862.	-5760
▁39447	-5761
▁Diane	-5762
▁Halla	-5763
▁advis	-5764
▁chili	-5765
▁squid	-5766
▁types	-5767
▁years	-5768
orcilla	-5769
▁107.43	-5770
▁520906	-5771
▁Anyang	-5772
▁Baltic	-5773
▁Bruins	-5774
▁Maiden	-5775
▁Telang	-5776
▁edited	-5777
▁tennis	-5778
▁Emanuel	-5779
▁Mexican	-5780
▁Tinkham	-5781
Blackwell	-5782
Wisconsin	-5783
▁125800.0	-5784
▁252000.0	-5785
▁Gonzalez	-5786
▁Lufthavn	-5787
▁Pallesen	-5788
▁Seminary	-5789
▁postcode	-5790
▁cylinders	-5791
▁paperback	-5792
▁propellor	-5793
ellorsville	-5794
▁1-4165-2060-0.	-5795
'.	-5796
AT	-5797
Ab	-5798
Te	-5799
ät	-5800
/27	-5801
2.4	-5802
364	-5803
ele	-5804
kan	-5805
rov	-5806
urt	-5807
▁By	-5808
7055	-5809
AIDS	-5810
also	-5811
cell	-5812
ects	-5813
idad	-5814
salm	-5815
▁187	-5816
▁194	-5817
▁28,	-5818
▁31.	-5819
▁Dun	-5820
▁Klu	-5821
▁Tob	-5822
▁res	-5823
843.8	-5824
otaur	-5825
▁5.57	-5826
▁8823	-5827
▁Auto	-5828
▁Jama	-5829
▁Punk	-5830
▁cost	-5831
Taylor	-5832
Verona	-5833
though	-5834
▁1933.	-5835
▁1989.	-5836
▁347.1	-5837
▁523.9	-5838
▁Beach	-5839
▁Cakes	-5840
▁Duane	-5841
▁Popul	-5842
▁Psalm	-5843
▁Urich	-5844
▁event	-5845
▁grant	-5846
▁mayor	-5847
▁medal	-5848
2.47055	-5849
rinidad	-5850
▁Excell	-5851
▁Garden	-5852
▁Graeme	-5853
▁Lankan	-5854
▁Penyet	-5855
▁Tobago	-5856
▁become	-5857
▁chilli	-5858
▁litres	-5859
▁public	-5860
morcilla	-5861
urturing	-5862
▁Coronet	-5863
▁Ilocano	-5864
▁Ontario	-5865
▁drafted	-5866
▁assembly	-5867
▁fillings	-5868
footballer	-5869
▁Telangana	-5870
▁chicharon	-5871
▁Excellence	-5872
▁Footballer	-5873
▁511592000.0	-5874
▁Universität	-5875
▁construction	-5876
▁metropolitan	-5877
FC	-5878
-06	-5879
113	-5880
597	-5881
977	-5882
III	-5883
chi	-5884
ise	-5885
who	-5886
▁89	-5887
▁KV	-5888
394.	-5889
aduy	-5890
aide	-5891
ance	-5892
anol	-5893
eniz	-5894
gest	-5895
imes	-5896
oyet	-5897
pere	-5898
▁419	-5899
▁5.4	-5900
▁99.	-5901
▁Flo	-5902
▁Mec	-5903
▁Mov	-5904
▁Qar	-5905
▁STV	-5906
▁Sin	-5907
▁Tam	-5908
▁imp	-5909
55312	-5910
Techn	-5911
haric	-5912
helen	-5913
▁1980	-5914
▁6603	-5915
▁9364	-5916
▁Adel	-5917
▁Azin	-5918
▁Espa	-5919
▁Wolt	-5920
▁XIII	-5921
▁appe	-5922
▁blue	-5923
▁rank	-5924
▁19238	-5925
▁1983.	-5926
▁2000,	-5927
▁25977	-5928
▁Evang	-5929
▁Kesel	-5930
▁Krist	-5931
▁Larry	-5932
▁Mater	-5933
▁Order	-5934
▁Poyet	-5935
▁Veniz	-5936
▁drive	-5937
113394.	-5938
fection	-5939
nalillo	-5940
smashed	-5941
▁139705	-5942
▁Kluwer	-5943
▁Singer	-5944
▁garage	-5945
▁genres	-5946
▁30843.8	-5947
▁6603633	-5948
▁9364597	-5949
▁Alfonso	-5950
▁Amharic	-5951
▁Tampere	-5952
▁Wolters	-5953
▁Workers	-5954
▁biggest	-5955
▁Adelaide	-5956
▁Kristina	-5957
▁Mechelen	-5958
▁Minotaur	-5959
▁Populous	-5960
▁Evangelos	-5961
▁Venizelos	-5962
▁categoriz	-5963
▁419113394.	-5964
▁8823430000	-5965
▁Bernalillo	-5966
▁520906000.0	-5967
▁ChievoVerona	-5968
▁419113394.55312	-5969
XN	-5970
iu	-5971
za	-5972
3.1	-5973
Ord	-5974
ihu	-5975
lus	-5976
sit	-5977
▁42	-5978
▁su	-5979
2447	-5980
6521	-5981
9206	-5982
ajji	-5983
edan	-5984
elli	-5985
etre	-5986
kuas	-5987
▁336	-5988
▁Emp	-5989
▁Gus	-5990
▁Mas	-5991
▁Mol	-5992
▁Qiu	-5993
Ordon	-5994
actic	-5995
angip	-5996
ensis	-5997
irley	-5998
itman	-5999
ively	-6000
▁1299	-6001
▁Dale	-6002
▁Dane	-6003
▁Karl	-6004
▁Kenn	-6005
▁Moro	-6006
▁Shab	-6007
▁door	-6008
▁gula	-6009
▁soya	-6010
ations	-6011
icelli	-6012
▁Baduy	-6013
▁Elihu	-6014
▁Homer	-6015
▁Short	-6016
▁Steel	-6017
▁motto	-6018
Hungary	-6019
Univers	-6020
queezed	-6021
▁162447	-6022
▁296521	-6023
▁Former	-6024
▁Sinisa	-6025
▁celery	-6026
▁tender	-6027
angipane	-6028
▁2015-06	-6029
▁Espanol	-6030
▁Español	-6031
▁Hungary	-6032
▁Shirley	-6033
▁Whitman	-6034
▁advisor	-6035
▁another	-6036
▁chopped	-6037
▁million	-6038
▁typical	-6039
▁25977670	-6040
▁Building	-6041
▁Floating	-6042
▁Galactic	-6043
▁graduate	-6044
▁lengkuas	-6045
▁Canadians	-6046
▁6603633000.0	-6047
▁3997100000000	-6048
▁259776702.47055	-6049
5,	-6050
77	-6051
94	-6052
AA	-6053
IS	-6054
OK	-6055
ng	-6056
oa	-6057
pi	-6058
0.9	-6059
7.0	-6060
711	-6061
aré	-6062
ared	-6063
atin	-6064
cour	-6065
ileo	-6066
itut	-6067
omet	-6068
ower	-6069
rini	-6070
▁"19	-6071
▁12,	-6072
▁299	-6073
▁6.7	-6074
▁Aff	-6075
▁Dal	-6076
▁HOK	-6077
▁Sip	-6078
▁def	-6079
▁eth	-6080
Izmir	-6081
iseum	-6082
liced	-6083
▁0.21	-6084
▁1901	-6085
▁Also	-6086
▁Apul	-6087
▁Bibb	-6088
▁Boat	-6089
▁Bold	-6090
▁Juha	-6091
▁Oros	-6092
▁Step	-6093
▁Virt	-6094
▁ayam	-6095
▁bhaj	-6096
Athens	-6097
▁18.29	-6098
▁1905.	-6099
▁1931.	-6100
▁2005,	-6101
▁2008.	-6102
▁490.9	-6103
▁Dutch	-6104
▁Guard	-6105
▁Horch	-6106
▁Icolo	-6107
▁Laura	-6108
▁Maher	-6109
▁Spall	-6110
▁Tamil	-6111
▁dried	-6112
▁using	-6113
▁299196	-6114
▁349206	-6115
▁Affair	-6116
▁Claude	-6117
▁Melaka	-6118
▁Shabab	-6119
▁Tabaré	-6120
▁fruits	-6121
▁manual	-6122
▁spouse	-6123
ometimes	-6124
▁Asterix	-6125
▁Avocado	-6126
▁Desmond	-6127
▁Galileo	-6128
▁Luciano	-6129
▁compris	-6130
Technical	-6131
▁Boldrini	-6132
▁Coliseum	-6133
▁Filipino	-6134
▁creators	-6135
6000000.0.	-6136
fectionery	-6137
▁Apulensis	-6138
▁Stockport	-6139
▁guanciale	-6140
▁institute	-6141
▁recording	-6142
Universitas	-6143
▁Australian	-6144
▁Mihajlovic	-6145
▁categorized	-6146
▁neighbouring	-6147
▁Knightsbridge	-6148
Sp	-6149
mm	-6150
áz	-6151
üs	-6152
üt	-6153
-92	-6154
/1.	-6155
14.	-6156
550	-6157
648	-6158
hip	-6159
itt	-6160
▁PS	-6161
▁Uk	-6162
-033	-6163
56-3	-6164
Amin	-6165
aint	-6166
enzi	-6167
gram	-6168
iaol	-6169
inat	-6170
inds	-6171
side	-6172
▁17.	-6173
▁36.	-6174
▁535	-6175
▁Büt	-6176
▁Dar	-6177
▁Hüs	-6178
▁Mul	-6179
▁Vfl	-6180
▁Váz	-6181
asket	-6182
olone	-6183
ually	-6184
▁11/2	-6185
▁4.14	-6186
▁5.75	-6187
▁Aviv	-6188
▁Hays	-6189
▁Mish	-6190
▁Mols	-6191
▁Test	-6192
▁held	-6193
▁make	-6194
-92550	-6195
7156-3	-6196
overed	-6197
▁0-670	-6198
▁1976.	-6199
▁783.1	-6200
▁99.83	-6201
▁Adsit	-6202
▁Finns	-6203
▁Güner	-6204
▁Lemon	-6205
▁Renzi	-6206
▁Silva	-6207
▁Youth	-6208
-03380-	-6209
iaolong	-6210
▁870008	-6211
▁Bright	-6212
▁Darien	-6213
▁Fruits	-6214
▁Matteo	-6215
▁Minist	-6216
▁Newark	-6217
▁Tejano	-6218
▁degree	-6219
▁employ	-6220
▁pastry	-6221
▁sliced	-6222
▁Bütüner	-6223
▁Daggash	-6224
▁Francis	-6225
▁Hüseyin	-6226
▁Mishkin	-6227
▁Vázquez	-6228
▁dollars	-6229
▁general	-6230
▁program	-6231
7156-3648	-6232
▁Trinidad	-6233
▁elements	-6234
▁80002709.	-6235
▁Astronaut	-6236
▁Bartolone	-6237
▁Carrarese	-6238
▁Hardcover	-6239
▁Spalletti	-6240
▁kilometer	-6241
▁sometimes	-6242
▁Management	-6243
▁cuttlefish	-6244
▁0-439-92550	-6245
▁Psychedelia	-6246
▁0-670-03380-	-6247
UK	-6248
ín	-6249
.".	-6250
/35	-6251
015	-6252
744	-6253
Ass	-6254
eck	-6255
fay	-6256
rah	-6257
ğlu	-6258
▁AG	-6259
▁CD	-6260
▁Vl	-6261
3309	-6262
4984	-6263
9142	-6264
9371	-6265
arif	-6266
asha	-6267
ayat	-6268
coni	-6269
dams	-6270
ette	-6271
imum	-6272
inez	-6273
isan	-6274
olat	-6275
psey	-6276
▁2.7	-6277
▁3.9	-6278
▁Adm	-6279
▁Dep	-6280
▁Dig	-6281
▁Led	-6282
▁Men	-6283
▁Vic	-6284
▁hub	-6285
▁mat	-6286
▁use	-6287
00000	-6288
akrah	-6289
alist	-6290
ieter	-6291
insky	-6292
rigan	-6293
ysics	-6294
▁Heck	-6295
▁Jati	-6296
▁high	-6297
▁2001.	-6298
▁39371	-6299
▁Bolat	-6300
▁Genoa	-6301
▁Lafay	-6302
▁about	-6303
▁ethic	-6304
inatown	-6305
lusconi	-6306
oration	-6307
▁183309	-6308
▁410777	-6309
▁414984	-6310
▁Dieter	-6311
▁Michel	-6312
▁Parana	-6313
▁Sharif	-6314
▁Silvio	-6315
▁Torino	-6316
▁Valour	-6317
▁Viktor	-6318
▁design	-6319
▁Agustín	-6320
▁Chester	-6321
▁Dempsey	-6322
▁Digweed	-6323
▁Hecking	-6324
▁Menasha	-6325
▁Physics	-6326
▁Stephen	-6327
▁bionico	-6328
▁Division	-6329
▁Horrigan	-6330
▁Martinez	-6331
▁Property	-6332
▁Xiaolong	-6333
▁american	-6334
▁Chinatown	-6335
▁Lafayette	-6336
▁competing	-6337
▁Berlusconi	-6338
▁Bolatinsky	-6339
▁Netherland	-6340
▁architects	-6341
▁0-7156-3648	-6342
▁Chesterfield	-6343
na	-6344
003	-6345
937	-6346
pur	-6347
uad	-6348
▁Di	-6349
-374	-6350
0068	-6351
6.67	-6352
6131	-6353
8622	-6354
97.0	-6355
abag	-6356
ader	-6357
ebre	-6358
elez	-6359
gory	-6360
holm	-6361
pers	-6362
pnyk	-6363
uala	-6364
udge	-6365
▁173	-6366
▁448	-6367
▁Abh	-6368
▁Acc	-6369
▁Are	-6370
▁Bre	-6371
▁Lum	-6372
▁rul	-6373
▁vol	-6374
39224	-6375
5.324	-6376
crust	-6377
eston	-6378
ility	-6379
▁1981	-6380
▁Folk	-6381
▁Fuad	-6382
▁Mond	-6383
▁Sant	-6384
▁Slay	-6385
▁Tait	-6386
▁Vala	-6387
▁Vlad	-6388
▁carb	-6389
▁conc	-6390
▁loin	-6391
-26131	-6392
80.744	-6393
elskab	-6394
illery	-6395
▁Bhaji	-6396
▁Kenny	-6397
▁Latin	-6398
▁grams	-6399
▁judge	-6400
▁lived	-6401
▁since	-6402
▁2014-1	-6403
▁279142	-6404
▁698622	-6405
▁75.324	-6406
▁Lumpur	-6407
▁Meride	-6408
▁Olympi	-6409
▁awards	-6410
▁volume	-6411
formerly	-6412
istricts	-6413
▁1516.67	-6414
▁Gregory	-6415
▁peppers	-6416
▁Hessisch	-6417
▁Japanese	-6418
▁Mondelez	-6419
▁resident	-6420
-374-26131	-6421
▁Artillery	-6422
▁Stockholm	-6423
▁cubanelle	-6424
▁districts	-6425
Association	-6426
▁Charleston	-6427
▁christened	-6428
▁leadership	-6429
▁296521000.0	-6430
▁Aktieselskab	-6431
▁representative	-6432
,"	-6433
by	-6434
úl	-6435
/30	-6436
047	-6437
6-0	-6438
618	-6439
729	-6440
Zaw	-6441
int	-6442
ova	-6443
raj	-6444
zil	-6445
zze	-6446
▁mm	-6447
2497	-6448
6468	-6449
7888	-6450
acos	-6451
ajub	-6452
cema	-6453
eden	-6454
inau	-6455
ousa	-6456
oğlu	-6457
▁170	-6458
▁27,	-6459
▁388	-6460
▁AGR	-6461
▁Jam	-6462
▁Mam	-6463
▁VAM	-6464
▁hel	-6465
-0-15	-6466
-2047	-6467
70592	-6468
Zawra	-6469
▁1174	-6470
▁5300	-6471
▁8370	-6472
▁Anth	-6473
▁Bari	-6474
▁Enda	-6475
▁Ferg	-6476
▁Gene	-6477
▁Lyle	-6478
▁Raul	-6479
▁Raúl	-6480
▁Skry	-6481
▁Taid	-6482
▁side	-6483
646863	-6484
Wakrah	-6485
isinau	-6486
▁69618	-6487
▁87888	-6488
▁Arion	-6489
▁Barry	-6490
▁Kuala	-6491
▁Paulo	-6492
▁Sousa	-6493
▁Vajub	-6494
▁bajji	-6495
▁river	-6496
▁sings	-6497
-204770	-6498
damsche	-6499
ebrezze	-6500
▁2014-2	-6501
▁352497	-6502
▁570592	-6503
▁Carles	-6504
▁Donald	-6505
▁Lufkin	-6506
▁Putraj	-6507
▁Spring	-6508
▁Sweden	-6509
▁bhajji	-6510
▁cities	-6511
00000.0.	-6512
▁Buscema	-6513
▁Classic	-6514
▁Philips	-6515
▁Qarabag	-6516
▁nearest	-6517
▁89646863	-6518
▁Ministry	-6519
▁Davutoğlu	-6520
▁Lauraceae	-6521
▁Published	-6522
00000000003	-6523
▁837080.744	-6524
▁Celebrezze	-6525
▁Lokomotive	-6526
▁Olympiacos	-6527
▁cephalopod	-6528
-0-15-204770	-6529
▁523329000.0	-6530
▁participated	-6531
16	-6532
GP	-6533
PS	-6534
SA	-6535
TE	-6536
-12	-6537
-23	-6538
.0.	-6539
4.9	-6540
679	-6541
831	-6542
PGP	-6543
adt	-6544
ona	-6545
top	-6546
▁00	-6547
▁9.	-6548
42.3	-6549
6463	-6550
9-01	-6551
atow	-6552
itar	-6553
iyev	-6554
uson	-6555
▁274	-6556
▁94.	-6557
▁Far	-6558
▁Fen	-6559
▁Kir	-6560
▁Lam	-6561
▁Low	-6562
▁SVE	-6563
PGPAC	-6564
abels	-6565
alted	-6566
miral	-6567
opter	-6568
riots	-6569
▁1959	-6570
▁5000	-6571
▁Arms	-6572
▁Boer	-6573
▁Giov	-6574
▁Into	-6575
▁Rear	-6576
▁dece	-6577
▁over	-6578
679831	-6579
ashire	-6580
iensis	-6581
ustadt	-6582
▁23900	-6583
▁Adnan	-6584
▁Carpi	-6585
▁Colan	-6586
▁Group	-6587
▁Hamad	-6588
▁Irwin	-6589
▁Katow	-6590
▁Masum	-6591
▁Round	-6592
▁Staff	-6593
▁Sumac	-6594
▁latin	-6595
Indiana	-6596
▁0.0455	-6597
▁1142.3	-6598
▁560937	-6599
▁836463	-6600
▁Allian	-6601
▁Babels	-6602
▁Franco	-6603
▁Wiener	-6604
▁labels	-6605
▁5739224	-6606
▁Admiral	-6607
▁Anthony	-6608
▁Antonio	-6609
▁Barajas	-6610
▁Culture	-6611
▁Jamaica	-6612
▁Moldova	-6613
▁Rutland	-6614
▁Vicenza	-6615
▁chinese	-6616
▁governs	-6617
▁hardtop	-6618
▁tapioca	-6619
▁Berliner	-6620
▁Chisinau	-6621
▁Ferguson	-6622
▁Katowice	-6623
▁Neustadt	-6624
▁Patriots	-6625
▁Skrypnyk	-6626
▁Vajubhai	-6627
▁deceased	-6628
▁designer	-6629
▁meringue	-6630
▁operator	-6631
▁475426000	-6632
▁93645978.	-6633
▁Gadzhiyev	-6634
▁Putrajaya	-6635
▁alongside	-6636
▁musically	-6637
▁Babelsberg	-6638
▁Lancashire	-6639
▁560937000.0	-6640
▁Aarhusiensis	-6641
dr	-6642
uß	-6643
ér	-6644
/23	-6645
150	-6646
213	-6647
22.	-6648
4.7	-6649
589	-6650
805	-6651
86.	-6652
AGE	-6653
Eng	-6654
Man	-6655
ika	-6656
izo	-6657
ora	-6658
▁05	-6659
▁24	-6660
▁99	-6661
▁AD	-6662
▁HA	-6663
▁We	-6664
7711	-6665
8024	-6666
9.0.	-6667
aced	-6668
anni	-6669
ches	-6670
esse	-6671
ever	-6672
ldon	-6673
roth	-6674
sing	-6675
tred	-6676
▁17,	-6677
▁488	-6678
▁Arn	-6679
▁Fis	-6680
▁Fox	-6681
▁Gér	-6682
▁Vel	-6683
▁Web	-6684
▁mas	-6685
▁pos	-6686
▁str	-6687
▁too	-6688
▁tra	-6689
-11-2	-6690
ailan	-6691
artel	-6692
board	-6693
emont	-6694
entry	-6695
▁167.	-6696
▁2003	-6697
▁3000	-6698
▁4150	-6699
▁7729	-6700
▁8.33	-6701
▁8805	-6702
▁Dept	-6703
▁Gard	-6704
▁Hull	-6705
▁Leon	-6706
▁Mamn	-6707
▁Moga	-6708
▁SAGE	-6709
▁Trot	-6710
▁auto	-6711
▁resp	-6712
allots	-6713
estizo	-6714
indsor	-6715
tredia	-6716
ußisch	-6717
▁1.905	-6718
▁1982.	-6719
▁31.48	-6720
▁344.9	-6721
▁44589	-6722
▁Match	-6723
▁Perth	-6724
▁Ukrop	-6725
▁broth	-6726
▁cruis	-6727
▁recip	-6728
▁787711	-6729
▁Accord	-6730
▁Chapin	-6731
▁Farmer	-6732
▁Fenves	-6733
▁Fisher	-6734
▁Gadzhi	-6735
▁Gérard	-6736
▁Hartel	-6737
▁Knight	-6738
▁Marius	-6739
▁Origin	-6740
▁Rovers	-6741
▁kailan	-6742
▁noodle	-6743
▁salted	-6744
▁secret	-6745
roadwood	-6746
thelwald	-6747
▁7679831	-6748
▁94.8024	-6749
▁Moldoff	-6750
▁Opelika	-6751
▁Sheldon	-6752
▁Trotsky	-6753
▁Webster	-6754
▁Windsor	-6755
Nurturing	-6756
▁Coventry	-6757
▁Giovanni	-6758
▁Guardian	-6759
▁authored	-6760
▁position	-6761
▁relative	-6762
▁shallots	-6763
▁Preußisch	-6764
▁Samtredia	-6765
▁Southeast	-6766
▁occupation	-6767
Associazione	-6768
▁0-439-17684	-6769
▁605718000.0	-6770
▁Established	-6771
▁Universitas	-6772
▁originating	-6773
ln	-6774
-1.	-6775
5.8	-6776
792	-6777
hly	-6778
iah	-6779
jor	-6780
lyn	-6781
nem	-6782
odr	-6783
oon	-6784
sen	-6785
▁Ha	-6786
▁WW	-6787
-932	-6788
4.33	-6789
7.0.	-6790
7151	-6791
7701	-6792
deon	-6793
fres	-6794
nykh	-6795
olai	-6796
serv	-6797
▁127	-6798
▁189	-6799
▁20,	-6800
▁292	-6801
▁31,	-6802
▁Eva	-6803
▁Vaz	-6804
▁Vit	-6805
80-63	-6806
Abadi	-6807
Spain	-6808
aking	-6809
ashub	-6810
erald	-6811
ietam	-6812
innah	-6813
jorie	-6814
oklyn	-6815
rafts	-6816
ravis	-6817
▁0.02	-6818
▁2008	-6819
▁Cohn	-6820
▁Dick	-6821
▁Dill	-6822
▁Doll	-6823
▁Gary	-6824
▁Huss	-6825
▁Kali	-6826
▁Mari	-6827
▁Roll	-6828
▁Sach	-6829
▁Scot	-6830
▁Ximo	-6831
▁pres	-6832
▁verm	-6833
22.213	-6834
aminer	-6835
ending	-6836
icharr	-6837
odrome	-6838
▁125.8	-6839
▁144.7	-6840
▁15788	-6841
▁16.55	-6842
▁2014–	-6843
▁37701	-6844
▁41613	-6845
▁74.33	-6846
▁77151	-6847
▁Blank	-6848
▁Found	-6849
▁Kirby	-6850
▁Magik	-6851
▁Odeon	-6852
▁Puigd	-6853
▁Sandw	-6854
▁serve	-6855
anguage	-6856
freshly	-6857
istrate	-6858
▁0.0068	-6859
▁0.0112	-6860
▁0.0473	-6861
▁Arnhem	-6862
▁Empire	-6863
▁Herald	-6864
▁Jinnah	-6865
▁Kashub	-6866
▁Shorta	-6867
▁Warnem	-6868
▁writer	-6869
0002-932	-6870
▁1080-63	-6871
▁Gardner	-6872
▁Hussain	-6873
▁Indians	-6874
▁Kaliber	-6875
▁Mamnoon	-6876
▁Sachsen	-6877
▁Trenton	-6878
▁Vazquez	-6879
▁Vitesse	-6880
▁preserv	-6881
▁regions	-6882
▁smashed	-6883
asketball	-6884
▁Antietam	-6885
▁Brooklyn	-6886
▁Chicharr	-6887
▁Democrat	-6888
▁Marjorie	-6889
▁Movement	-6890
▁Philippe	-6891
▁Rosaceae	-6892
▁Sandwich	-6893
▁Taqaddum	-6894
▁Tomatoes	-6895
▁acoustic	-6896
▁Broadwood	-6897
▁Construct	-6898
▁Velodrome	-6899
▁secretary	-6900
▁vermicelli	-6901
▁0-439-17685	-6902
▁2015-06-27.	-6903
▁Publications	-6904
bg	-6905
zo	-6906
ATA	-6907
cot	-6908
ege	-6909
ego	-6910
hov	-6911
ito	-6912
ked	-6913
obi	-6914
ows	-6915
reg	-6916
rog	-6917
öln	-6918
▁"0	-6919
▁HQ	-6920
▁Of	-6921
▁er	-6922
▁ro	-6923
▁tr	-6924
01-8	-6925
80.7	-6926
baan	-6927
etro	-6928
heda	-6929
hran	-6930
inny	-6931
ness	-6932
tron	-6933
ugar	-6934
ugin	-6935
▁168	-6936
▁219	-6937
▁265	-6938
▁44.	-6939
▁45.	-6940
▁Bac	-6941
▁Gar	-6942
▁PSV	-6943
▁Paz	-6944
▁São	-6945
▁bed	-6946
▁tax	-6947
aider	-6948
ected	-6949
erman	-6950
eters	-6951
helor	-6952
hoven	-6953
loilo	-6954
stone	-6955
▁1953	-6956
▁1988	-6957
▁4000	-6958
▁Area	-6959
▁Arts	-6960
▁Cher	-6961
▁Drog	-6962
▁Gosc	-6963
▁Guar	-6964
▁Head	-6965
▁Hook	-6966
▁IATA	-6967
▁Jong	-6968
▁José	-6969
▁Köln	-6970
▁Lein	-6971
▁Rosa	-6972
▁Univ	-6973
▁alum	-6974
▁cott	-6975
▁each	-6976
▁feat	-6977
▁here	-6978
▁most	-6979
▁taro	-6980
etroit	-6981
impico	-6982
▁18.52	-6983
▁Brown	-6984
▁Diego	-6985
▁Hambg	-6986
▁Pugin	-6987
▁Siege	-6988
▁hatch	-6989
▁liter	-6990
▁sugar	-6991
▁third	-6992
▁İzmir	-6993
fferent	-6994
▁0.0155	-6995
▁167.94	-6996
▁Haider	-6997
▁Malatu	-6998
▁Sparta	-6999
▁Travis	-7000
▁cookie	-7001
▁helped	-7002
▁mascot	-7003
▁pepper	-7004
islative	-7005
obiology	-7006
ontology	-7007
▁Detroit	-7008
▁Mestizo	-7009
▁Nikolai	-7010
▁erected	-7011
▁founder	-7012
▁several	-7013
▁Augustus	-7014
▁Bachelor	-7015
▁Chernykh	-7016
▁Drogheda	-7017
▁Goscinny	-7018
▁Leinster	-7019
▁Olimpico	-7020
▁Santilli	-7021
▁provided	-7022
▁squeezed	-7023
▁2014-2015	-7024
▁Brazilian	-7025
▁different	-7026
▁doctorate	-7027
▁hatchback	-7028
▁inhabited	-7029
▁Petersburg	-7030
▁Construction	-7031
▁Williamsburg	-7032
-6	-7033
Km	-7034
ea	-7035
ki	-7036
/03	-7037
11.	-7038
2.0	-7039
77.	-7040
apt	-7041
ees	-7042
eja	-7043
eyr	-7044
iku	-7045
nic	-7046
orw	-7047
sec	-7048
uin	-7049
▁50	-7050
▁BC	-7051
▁Gm	-7052
▁KC	-7053
▁SN	-7054
3326	-7055
Wash	-7056
acio	-7057
enry	-7058
erto	-7059
iman	-7060
oney	-7061
ouri	-7062
owle	-7063
plac	-7064
writ	-7065
▁1.8	-7066
▁21,	-7067
▁5.6	-7068
▁657	-7069
▁Kad	-7070
▁Nor	-7071
▁Zah	-7072
acker	-7073
actor	-7074
enzie	-7075
manag	-7076
otein	-7077
▁1931	-7078
▁3,99	-7079
▁Buck	-7080
▁Does	-7081
▁Eind	-7082
▁From	-7083
▁Peng	-7084
▁Sula	-7085
▁Vant	-7086
▁Vorw	-7087
▁asam	-7088
▁hold	-7089
enburg	-7090
incial	-7091
▁497.0	-7092
▁Atiku	-7093
▁Bread	-7094
▁Fowle	-7095
▁Gould	-7096
▁Henry	-7097
▁Nouri	-7098
▁Rolls	-7099
▁Steyr	-7100
▁Valer	-7101
▁distr	-7102
▁often	-7103
▁ranks	-7104
▁super	-7105
▁these	-7106
▁works	-7107
obility	-7108
▁1580.7	-7109
▁283326	-7110
▁Admira	-7111
▁Garage	-7112
▁Iloilo	-7113
▁Kaduna	-7114
▁Leiden	-7115
▁Random	-7116
▁Rosids	-7117
▁Sipila	-7118
▁Tabare	-7119
▁Wacker	-7120
▁cruise	-7121
▁postal	-7122
▁3800.0.	-7123
▁Lambien	-7124
▁Penguin	-7125
▁Studies	-7126
▁Vantage	-7127
▁bandeja	-7128
▁cottage	-7129
▁displac	-7130
▁matches	-7131
▁protein	-7132
▁reality	-7133
▁140000.0	-7134
▁1622.213	-7135
▁Deptford	-7136
▁Doesburg	-7137
▁Francois	-7138
▁Guarania	-7139
▁Marietta	-7140
▁Sulaiman	-7141
▁competes	-7142
▁desserts	-7143
Washington	-7144
▁Broadcast	-7145
▁Eindhoven	-7146
▁Filipinos	-7147
▁Robertson	-7148
▁employees	-7149
▁preserves	-7150
inghamshire	-7151
▁Discovered	-7152
▁Provincial	-7153
▁Puigdemont	-7154
▁Wilderness	-7155
▁shortcrust	-7156
▁Broadcasting	-7157
▁Paleobiology	-7158
▁displacement	-7159
▁0-439-92550-9.	-7160
▁Buckinghamshire	-7161
02	-7162
72	-7163
79	-7164
rs	-7165
▁Æ	-7166
-19	-7167
.),	-7168
TEC	-7169
hal	-7170
ikh	-7171
mut	-7172
pot	-7173
sea	-7174
▁75	-7175
▁BS	-7176
▁Ow	-7177
-792	-7178
5179	-7179
86.2	-7180
atov	-7181
awaz	-7182
empe	-7183
harp	-7184
head	-7185
klas	-7186
olfo	-7187
owda	-7188
reta	-7189
▁404	-7190
▁464	-7191
▁507	-7192
▁Abu	-7193
▁Arm	-7194
▁ESA	-7195
▁Key	-7196
▁Kub	-7197
▁Pic	-7198
▁cap	-7199
▁cha	-7200
▁lay	-7201
▁orb	-7202
▁thr	-7203
epend	-7204
irate	-7205
ither	-7206
itude	-7207
onson	-7208
▁1249	-7209
▁1969	-7210
▁Chel	-7211
▁Faro	-7212
▁Vict	-7213
▁Wave	-7214
▁bomb	-7215
▁lloc	-7216
▁stor	-7217
egunda	-7218
klasse	-7219
owever	-7220
▁1.955	-7221
▁17023	-7222
▁1986,	-7223
▁1996,	-7224
▁233.9	-7225
▁3500.	-7226
▁486.2	-7227
▁Baron	-7228
▁Bible	-7229
▁Breaz	-7230
▁Brian	-7231
▁Gowda	-7232
▁Kempe	-7233
▁Nawaz	-7234
▁Plast	-7235
▁Reith	-7236
▁Spata	-7237
▁Ujang	-7238
▁Zahar	-7239
▁major	-7240
▁round	-7241
oleague	-7242
▁Airman	-7243
▁Benito	-7244
▁Borneo	-7245
▁Dayton	-7246
▁Dillin	-7247
▁Ethnic	-7248
▁Helmut	-7249
▁Mother	-7250
▁Picchi	-7251
▁Regina	-7252
▁Russel	-7253
▁Sheikh	-7254
▁aboard	-7255
▁layout	-7256
▁offers	-7257
▁picked	-7258
▁powers	-7259
▁rupiah	-7260
squeezed	-7261
▁4645179	-7262
▁Armando	-7263
▁Chelsea	-7264
▁Faroese	-7265
▁Fiction	-7266
▁Horacio	-7267
▁Kubatov	-7268
▁Larreta	-7269
▁chaired	-7270
▁llocano	-7271
▁notable	-7272
ependence	-7273
itionally	-7274
▁2014-15.	-7275
▁Airports	-7276
▁Niinisto	-7277
▁Simonson	-7278
▁Victoria	-7279
▁although	-7280
▁appeared	-7281
▁autoharp	-7282
▁champion	-7283
▁keyboard	-7284
▁124950000	-7285
▁therefore	-7286
▁Æthelwald	-7287
▁Euroleague	-7288
▁Georgetown	-7289
▁Motherwell	-7290
▁Salvadoran	-7291
▁graduating	-7292
▁Independence	-7293
▁manufactures	-7294
▁Parliamentary	-7295
▁88234300000.0.	-7296
▁978-0-15-204770	-7297
Ag	-7298
Ge	-7299
km	-7300
wa	-7301
ád	-7302
▁)	-7303
00,	-7304
26.	-7305
5-2	-7306
911	-7307
919	-7308
96.	-7309
Mic	-7310
RAA	-7311
den	-7312
gro	-7313
has	-7314
key	-7315
sol	-7316
▁3-	-7317
▁MD	-7318
▁WB	-7319
▁if	-7320
000,	-7321
5591	-7322
6448	-7323
8.0.	-7324
Nair	-7325
arst	-7326
edah	-7327
ello	-7328
iben	-7329
ieut	-7330
ined	-7331
irus	-7332
mine	-7333
rett	-7334
ulas	-7335
ádio	-7336
▁142	-7337
▁25,	-7338
▁4.8	-7339
▁476	-7340
▁9.8	-7341
▁Mak	-7342
▁Mig	-7343
▁Oth	-7344
▁fat	-7345
▁pat	-7346
anyan	-7347
enant	-7348
estin	-7349
etrov	-7350
habit	-7351
oured	-7352
▁1856	-7353
▁737.	-7354
▁Band	-7355
▁Book	-7356
▁Bury	-7357
▁Cond	-7358
▁Cour	-7359
▁Jahn	-7360
▁Jill	-7361
▁Luis	-7362
▁ORAA	-7363
▁Orth	-7364
▁Sago	-7365
▁Seat	-7366
▁magn	-7367
Michel	-7368
illing	-7369
inning	-7370
solute	-7371
▁1923,	-7372
▁48816	-7373
▁66391	-7374
▁8.334	-7375
▁Anand	-7376
▁Annie	-7377
▁Aulas	-7378
▁Dunne	-7379
▁Kedah	-7380
▁Libya	-7381
▁Lieut	-7382
▁Lions	-7383
▁Olive	-7384
▁Patel	-7385
▁Preub	-7386
▁Ramis	-7387
▁dance	-7388
▁holds	-7389
▁orbit	-7390
▁shown	-7391
50000.0	-7392
irector	-7393
portiva	-7394
ressive	-7395
▁'1634:	-7396
▁1.9558	-7397
▁2777.0	-7398
▁456448	-7399
▁615591	-7400
▁Bujang	-7401
▁Dynamo	-7402
▁Graves	-7403
▁Greene	-7404
▁Hearst	-7405
▁McNair	-7406
▁Miguel	-7407
▁Number	-7408
▁Othman	-7409
▁Pirate	-7410
▁Puerto	-7411
▁either	-7412
▁raised	-7413
▁rector	-7414
▁1907-07	-7415
▁2014–15	-7416
▁Almonds	-7417
▁Carmine	-7418
▁Estádio	-7419
▁Garrett	-7420
▁Plastik	-7421
▁Segunda	-7422
▁english	-7423
▁stories	-7424
▁through	-7425
couronnes	-7426
ffiliated	-7427
habitants	-7428
▁Charlott	-7429
▁Georgian	-7430
▁Operated	-7431
▁Shilling	-7432
▁absolute	-7433
▁cylinder	-7434
▁hardback	-7435
▁succeded	-7436
▁township	-7437
▁2005-11-2	-7438
▁57059226.	-7439
▁Anandiben	-7440
▁magnitude	-7441
▁1080-6377.	-7442
▁Lieutenant	-7443
▁frangipane	-7444
▁impressive	-7445
▁Psychedelic	-7446
▁broadcasted	-7447
▁christening	-7448
confectionery	-7449
▁8788850000.0	-7450
▁0-670-03380-4.	-7451
▁0-7156-3648-0.	-7452
▁288749000000.0	-7453
▁29919600000.0.	-7454
jg	-7455
mo	-7456
rl	-7457
/22	-7458
/26	-7459
68.	-7460
999	-7461
bat	-7462
hek	-7463
hne	-7464
mán	-7465
rec	-7466
▁8,	-7467
▁HE	-7468
▁Ll	-7469
▁ob	-7470
-263	-7471
1928	-7472
adze	-7473
asim	-7474
iang	-7475
jgal	-7476
kman	-7477
kpot	-7478
olin	-7479
rese	-7480
udap	-7481
velt	-7482
ärts	-7483
▁22,	-7484
▁374	-7485
▁Ent	-7486
▁Kai	-7487
▁Kek	-7488
▁Len	-7489
▁Rap	-7490
▁Srl	-7491
▁Vig	-7492
▁gre	-7493
-12-3	-7494
68.05	-7495
Agrem	-7496
Georg	-7497
ainen	-7498
andro	-7499
ectra	-7500
einst	-7501
esque	-7502
found	-7503
imber	-7504
iskey	-7505
itake	-7506
ituta	-7507
▁2016	-7508
▁Chil	-7509
▁Jean	-7510
▁Kiss	-7511
▁Numa	-7512
▁Rest	-7513
▁Serb	-7514
▁Some	-7515
▁Sons	-7516
▁Sour	-7517
▁Stam	-7518
▁Wart	-7519
▁Wein	-7520
▁gold	-7521
▁rise	-7522
88-263	-7523
Unique	-7524
bourne	-7525
comics	-7526
imetre	-7527
inegro	-7528
kmanov	-7529
landic	-7530
ursema	-7531
▁1957,	-7532
▁1962,	-7533
▁1971.	-7534
▁Budap	-7535
▁Canto	-7536
▁Erosi	-7537
▁Fired	-7538
▁Hohne	-7539
▁Inter	-7540
▁Jarmo	-7541
▁Kolin	-7542
▁Route	-7543
▁Spell	-7544
▁saint	-7545
▁sedan	-7546
▁tromb	-7547
▁veter	-7548
▁APGPAC	-7549
▁Chiang	-7550
▁Denzil	-7551
▁Deputy	-7552
▁During	-7553
▁Feinst	-7554
▁Inkpot	-7555
▁Llopis	-7556
▁Marcos	-7557
▁Vectra	-7558
▁patron	-7559
▁rapper	-7560
▁should	-7561
▁shumai	-7562
▁single	-7563
allistic	-7564
jgaladze	-7565
▁Matchst	-7566
▁Olympia	-7567
▁Orosmán	-7568
▁Polonia	-7569
▁Rodolfo	-7570
▁Stanyan	-7571
▁Whiskey	-7572
▁natives	-7573
▁offered	-7574
▁Budapest	-7575
▁Counties	-7576
▁Duursema	-7577
▁Examiner	-7578
▁Firedome	-7579
▁Meringue	-7580
▁Richland	-7581
▁Scotland	-7582
▁Stamford	-7583
▁Tukmanov	-7584
▁recorded	-7585
Agremiação	-7586
▁2006-12-3	-7587
▁Covington	-7588
▁Deportiva	-7589
▁Feinstein	-7590
▁Infantino	-7591
▁Melbourne	-7592
▁Preubisch	-7593
▁Restituta	-7594
▁Sanderson	-7595
▁americans	-7596
▁distribut	-7597
▁originate	-7598
▁6155910000	-7599
▁Alessandro	-7600
▁Romanesque	-7601
▁Uruguayans	-7602
▁0-374-26131	-7603
▁Greenlandic	-7604
▁centimetres	-7605
▁publication	-7606
▁179942000.0.	-7607
▁Charlottetown	-7608
▁Courcouronnes	-7609
▁international	-7610
-1-4165-4253-7.	-7611
▁288749000000.0.	-7612
45	-7613
-10	-7614
-2.	-7615
3-0	-7616
482	-7617
484	-7618
753	-7619
765	-7620
978	-7621
aes	-7622
imm	-7623
kgs	-7624
nez	-7625
ook	-7626
uce	-7627
yav	-7628
▁0,	-7629
▁GA	-7630
▁IV	-7631
▁en	-7632
-214	-7633
1961	-7634
3.95	-7635
58-2	-7636
Page	-7637
acan	-7638
ecor	-7639
iate	-7640
iles	-7641
oint	-7642
quir	-7643
shek	-7644
simm	-7645
ules	-7646
wick	-7647
ying	-7648
ínez	-7649
▁746	-7650
▁Bet	-7651
▁Kup	-7652
▁McK	-7653
▁Rox	-7654
▁Run	-7655
▁Zar	-7656
▁mag	-7657
▁max	-7658
▁pen	-7659
▁via	-7660
88753	-7661
96.65	-7662
achos	-7663
agoza	-7664
atory	-7665
ealla	-7666
estro	-7667
hesda	-7668
ordon	-7669
▁0965	-7670
▁1820	-7671
▁1862	-7672
▁250.	-7673
▁8800	-7674
▁Ciro	-7675
▁Cold	-7676
▁Corp	-7677
▁Hill	-7678
▁Most	-7679
▁Much	-7680
▁Pick	-7681
▁Puya	-7682
▁Quay	-7683
▁Runc	-7684
▁SqKm	-7685
▁fail	-7686
▁host	-7687
▁prep	-7688
▁tour	-7689
▁wrec	-7690
3-0633	-7691
iitake	-7692
single	-7693
yavsky	-7694
▁"1928	-7695
▁0-765	-7696
▁1907.	-7697
▁2003.	-7698
▁3360.	-7699
▁Among	-7700
▁Andre	-7701
▁Arese	-7702
▁Colin	-7703
▁Helic	-7704
▁Kekal	-7705
▁Laird	-7706
▁Place	-7707
▁Rican	-7708
▁Roose	-7709
▁Roque	-7710
▁Rover	-7711
▁Under	-7712
▁hotel	-7713
ecorino	-7714
managed	-7715
minster	-7716
perberg	-7717
simmons	-7718
▁"1634:	-7719
▁0.0482	-7720
▁0.0999	-7721
▁1558-2	-7722
▁445895	-7723
▁611961	-7724
▁Celery	-7725
▁Danish	-7726
▁Dianne	-7727
▁DuPage	-7728
▁Gordon	-7729
▁Greeks	-7730
▁Kimber	-7731
▁Moraes	-7732
▁Mulatu	-7733
▁Observ	-7734
▁Powell	-7735
▁Serbia	-7736
▁Virtus	-7737
▁destin	-7738
▁events	-7739
▁making	-7740
▁strong	-7741
▁titled	-7742
▁varied	-7743
eallaigh	-7744
▁1296.65	-7745
▁1980-04	-7746
▁2368.05	-7747
▁Barisan	-7748
▁Chilton	-7749
▁Entella	-7750
▁Geering	-7751
▁Kissing	-7752
▁Marsden	-7753
▁Nigeria	-7754
▁Pickard	-7755
▁Popular	-7756
▁Roxbury	-7757
▁Runcorn	-7758
▁batagor	-7759
▁veteran	-7760
▁wrecked	-7761
acanestro	-7762
▁0002-932	-7763
▁0965-214	-7764
▁60040714	-7765
▁Amateurs	-7766
▁Bethesda	-7767
▁Computer	-7768
▁Director	-7769
▁Martínez	-7770
▁McKenzie	-7771
▁Mobility	-7772
▁Soldiers	-7773
▁Zaragoza	-7774
▁starring	-7775
▁Ballistic	-7776
▁Belyavsky	-7777
▁Craftsman	-7778
▁Muchachos	-7779
▁Roosevelt	-7780
inhabitants	-7781
▁Brazilians	-7782
▁Kekalainen	-7783
▁Kupperberg	-7784
▁magistrate	-7785
▁0-7653-0633	-7786
▁Corporation	-7787
▁Legislative	-7788
▁Manjgaladze	-7789
▁Observatory	-7790
▁Westminster	-7791
▁destination	-7792
▁Efxeinoupoli	-7793
▁championship	-7794
▁Pallacanestro	-7795
▁0-439-17684-0.	-7796
▁instrumentalist	-7797
bh	-7798
fu	-7799
-56	-7800
-6.	-7801
/04	-7802
15.	-7803
567	-7804
683	-7805
894	-7806
904	-7807
947	-7808
ABI	-7809
Pol	-7810
afs	-7811
biz	-7812
din	-7813
hot	-7814
ilä	-7815
kaz	-7816
ohy	-7817
ski	-7818
uzz	-7819
âne	-7820
ște	-7821
▁CA	-7822
▁LA	-7823
▁NJ	-7824
▁RQ	-7825
▁VA	-7826
▁VD	-7827
-301	-7828
1484	-7829
2445	-7830
46-8	-7831
aigh	-7832
aptă	-7833
asts	-7834
biza	-7835
chap	-7836
erez	-7837
erry	-7838
ices	-7839
ikav	-7840
mund	-7841
umpl	-7842
with	-7843
▁3.5	-7844
▁77.	-7845
▁Bod	-7846
▁Hav	-7847
▁Mun	-7848
▁Pap	-7849
▁Rub	-7850
▁pal	-7851
▁pes	-7852
▁rut	-7853
▁sen	-7854
2.88.	-7855
attro	-7856
cules	-7857
ector	-7858
egodi	-7859
ibbon	-7860
inian	-7861
ohydr	-7862
owski	-7863
rewer	-7864
▁"978	-7865
▁0567	-7866
▁100.	-7867
▁1418	-7868
▁15/3	-7869
▁1700	-7870
▁1909	-7871
▁524.	-7872
▁Bent	-7873
▁Carn	-7874
▁Fitz	-7875
▁Gale	-7876
▁Gmbh	-7877
▁Lord	-7878
▁Lyon	-7879
▁Well	-7880
▁into	-7881
▁role	-7882
▁soul	-7883
▁ster	-7884
▁tofu	-7885
-56947	-7886
/03/19	-7887
backer	-7888
ternat	-7889
▁08/26	-7890
▁1857.	-7891
▁1913.	-7892
▁After	-7893
▁Dește	-7894
▁Donal	-7895
▁First	-7896
▁Gabor	-7897
▁Giles	-7898
▁Horse	-7899
▁Ibiza	-7900
▁Light	-7901
▁Major	-7902
▁Perez	-7903
▁Point	-7904
▁Reids	-7905
▁Zamba	-7906
▁dumpl	-7907
▁piano	-7908
▁ruler	-7909
▁still	-7910
afschap	-7911
ikavkaz	-7912
▁0001-8	-7913
▁1046-8	-7914
▁111484	-7915
▁331683	-7916
▁703.95	-7917
▁Alania	-7918
▁Brewer	-7919
▁Combat	-7920
▁Edmund	-7921
▁Fortin	-7922
▁Hector	-7923
▁Moench	-7924
▁coined	-7925
▁comics	-7926
▁ribbon	-7927
▁stages	-7928
ectively	-7929
▁3188753	-7930
▁3202445	-7931
▁Munster	-7932
▁Quattro	-7933
▁engines	-7934
▁maximum	-7935
▁tourist	-7936
▁0567-792	-7937
▁100305.0	-7938
▁87000823	-7939
▁Carnival	-7940
▁Havering	-7941
▁Hercules	-7942
▁Musician	-7943
▁Previous	-7944
▁defender	-7945
▁minister	-7946
▁provides	-7947
▁rutaceae	-7948
▁sterling	-7949
▁tenanted	-7950
▁vehicles	-7951
-56947-301	-7952
▁Bentegodi	-7953
▁Deșteaptă	-7954
▁Papenburg	-7955
▁Universal	-7956
▁carbohydr	-7957
▁comprises	-7958
▁Discipline	-7959
▁Graafschap	-7960
▁Helicopter	-7961
▁Reidsville	-7962
▁parliament	-7963
▁331683000.0	-7964
▁611961000.0	-7965
▁Argentinian	-7966
▁Californian	-7967
▁Fitzsimmons	-7968
▁Vladikavkaz	-7969
▁connections	-7970
▁139705000.0.	-7971
▁respectively	-7972
▁0-7653-0633-6.	-7973
▁416136000000.0.	-7974
',	-7975
87	-7976
AH	-7977
ui	-7978
wy	-7979
zi	-7980
-55	-7981
/18	-7982
0.8	-7983
01.	-7984
02.	-7985
12.	-7986
2.6	-7987
269	-7988
348	-7989
5.4	-7990
57.	-7991
907	-7992
925	-7993
AHE	-7994
Act	-7995
Jaw	-7996
eap	-7997
rix	-7998
row	-7999
uet	-8000
wyn	-8001
▁"1	-8002
▁84	-8003
▁XC	-8004
▁we	-8005
-04.	-8006
078.	-8007
1951	-8008
4.0.	-8009
7-03	-8010
8.65	-8011
Acta	-8012
Quwa	-8013
abbr	-8014
ancy	-8015
anta	-8016
arde	-8017
atto	-8018
kies	-8019
olet	-8020
olph	-8021
sone	-8022
spor	-8023
used	-8024
uzzi	-8025
wall	-8026
érix	-8027
▁-8.	-8028
▁13,	-8029
▁Dis	-8030
▁HAL	-8031
▁Ord	-8032
▁Qui	-8033
▁Rud	-8034
▁Sad	-8035
▁Uab	-8036
▁Zor	-8037
▁ego	-8038
▁put	-8039
60-04	-8040
73-55	-8041
Mater	-8042
adija	-8043
alows	-8044
atten	-8045
eapta	-8046
ensio	-8047
garde	-8048
grade	-8049
hnese	-8050
onist	-8051
orsep	-8052
udios	-8053
woody	-8054
▁1147	-8055
▁13/3	-8056
▁1301	-8057
▁1952	-8058
▁1976	-8059
▁55.4	-8060
▁Arib	-8061
▁Atal	-8062
▁Bung	-8063
▁Dino	-8064
▁Gram	-8065
▁Hort	-8066
▁Iwan	-8067
▁KABI	-8068
▁Liga	-8069
▁Odin	-8070
▁beds	-8071
▁know	-8072
▁palm	-8073
▁peso	-8074
▁prim	-8075
269-93	-8076
Jawiya	-8077
eoples	-8078
ousins	-8079
▁03/04	-8080
▁140.8	-8081
▁178.0	-8082
▁1941.	-8083
▁1988.	-8084
▁24.0.	-8085
▁3078.	-8086
▁524.5	-8087
▁992.6	-8088
▁Bibbo	-8089
▁Chris	-8090
▁Cyrus	-8091
▁Dance	-8092
▁Jerry	-8093
▁Turzi	-8094
▁Vance	-8095
▁alter	-8096
▁force	-8097
Georgia	-8098
founded	-8099
▁0.0348	-8100
▁1421.2	-8101
▁1732-2	-8102
▁368.65	-8103
▁Brasil	-8104
▁Carrie	-8105
▁Chapel	-8106
▁Clancy	-8107
▁Colwyn	-8108
▁Disney	-8109
▁Ground	-8110
▁Johnny	-8111
▁Legion	-8112
▁Ordway	-8113
▁Violet	-8114
▁horsep	-8115
▁invent	-8116
▁române	-8117
▁senate	-8118
▁sports	-8119
American	-8120
esteapta	-8121
▁1473-55	-8122
▁1857-03	-8123
▁8805735	-8124
▁Catania	-8125
▁Daniele	-8126
▁Huskies	-8127
▁Khadija	-8128
▁Manuzzi	-8129
▁Odinson	-8130
▁Quijano	-8131
▁Rosales	-8132
▁Rudolph	-8133
▁Sansone	-8134
▁Studios	-8135
▁Wilfred	-8136
▁Zoratto	-8137
▁bombing	-8138
▁cookies	-8139
▁monarch	-8140
▁printed	-8141
6000000.0	-8142
▁1588-263	-8143
▁Acehnese	-8144
▁Agentina	-8145
▁Atalanta	-8146
▁Belgrade	-8147
▁Cornwall	-8148
▁Jacobean	-8149
▁Keystone	-8150
▁Kimberly	-8151
▁Niinistö	-8152
▁features	-8153
▁managing	-8154
▁Bibbowski	-8155
▁Bungalows	-8156
▁Hortensio	-8157
▁affiliate	-8158
▁almaMater	-8159
▁belonging	-8160
▁operation	-8161
▁residents	-8162
ternatively	-8163
▁0002-9327.	-8164
▁7729430000	-8165
▁Basketball	-8166
▁arrabbiata	-8167
▁associates	-8168
▁condiments	-8169
▁conference	-8170
▁horsepower	-8171
▁1-56947-301	-8172
▁135589000.0	-8173
▁Originating	-8174
▁affiliation	-8175
▁Additionally	-8176
-1-4165-4253-7	-8177
▁carbohydrates	-8178
▁0-439-17685-9.	-8179
An	-8180
ET	-8181
HP	-8182
uv	-8183
-8.	-8184
/05	-8185
200	-8186
290	-8187
39.	-8188
4.1	-8189
Add	-8190
Bar	-8191
ahn	-8192
ajo	-8193
olu	-8194
rus	-8195
war	-8196
▁68	-8197
▁Km	-8198
▁NZ	-8199
12.3	-8200
ISET	-8201
adiq	-8202
ahan	-8203
azan	-8204
curr	-8205
enna	-8206
fess	-8207
from	-8208
home	-8209
ilts	-8210
mere	-8211
odox	-8212
okes	-8213
olan	-8214
onga	-8215
oton	-8216
unct	-8217
wise	-8218
▁1.1	-8219
▁3,5	-8220
▁371	-8221
▁Bir	-8222
▁Duc	-8223
▁Eis	-8224
▁Eug	-8225
▁Fir	-8226
▁Hui	-8227
▁Max	-8228
▁OAA	-8229
▁Raf	-8230
▁Scr	-8231
▁Sob	-8232
▁Top	-8233
▁Tze	-8234
▁aka	-8235
▁eat	-8236
▁foc	-8237
▁med	-8238
-02-2	-8239
adolu	-8240
ardar	-8241
arysh	-8242
derzo	-8243
ebago	-8244
enese	-8245
itari	-8246
ittle	-8247
named	-8248
ostle	-8249
uting	-8250
yanin	-8251
▁1905	-8252
▁1956	-8253
▁1982	-8254
▁1990	-8255
▁2989	-8256
▁Ahri	-8257
▁Ayaz	-8258
▁Efes	-8259
▁Kuet	-8260
▁Maya	-8261
▁Muss	-8262
▁Pict	-8263
▁Polo	-8264
▁Shuv	-8265
▁Tran	-8266
▁Yong	-8267
▁bird	-8268
▁fans	-8269
▁fict	-8270
▁firm	-8271
▁garr	-8272
▁give	-8273
▁soup	-8274
-09-01	-8275
curred	-8276
ershot	-8277
ivener	-8278
ologna	-8279
▁11/29	-8280
▁1855.	-8281
▁1908.	-8282
▁1914.	-8283
▁2014,	-8284
▁33626	-8285
▁45.97	-8286
▁47290	-8287
▁50000	-8288
▁66063	-8289
▁Carlo	-8290
▁Chung	-8291
▁Dilts	-8292
▁Gates	-8293
▁Jamie	-8294
▁Kazan	-8295
▁Leach	-8296
▁Rally	-8297
▁Robur	-8298
▁Rubin	-8299
▁Sadiq	-8300
▁Siena	-8301
▁These	-8302
▁compl	-8303
▁honey	-8304
▁prime	-8305
▁refer	-8306
▁texas	-8307
▁voice	-8308
okesman	-8309
▁0.0925	-8310
▁1104.1	-8311
▁1299.0	-8312
▁2776.0	-8313
▁Barrow	-8314
▁Bridge	-8315
▁Ducati	-8316
▁Edward	-8317
▁Eugene	-8318
▁Groton	-8319
▁Having	-8320
▁Motion	-8321
▁Narysh	-8322
▁Patten	-8323
▁Prince	-8324
▁Ramsey	-8325
▁Runway	-8326
▁Sardar	-8327
▁Turzii	-8328
▁Uderzo	-8329
▁Vienna	-8330
▁Warton	-8331
▁obtain	-8332
innebago	-8333
language	-8334
▁1360-04	-8335
▁45000.0	-8336
▁Anadolu	-8337
▁Apostle	-8338
▁Bologna	-8339
▁Borough	-8340
▁Cousins	-8341
▁Defense	-8342
▁However	-8343
▁Ketchup	-8344
▁Milonga	-8345
▁Sadique	-8346
▁profess	-8347
Addiction	-8348
ufactured	-8349
▁83646315	-8350
▁Coloured	-8351
▁Huiberts	-8352
▁Javenese	-8353
▁Militari	-8354
▁Orthodox	-8355
▁Sobyanin	-8356
▁Springer	-8357
▁Tranmere	-8358
▁addition	-8359
▁concerts	-8360
▁garrison	-8361
▁invented	-8362
▁manufact	-8363
▁occurred	-8364
▁services	-8365
▁2006.12.3	-8366
▁89646863.	-8367
▁Aldershot	-8368
▁Computing	-8369
▁Mussolini	-8370
▁Naryshkin	-8371
▁Samarahan	-8372
▁Scrivener	-8373
▁fictional	-8374
▁otherwise	-8375
▁recipient	-8376
▁residence	-8377
▁1969-09-01	-8378
▁compliment	-8379
▁179942000.0	-8380
▁derivatives	-8381
▁Amsterdamsche	-8382
▁Transportation	-8383
▁352497000000.0.	-8384
▁377016000000.0.	-8385
66	-8386
EP	-8387
In	-8388
TH	-8389
fa	-8390
hr	-8391
uk	-8392
uo	-8393
-21	-8394
23.	-8395
250	-8396
30.	-8397
6.5	-8398
72.	-8399
EPT	-8400
Gre	-8401
arf	-8402
bol	-8403
cht	-8404
iki	-8405
lam	-8406
lez	-8407
mst	-8408
rag	-8409
urd	-8410
uti	-8411
▁01	-8412
▁7,	-8413
▁9,	-8414
▁ED	-8415
▁RB	-8416
▁do	-8417
▁im	-8418
-03.	-8419
1.54	-8420
3.9.	-8421
6.66	-8422
Alfa	-8423
Arts	-8424
Naft	-8425
PSTH	-8426
arge	-8427
chsy	-8428
dale	-8429
erce	-8430
erle	-8431
hini	-8432
ifin	-8433
ocal	-8434
ález	-8435
çois	-8436
▁16'	-8437
▁304	-8438
▁Mes	-8439
▁ScD	-8440
▁duo	-8441
▁opp	-8442
▁pak	-8443
▁plc	-8444
-03-1	-8445
19691	-8446
AIDBI	-8447
anish	-8448
elkab	-8449
orgos	-8450
riest	-8451
ronic	-8452
stems	-8453
▁1533	-8454
▁1985	-8455
▁3800	-8456
▁404,	-8457
▁4349	-8458
▁CEPT	-8459
▁Fire	-8460
▁Horn	-8461
▁Kota	-8462
▁Lalb	-8463
▁Link	-8464
▁Near	-8465
▁Roch	-8466
▁Teow	-8467
▁Unit	-8468
▁Vica	-8469
▁Wars	-8470
▁acqu	-8471
▁auth	-8472
▁gets	-8473
▁king	-8474
▁kmps	-8475
▁lmst	-8476
▁song	-8477
akaria	-8478
aminis	-8479
ettuce	-8480
illari	-8481
urdish	-8482
writer	-8483
▁1868.	-8484
▁1972.	-8485
▁1987,	-8486
▁1990.	-8487
▁2015,	-8488
▁27250	-8489
▁286.5	-8490
▁53502	-8491
▁610.0	-8492
▁Arrow	-8493
▁Bones	-8494
▁EPSTH	-8495
▁Irlam	-8496
▁Levan	-8497
▁Other	-8498
▁Print	-8499
▁Sanat	-8500
▁Sedan	-8501
▁large	-8502
aration	-8503
erlecht	-8504
omeriki	-8505
orghini	-8506
▁161.54	-8507
▁519691	-8508
▁Arifin	-8509
▁Calero	-8510
▁Cesana	-8511
▁Futbol	-8512
▁Kerman	-8513
▁Leader	-8514
▁Norway	-8515
▁Prague	-8516
▁Scharf	-8517
▁Sesame	-8518
▁Teague	-8519
▁Techsy	-8520
▁boasts	-8521
▁impact	-8522
▁pakora	-8523
▁romane	-8524
acoustic	-8525
▁2013-11	-8526
▁Alliant	-8527
▁Castrov	-8528
▁Clayton	-8529
▁Cookies	-8530
▁Giorgos	-8531
▁Kaminis	-8532
▁Lalbhai	-8533
▁Virtuti	-8534
▁Zakaria	-8535
▁authors	-8536
▁bodhran	-8537
▁capitol	-8538
▁college	-8539
▁primary	-8540
▁working	-8541
▁Asteroid	-8542
▁Brasilia	-8543
▁Dunwoody	-8544
▁François	-8545
▁González	-8546
▁Pictures	-8547
▁Rochdale	-8548
▁Turkmenb	-8549
▁commerce	-8550
▁counties	-8551
▁majority	-8552
▁original	-8553
▁referred	-8554
▁surfaced	-8555
00000000.0	-8556
▁57392246.	-8557
▁60040714.	-8558
▁87000823.	-8559
▁Gravesham	-8560
▁Khomeriki	-8561
▁Reference	-8562
▁Spokesman	-8563
▁Topklasse	-8564
▁beginning	-8565
▁Anderlecht	-8566
▁Kashubians	-8567
▁centimetre	-8568
▁foundation	-8569
▁trombonist	-8570
▁1969-09-01.	-8571
▁2005-11-26.	-8572
▁Aktieselkab	-8573
▁Lamborghini	-8574
▁Techsystems	-8575
▁manufacture	-8576
▁preparation	-8577
▁135589000.0.	-8578
▁Paleontology	-8579
▁inauguration	-8580
▁Castrovillari	-8581
▁0-374-26131-8.	-8582
▁124950000000.0.	-8583
▁3997100000000.0	-8584
-5	-8585
-1,	-8586
125	-8587
214	-8588
236	-8589
25-	-8590
52.	-8591
9.9	-8592
AAJ	-8593
ada	-8594
erk	-8595
ety	-8596
hez	-8597
itc	-8598
leh	-8599
mos	-8600
oms	-8601
ryd	-8602
ärf	-8603
▁8'	-8604
▁KY	-8605
▁MS	-8606
▁OB	-8607
▁PC	-8608
▁go	-8609
▁tv	-8610
-529	-8611
/198	-8612
/200	-8613
14.8	-8614
39.3	-8615
5.0.	-8616
6.0.	-8617
9304	-8618
HAAJ	-8619
Math	-8620
acab	-8621
ahle	-8622
alid	-8623
ante	-8624
arin	-8625
ashi	-8626
bhai	-8627
ewis	-8628
half	-8629
hell	-8630
lass	-8631
orrs	-8632
unde	-8633
zhny	-8634
▁08.	-8635
▁14,	-8636
▁230	-8637
▁4.0	-8638
▁4.6	-8639
▁434	-8640
▁7.9	-8641
▁900	-8642
▁Aet	-8643
▁Asa	-8644
▁Baj	-8645
▁Coc	-8646
▁Cre	-8647
▁Gig	-8648
▁equ	-8649
▁fac	-8650
▁fam	-8651
▁hom	-8652
Earth	-8653
aanst	-8654
achin	-8655
aheer	-8656
apind	-8657
aspar	-8658
based	-8659
elvin	-8660
ibale	-8661
ified	-8662
ipped	-8663
iraca	-8664
mosys	-8665
sists	-8666
▁07/2	-8667
▁1878	-8668
▁2215	-8669
▁600.	-8670
▁6214	-8671
▁657.	-8672
▁Bush	-8673
▁Four	-8674
▁Mitc	-8675
▁Oleh	-8676
▁Prod	-8677
▁Pryd	-8678
▁Reid	-8679
▁Ring	-8680
▁RoPS	-8681
▁Sanc	-8682
▁Sima	-8683
▁WWII	-8684
▁Writ	-8685
▁only	-8686
▁them	-8687
▁trip	-8688
6-05-2	-8689
Amster	-8690
apitan	-8691
arinet	-8692
enosha	-8693
leader	-8694
▁19255	-8695
▁1972,	-8696
▁2004,	-8697
▁24.4.	-8698
▁265.0	-8699
▁268.0	-8700
▁32.2.	-8701
▁37124	-8702
▁429.9	-8703
▁77.41	-8704
▁914.8	-8705
▁Anwar	-8706
▁Clerk	-8707
▁Harry	-8708
▁Kilom	-8709
▁Lewis	-8710
▁Minna	-8711
▁Power	-8712
▁Putin	-8713
▁Sahle	-8714
▁Sammy	-8715
▁Study	-8716
▁Trade	-8717
▁Wells	-8718
▁bakso	-8719
▁build	-8720
▁chanc	-8721
236-529	-8722
portant	-8723
▁1.9304	-8724
▁11/29.	-8725
▁18.52.	-8726
▁44.125	-8727
▁560090	-8728
▁AMHAAJ	-8729
▁Banana	-8730
▁Coming	-8731
▁Dalpat	-8732
▁Eisner	-8733
▁Gaspar	-8734
▁Jamali	-8735
▁Khalid	-8736
▁Lanark	-8737
▁Little	-8738
▁Luzhny	-8739
▁Roland	-8740
▁Schärf	-8741
▁Storrs	-8742
▁Zaanst	-8743
▁Zaheer	-8744
▁behalf	-8745
▁famous	-8746
▁fellow	-8747
▁headed	-8748
achinery	-8749
sociated	-8750
▁0269-93	-8751
▁3746.66	-8752
▁4349.0.	-8753
▁62145.3	-8754
▁Asphalt	-8755
▁Chorizo	-8756
▁Gigante	-8757
▁Justice	-8758
▁Kapitan	-8759
▁Kenosha	-8760
▁Mahmood	-8761
▁Orosman	-8762
▁Osmosys	-8763
▁Sanchez	-8764
▁Society	-8765
▁Written	-8766
▁greater	-8767
▁leading	-8768
▁minimum	-8769
▁publish	-8770
▁resided	-8771
Ceallaigh	-8772
apindales	-8773
residency	-8774
▁10/03/19	-8775
▁11473.9.	-8776
▁Although	-8777
▁Annibale	-8778
▁Hardwick	-8779
▁Mitchell	-8780
▁Straight	-8781
▁acquired	-8782
▁clarinet	-8783
▁consists	-8784
▁equipped	-8785
▁obtained	-8786
roacoustic	-8787
▁1936-05-2	-8788
▁46451790.	-8789
▁76798317.	-8790
▁Alvinegro	-8791
▁Architect	-8792
▁Prydnikov	-8793
▁Winnebago	-8794
▁associate	-8795
▁designers	-8796
▁important	-8797
▁peninsula	-8798
▁1588-2632.	-8799
▁16244700.0	-8800
▁1980-04-23	-8801
▁Aethelwald	-8802
▁Chicharrón	-8803
▁Cottingham	-8804
▁Frangipane	-8805
▁Kilometers	-8806
▁Warnemunde	-8807
▁Zaanstreek	-8808
▁chancellor	-8809
▁eventually	-8810
▁songwriter	-8811
▁throughout	-8812
▁371240000.0	-8813
▁Lanarkshire	-8814
▁Springfield	-8815
Amsterdamsche	-8816
▁142603000.0.	-8817
▁179942000.0,	-8818
▁7715100000.0	-8819
▁Turkmenbashi	-8820
▁41498400000.0	-8821
▁88234300000.0	-8822
▁manufacturers	-8823
▁1-56947-301-3.	-8824
▁3997100000000.	-8825
▁349206000000.0.	-8826
-9	-8827
81	-8828
98	-8829
sq	-8830
ua	-8831
yk	-8832
ün	-8833
25.	-8834
509	-8835
53.	-8836
LCN	-8837
asa	-8838
dod	-8839
ebr	-8840
ené	-8841
erg	-8842
fia	-8843
gen	-8844
inx	-8845
inz	-8846
isd	-8847
rel	-8848
tis	-8849
ukt	-8850
▁Ai	-8851
▁Li	-8852
▁Oc	-8853
▁SJ	-8854
▁SS	-8855
▁Ud	-8856
▁cu	-8857
▁ft	-8858
▁nu	-8859
-01.	-8860
1.92	-8861
188.	-8862
8055	-8863
Cune	-8864
Mary	-8865
amon	-8866
beam	-8867
berh	-8868
burn	-8869
iant	-8870
iced	-8871
icio	-8872
igua	-8873
imir	-8874
iner	-8875
mell	-8876
olut	-8877
omin	-8878
onth	-8879
otes	-8880
post	-8881
self	-8882
udyk	-8883
vels	-8884
ünde	-8885
▁153	-8886
▁178	-8887
▁221	-8888
▁25.	-8889
▁360	-8890
▁524	-8891
▁Abe	-8892
▁Bef	-8893
▁GFC	-8894
▁Med	-8895
▁Mod	-8896
▁Out	-8897
▁Pot	-8898
▁Ret	-8899
▁Wee	-8900
▁jur	-8901
25-58	-8902
Manus	-8903
Tudor	-8904
acchi	-8905
achim	-8906
acity	-8907
arkey	-8908
beral	-8909
court	-8910
efine	-8911
emons	-8912
ianza	-8913
ionne	-8914
isode	-8915
outhe	-8916
uties	-8917
▁1,12	-8918
▁168,	-8919
▁168.	-8920
▁1891	-8921
▁1911	-8922
▁2012	-8923
▁258.	-8924
▁9453	-8925
▁AFAS	-8926
▁Aids	-8927
▁Bass	-8928
▁Cocu	-8929
▁Ered	-8930
▁LLCN	-8931
▁Laan	-8932
▁Maur	-8933
▁Nebr	-8934
▁Pork	-8935
▁Rene	-8936
▁René	-8937
▁Tart	-8938
▁hous	-8939
▁ital	-8940
▁plan	-8941
▁vers	-8942
▁vice	-8943
Poland	-8944
astery	-8945
ellner	-8946
ionary	-8947
ireann	-8948
ishers	-8949
ivisie	-8950
onthly	-8951
regano	-8952
▁"1930	-8953
▁1911.	-8954
▁2002.	-8955
▁2009,	-8956
▁94509	-8957
▁Aarus	-8958
▁Bajik	-8959
▁Bruce	-8960
▁Built	-8961
▁Byron	-8962
▁Cantu	-8963
▁Comic	-8964
▁Damon	-8965
▁Eberh	-8966
▁Gauck	-8967
▁Giant	-8968
▁Inukt	-8969
▁Jacab	-8970
▁Macri	-8971
▁Occup	-8972
▁Rapid	-8973
▁River	-8974
▁Sofia	-8975
▁Tiger	-8976
▁Tudyk	-8977
▁While	-8978
▁arros	-8979
▁avant	-8980
▁banjo	-8981
▁becom	-8982
▁books	-8983
▁carbs	-8984
▁cello	-8985
▁finch	-8986
▁roots	-8987
▁solan	-8988
▁vocal	-8989
Barisan	-8990
endable	-8991
kelvins	-8992
▁121.92	-8993
▁1239.3	-8994
▁3800.0	-8995
▁498055	-8996
▁Aiport	-8997
▁Ashdod	-8998
▁Before	-8999
▁Bodley	-9000
▁Collin	-9001
▁Curtis	-9002
▁Dimmit	-9003
▁Guitar	-9004
▁Kelvin	-9005
▁McCune	-9006
▁Portug	-9007
▁Romano	-9008
▁Samuel	-9009
▁Southe	-9010
▁Sponge	-9011
▁Tories	-9012
▁Triest	-9013
▁Unione	-9014
▁Varese	-9015
▁Wayans	-9016
▁concer	-9017
▁crafts	-9018
▁crewed	-9019
▁dishes	-9020
▁factor	-9021
▁jurisd	-9022
▁medium	-9023
▁museum	-9024
▁requir	-9025
ermacchi	-9026
operties	-9027
▁1533.0.	-9028
▁1939-01	-9029
▁3310.0.	-9030
▁Alianza	-9031
▁Antigua	-9032
▁Cammell	-9033
▁Joachim	-9034
▁Kurdish	-9035
▁Liberal	-9036
▁Library	-9037
▁Manager	-9038
▁McManus	-9039
▁Modling	-9040
▁Peoples	-9041
▁Potenza	-9042
▁Revolut	-9043
▁Stadion	-9044
▁Stevens	-9045
▁Udinese	-9046
▁Weaving	-9047
▁Wizards	-9048
▁council	-9049
▁episode	-9050
▁focused	-9051
▁himself	-9052
▁travels	-9053
▁version	-9054
ification	-9055
▁0001-839	-9056
▁192000.0	-9057
▁3992.88.	-9058
▁Alliance	-9059
▁Designed	-9060
▁Eberhard	-9061
▁Gasparis	-9062
▁Graduate	-9063
▁Harcourt	-9064
▁Mauricio	-9065
▁Mularkey	-9066
▁Nebraska	-9067
▁Pecorino	-9068
▁Phillipp	-9069
▁Portland	-9070
▁Redefine	-9071
▁Vladimir	-9072
▁Vorwärts	-9073
▁airlines	-9074
▁citizens	-9075
▁hometown	-9076
▁produces	-9077
▁shipbeam	-9078
▁605718000	-9079
▁83646315.	-9080
▁Arapiraca	-9081
▁Democrats	-9082
▁Inuktitut	-9083
▁Machinery	-9084
▁Monastery	-9085
▁Triestina	-9086
▁aircrafts	-9087
▁formation	-9088
▁nicknamed	-9089
▁10/03/1983	-9090
▁1046-8188.	-9091
▁2791420000	-9092
▁7715100000	-9093
▁Argentines	-9094
▁Cephalopod	-9095
▁Chicharron	-9096
▁Cuttlefish	-9097
▁Dalpatbhai	-9098
▁Decoration	-9099
▁Eredivisie	-9100
▁Marchionne	-9101
▁Properties	-9102
▁Warnemünde	-9103
▁expendable	-9104
▁linebacker	-9105
▁142603000.0	-9106
▁183309000.0	-9107
▁Territorial	-9108
▁Turkmenabat	-9109
▁amatriciana	-9110
▁Southeastern	-9111
▁jurisdiction	-9112
▁29919600000.0	-9113
▁Revolutionary	-9114
▁confectionery	-9115
▁283326000000.0	-9116
▁352497000000.0	-9117
▁Classification	-9118
▁445895000000.0.	-9119
▁electroacoustic	-9120
3,	-9121
BL	-9122
me	-9123
öd	-9124
-08	-9125
/01	-9126
008	-9127
253	-9128
70,	-9129
73.	-9130
BCT	-9131
RBL	-9132
aná	-9133
hok	-9134
kel	-9135
log	-9136
ryn	-9137
âmp	-9138
▁04	-9139
▁6-	-9140
▁ID	-9141
▁vo	-9142
-339	-9143
/21.	-9144
/26.	-9145
1.2.	-9146
2.88	-9147
6-02	-9148
868.	-9149
ISSN	-9150
Port	-9151
alan	-9152
amie	-9153
ands	-9154
arts	-9155
coff	-9156
ergh	-9157
hrán	-9158
oods	-9159
resa	-9160
ucky	-9161
vert	-9162
▁"00	-9163
▁03.	-9164
▁16,	-9165
▁179	-9166
▁324	-9167
▁ATA	-9168
▁Aki	-9169
▁Hon	-9170
▁Lim	-9171
▁Mao	-9172
▁Möd	-9173
▁Var	-9174
▁WWI	-9175
▁bas	-9176
▁fig	-9177
▁got	-9178
▁rem	-9179
affey	-9180
anics	-9181
anyon	-9182
craft	-9183
ellam	-9184
inted	-9185
iring	-9186
ockey	-9187
sbury	-9188
state	-9189
âmpia	-9190
▁1023	-9191
▁1800	-9192
▁1941	-9193
▁1967	-9194
▁2,19	-9195
▁24.0	-9196
▁Bryn	-9197
▁CRBL	-9198
▁Erie	-9199
▁Fair	-9200
▁Full	-9201
▁Hold	-9202
▁Lane	-9203
▁Mech	-9204
▁Nasa	-9205
▁Nock	-9206
▁Pure	-9207
▁Rese	-9208
▁Rick	-9209
▁Rona	-9210
▁SBCT	-9211
▁Stra	-9212
▁appo	-9213
▁clos	-9214
▁gave	-9215
▁hall	-9216
▁nice	-9217
▁numb	-9218
▁pale	-9219
▁sand	-9220
▁sist	-9221
-10-17	-9222
ianist	-9223
iments	-9224
ondiss	-9225
▁"1923	-9226
▁15/33	-9227
▁173.0	-9228
▁1856.	-9229
▁1904.	-9230
▁1909.	-9231
▁1933,	-9232
▁1981,	-9233
▁2016,	-9234
▁21.2.	-9235
▁258.2	-9236
▁2702.	-9237
▁Based	-9238
▁Duhok	-9239
▁Glass	-9240
▁Iraqi	-9241
▁Saint	-9242
▁Weber	-9243
▁Woods	-9244
▁exact	-9245
▁helic	-9246
▁hosts	-9247
▁plane	-9248
English	-9249
iations	-9250
largest	-9251
▁2989.0	-9252
▁600.0.	-9253
▁Ammann	-9254
▁Angela	-9255
▁Bronze	-9256
▁Campia	-9257
▁Canyon	-9258
▁Câmpia	-9259
▁Garlic	-9260
▁Gators	-9261
▁Inline	-9262
▁Kellam	-9263
▁Manley	-9264
▁Merkel	-9265
▁Paraná	-9266
▁Peanut	-9267
▁ending	-9268
▁houses	-9269
▁orange	-9270
▁stands	-9271
▁united	-9272
▁voiced	-9273
,000,000	-9274
Squeezed	-9275
vertible	-9276
▁1896-02	-9277
▁1930-01	-9278
▁2009-04	-9279
▁3360.12	-9280
▁3500.0.	-9281
▁Mödling	-9282
▁Ribcoff	-9283
▁Sausage	-9284
▁Tapioca	-9285
▁Theresa	-9286
▁Zellner	-9287
▁capable	-9288
▁colours	-9289
▁identif	-9290
▁kingdom	-9291
▁numbers	-9292
▁prequel	-9293
▁recipes	-9294
▁sandesh	-9295
▁senator	-9296
▁sisters	-9297
▁trainer	-9298
President	-9299
▁03/04/19	-9300
▁57392246	-9301
▁76798317	-9302
▁80002709	-9303
▁Deputies	-9304
▁Holdings	-9305
▁Jacabian	-9306
▁Nockalls	-9307
▁Pallotta	-9308
▁Portugal	-9309
▁Research	-9310
▁Shuvalan	-9311
▁Vorwarts	-9312
▁becoming	-9313
▁capacity	-9314
▁dumpling	-9315
▁landmark	-9316
▁requires	-9317
▁retiring	-9318
▁synthpop	-9319
affiliated	-9320
▁0965-2140	-9321
▁45644811.	-9322
▁49805501.	-9323
▁51969173.	-9324
▁523329000	-9325
▁78771100.	-9326
▁Aermacchi	-9327
▁Andersson	-9328
▁Appletone	-9329
▁Blackburn	-9330
▁Cubanelle	-9331
▁Ethiopian	-9332
▁Kashubian	-9333
▁Mechanics	-9334
▁addiction	-9335
▁appointed	-9336
▁concerned	-9337
ondissement	-9338
▁0001-8392.	-9339
▁1558-2868.	-9340
▁1907-07-11	-9341
▁Bloomsbury	-9342
▁Condiments	-9343
▁Kellamergh	-9344
▁Solanaceae	-9345
▁Variations	-9346
▁classified	-9347
manufactured	-9348
▁39447000.0.	-9349
▁convertible	-9350
▁distributed	-9351
▁Administrator	-9352
▁283326000000.0.	-9353
.'	-9354
4"	-9355
MI	-9356
hb	-9357
há	-9358
▁É	-9359
-27	-9360
/1,	-9361
064	-9362
084	-9363
13.	-9364
28.	-9365
421	-9366
43.	-9367
48.	-9368
504	-9369
70.	-9370
ACM	-9371
ACY	-9372
AIP	-9373
Kov	-9374
She	-9375
aim	-9376
ala	-9377
for	-9378
hál	-9379
joy	-9380
lav	-9381
oni	-9382
ozo	-9383
six	-9384
uem	-9385
ult	-9386
was	-9387
zhi	-9388
áil	-9389
ött	-9390
▁Ní	-9391
▁Pé	-9392
▁ZF	-9393
▁hp	-9394
▁id	-9395
▁si	-9396
▁so	-9397
-04,	-9398
2539	-9399
421.	-9400
7.16	-9401
735.	-9402
Ohio	-9403
Roma	-9404
agnu	-9405
ajib	-9406
ause	-9407
azak	-9408
disc	-9409
fino	-9410
full	-9411
hbaz	-9412
hero	-9413
hito	-9414
inan	-9415
lubu	-9416
made	-9417
mini	-9418
oper	-9419
rone	-9420
rose	-9421
íona	-9422
▁-71	-9423
▁1,5	-9424
▁148	-9425
▁155	-9426
▁171	-9427
▁233	-9428
▁438	-9429
▁505	-9430
▁678	-9431
▁814	-9432
▁ADO	-9433
▁AKA	-9434
▁AWD	-9435
▁Aso	-9436
▁Ayr	-9437
▁Bou	-9438
▁EMI	-9439
▁Hug	-9440
▁Lic	-9441
▁Mus	-9442
▁Now	-9443
▁Owl	-9444
▁Rup	-9445
▁SSD	-9446
▁Ski	-9447
▁SpA	-9448
▁Zan	-9449
▁men	-9450
-130.	-9451
Anton	-9452
Louis	-9453
abbrv	-9454
ación	-9455
afoni	-9456
agoas	-9457
azing	-9458
eeney	-9459
ersea	-9460
itial	-9461
kabau	-9462
lavey	-9463
logne	-9464
regum	-9465
style	-9466
▁1121	-9467
▁1411	-9468
▁1853	-9469
▁1873	-9470
▁1908	-9471
▁1947	-9472
▁23.0	-9473
▁2744	-9474
▁4/22	-9475
▁9064	-9476
▁9504	-9477
▁Bozo	-9478
▁Dhál	-9479
▁Dáil	-9480
▁Gött	-9481
▁Haag	-9482
▁Iran	-9483
▁Iron	-9484
▁KACY	-9485
▁Nood	-9486
▁Pesc	-9487
▁Sami	-9488
▁Sess	-9489
▁Vigo	-9490
▁Zest	-9491
Oregon	-9492
agamie	-9493
aisand	-9494
arance	-9495
former	-9496
pleted	-9497
uthale	-9498
▁170.0	-9499
▁1856,	-9500
▁1862,	-9501
▁1913,	-9502
▁1927,	-9503
▁1936.	-9504
▁1978.	-9505
▁1980.	-9506
▁1985.	-9507
▁1995,	-9508
▁2013,	-9509
▁29075	-9510
▁346.0	-9511
▁37.16	-9512
▁755.3	-9513
▁Asoci	-9514
▁Basim	-9515
▁Batak	-9516
▁Fruit	-9517
▁Glend	-9518
▁Josef	-9519
▁Klubu	-9520
▁Media	-9521
▁Minas	-9522
▁Najib	-9523
▁Negre	-9524
▁Pavlo	-9525
▁Pilot	-9526
▁Pérez	-9527
▁Qasim	-9528
▁Razak	-9529
▁Tabak	-9530
▁Vigor	-9531
▁claim	-9532
▁enjoy	-9533
▁facts	-9534
▁radio	-9535
▁rooms	-9536
▁spare	-9537
▁teams	-9538
Antonio	-9539
agnuolo	-9540
imeters	-9541
▁08/26.	-9542
▁2215.0	-9543
▁518.0.	-9544
▁772943	-9545
▁900.0.	-9546
▁AAIDBI	-9547
▁Arinan	-9548
▁Críona	-9549
▁Eregum	-9550
▁Honour	-9551
▁Lemper	-9552
▁Minang	-9553
▁Musuem	-9554
▁Navajo	-9555
▁Persea	-9556
▁Rocket	-9557
▁Sipilä	-9558
▁Slavey	-9559
▁figure	-9560
▁reside	-9561
▁rivers	-9562
▁siomay	-9563
▁1932-07	-9564
▁1974-08	-9565
▁1998-07	-9566
▁2215.0.	-9567
▁2702.0.	-9568
▁2776.0.	-9569
▁3990.0.	-9570
▁9064084	-9571
▁Akihito	-9572
▁Alagoas	-9573
▁Amazing	-9574
▁Ambrose	-9575
▁Astérix	-9576
▁Bryning	-9577
▁Created	-9578
▁Delfino	-9579
▁Granola	-9580
▁Limited	-9581
▁Pescara	-9582
▁Retired	-9583
▁Shehbaz	-9584
▁Sweeney	-9585
▁defunct	-9586
▁initial	-9587
▁joining	-9588
▁lettuce	-9589
▁ordered	-9590
▁persons	-9591
▁seconds	-9592
▁soloist	-9593
▁Éireann	-9594
▁3078.48.	-9595
▁488160.0	-9596
▁88002539	-9597
▁8805735.	-9598
▁Acoustic	-9599
▁Boulogne	-9600
▁Dhálaigh	-9601
▁Kentucky	-9602
▁Language	-9603
▁Rutaceae	-9604
▁Sessions	-9605
▁actually	-9606
▁coloured	-9607
▁occupied	-9608
▁1907-07-1	-9609
▁Commander	-9610
▁Condensed	-9611
▁Desteapta	-9612
▁Geraisand	-9613
▁Glendower	-9614
▁Guanciale	-9615
▁Göttingen	-9616
▁Nurturing	-9617
▁Outagamie	-9618
▁Paperback	-9619
▁Spagnuolo	-9620
▁Zestafoni	-9621
▁bodystyle	-9622
▁influence	-9623
▁measuring	-9624
▁occupying	-9625
▁operators	-9626
▁superhero	-9627
▁supermini	-9628
▁0269-9370.	-9629
▁1360-0443.	-9630
▁1732-2421.	-9631
▁1933-10-17	-9632
▁318875313.	-9633
▁69862200.0	-9634
▁Affiliated	-9635
▁Originally	-9636
▁appearance	-9637
▁helicopter	-9638
▁homeground	-9639
▁positioned	-9640
▁139705000.0	-9641
▁2006-12-31.	-9642
▁2006.12.31.	-9643
▁34920600000	-9644
▁69862200.0.	-9645
▁Minangkabau	-9646
▁"0-374-26131	-9647
▁Arinanespace	-9648
▁Pavloopoulos	-9649
▁paleontology	-9650
▁0-7156-3648-0	-9651
▁representatives	-9652
")	-9653
31	-9654
DL	-9655
co	-9656
kh	-9657
sw	-9658
▁z	-9659
.).	-9660
.94	-9661
100	-9662
17,	-9663
58.	-9664
ASK	-9665
Alc	-9666
All	-9667
Duc	-9668
Roy	-9669
ady	-9670
arō	-9671
azi	-9672
cre	-9673
edt	-9674
hle	-9675
iep	-9676
irt	-9677
ken	-9678
mil	-9679
omp	-9680
til	-9681
wal	-9682
zia	-9683
ère	-9684
▁46	-9685
▁59	-9686
▁67	-9687
▁NV	-9688
▁NY	-9689
▁gm	-9690
-02.	-9691
-03,	-9692
-878	-9693
5.42	-9694
8.89	-9695
Duch	-9696
Hamb	-9697
Sham	-9698
Univ	-9699
abor	-9700
aces	-9701
achk	-9702
adeh	-9703
anen	-9704
apod	-9705
augh	-9706
chez	-9707
club	-9708
crap	-9709
deen	-9710
hind	-9711
hinx	-9712
iche	-9713
ieti	-9714
inae	-9715
inzo	-9716
iyah	-9717
mert	-9718
rior	-9719
uced	-9720
uila	-9721
▁163	-9722
▁166	-9723
▁17'	-9724
▁184	-9725
▁248	-9726
▁368	-9727
▁500	-9728
▁Aid	-9729
▁Asō	-9730
▁BSc	-9731
▁CFC	-9732
▁Get	-9733
▁Hab	-9734
▁Jep	-9735
▁PAS	-9736
▁PDL	-9737
▁Sán	-9738
▁amb	-9739
▁ent	-9740
▁gem	-9741
▁mov	-9742
▁ter	-9743
-11-1	-9744
2539.	-9745
Asoci	-9746
Disco	-9747
Hambg	-9748
Royce	-9749
Semin	-9750
South	-9751
acion	-9752
avson	-9753
class	-9754
edict	-9755
enned	-9756
entiv	-9757
idney	-9758
ionov	-9759
islaw	-9760
jamin	-9761
kuhle	-9762
olksw	-9763
ompoc	-9764
ranch	-9765
stedt	-9766
walki	-9767
▁1,98	-9768
▁1/19	-9769
▁12.0	-9770
▁164'	-9771
▁1793	-9772
▁18.0	-9773
▁1914	-9774
▁1936	-9775
▁1961	-9776
▁1972	-9777
▁214,	-9778
▁24.4	-9779
▁34.0	-9780
▁4.56	-9781
▁682,	-9782
▁770,	-9783
▁817,	-9784
▁9312	-9785
▁ALVX	-9786
▁Aber	-9787
▁Brut	-9788
▁Dila	-9789
▁Ever	-9790
▁Gerd	-9791
▁Gori	-9792
▁Gust	-9793
▁Kate	-9794
▁Kend	-9795
▁Kill	-9796
▁LASK	-9797
▁Lame	-9798
▁Linz	-9799
▁Made	-9800
▁Makh	-9801
▁Mans	-9802
▁Palm	-9803
▁Rund	-9804
▁Sazi	-9805
▁Till	-9806
▁Wirt	-9807
▁corn	-9808
▁larg	-9809
▁show	-9810
▁unit	-9811
▁what	-9812
/23/19	-9813
12.200	-9814
65-878	-9815
Shamal	-9816
ainder	-9817
church	-9818
ectady	-9819
ellite	-9820
frican	-9821
ieplay	-9822
ilario	-9823
irinae	-9824
onesia	-9825
origin	-9826
parent	-9827
ritory	-9828
▁-71.0	-9829
▁1,533	-9830
▁13/31	-9831
▁1411.	-9832
▁19.94	-9833
▁1904,	-9834
▁1907,	-9835
▁1928,	-9836
▁1929.	-9837
▁1930,	-9838
▁1948.	-9839
▁1956,	-9840
▁1964.	-9841
▁1965.	-9842
▁1969,	-9843
▁1974,	-9844
▁1988,	-9845
▁2007.	-9846
▁3800.	-9847
▁973.0	-9848
▁9953.	-9849
▁AMAHE	-9850
▁Anzhi	-9851
▁Books	-9852
▁Cello	-9853
▁Colón	-9854
▁EISSN	-9855
▁Kapod	-9856
▁Merit	-9857
▁Schen	-9858
▁Valor	-9859
▁begun	-9860
▁contr	-9861
▁foods	-9862
▁gives	-9863
▁heads	-9864
▁lends	-9865
▁meter	-9866
▁noted	-9867
▁padeh	-9868
▁pound	-9869
▁scrap	-9870
▁takes	-9871
▁until	-9872
Duchere	-9873
Duchère	-9874
▁	-9875
e	-9876
a	-9877
i	-9878
n	-9879
t	-9880
s	-9881
o	-9882
r	-9883
h	-9884
l	-9885
d	-9886
c	-9887
u	-9888
m	-9889
.	-9890
f	-9891
A	-9892
p	-9893
b	-9894
g	-9895
y	-9896
w	-9897
,	-9898
S	-9899
0	-9900
k	-9901
T	-9902
C	-9903
v	-9904
1	-9905
M	-9906
B	-9907
I	-9908
2	-9909
9	-9910
P	-9911
U	-9912
D	-9913
R	-9914
3	-9915
H	-9916
F	-9917
L	-9918
N	-9919
6	-9920
G	-9921
W	-9922
5	-9923
4	-9924
8	-9925
J	-9926
E	-9927
7	-9928
z	-9929
-	-9930
K	-9931
x	-9932
V	-9933
O	-9934
'	-9935
j	-9936
q	-9937
(	-9938
)	-9939
"	-9940
Y	-9941
Z	-9942
/	-9943
Q	-9944
:	-9945
X	-9946
á	-9947
;	-9948
–	-9949
é	-9950
&	-9951
ü	-9952
ó	-9953
ã	-9954
ç	-9955
ä	-9956
č	-9957
í	-9958
ö	-9959
ò	-9960
ñ	-9961
ć	-9962
š	-9963
Í	-9964
İ	-9965
à	-9966
ø	-9967
ğ	-9968
ú	-9969
!	-9970
ß	-9971
â	-9972
’	-9973
Æ	-9974
ă	-9975
ō	-9976
ș	-9977
Ş	-9978
ı	-9979
#	-9980
>	-9981
É	-9982
è	-9983
`	-9984
×	-9985
ş	-9986
ə	-9987
_	-9988
~	-9989
ù	-9990
+	-9991
ł	-9992
<	-9993
|	-9994
?	-9995
]	-9996
