<unk>	0
<s>	0
</s>	0
er	-0
en	-1
in	-2
▁d	-3
is	-4
ch	-5
▁A	-6
an	-7
on	-8
ie	-9
▁S	-10
un	-11
ist	-12
at	-13
es	-14
ar	-15
▁ist	-16
▁D	-17
▁der	-18
▁in	-19
al	-20
und	-21
▁v	-22
▁w	-23
it	-24
de	-25
▁M	-26
▁B	-27
▁und	-28
▁s	-29
or	-30
ein	-31
as	-32
▁von	-33
am	-34
▁F	-35
au	-36
ur	-37
ge	-38
ich	-39
▁b	-40
▁die	-41
▁C	-42
▁E	-43
▁G	-44
▁1	-45
▁I	-46
▁ein	-47
et	-48
▁P	-49
isch	-50
▁L	-51
ir	-52
▁T	-53
il	-54
▁R	-55
ol	-56
▁H	-57
te	-58
and	-59
ion	-60
ien	-61
st	-62
hr	-63
▁N	-64
em	-65
ad	-66
▁be	-67
▁St	-68
▁au	-69
▁U	-70
▁h	-71
▁ge	-72
▁wur	-73
▁Die	-74
det	-75
▁J	-76
▁K	-77
▁wurde	-78
el	-79
ig	-80
▁V	-81
ic	-82
fin	-83
hn	-84
▁Sp	-85
▁In	-86
▁Al	-87
ent	-88
om	-89
▁sich	-90
im	-91
▁hat	-92
ra	-93
findet	-94
ers	-95
▁W	-96
ck	-97
▁Der	-98
▁den	-99
▁befindet	-100
um	-101
ter	-102
he	-103
▁19	-104
▁eine	-105
▁Te	-106
us	-107
af	-108
le	-109
ühr	-110
re	-111
ges	-112
ird	-113
▁wird	-114
ro	-115
▁aus	-116
ut	-117
▁2	-118
▁o	-119
iv	-120
ort	-121
ation	-122
lu	-123
ung	-124
ak	-125
▁f	-126
SA	-127
ische	-128
▁das	-129
mit	-130
ind	-131
ba	-132
id	-133
▁im	-134
ber	-135
lt	-136
ia	-137
lo	-138
pp	-139
▁Re	-140
ing	-141
▁of	-142
ür	-143
00	-144
gl	-145
▁wo	-146
ührer	-147
io	-148
adt	-149
ben	-150
▁des	-151
▁Un	-152
▁An	-153
▁sind	-154
ischen	-155
icht	-156
rie	-157
ik	-158
den	-159
chen	-160
ty	-161
▁Co	-162
mer	-163
lug	-164
ten	-165
▁Das	-166
pie	-167
▁Z	-168
ess	-169
ay	-170
▁Führer	-171
ational	-172
ce	-173
ed	-174
ier	-175
▁Ar	-176
▁al	-177
afen	-178
▁ver	-179
än	-180
▁t	-181
aten	-182
▁Ver	-183
▁dem	-184
▁ges	-185
▁USA	-186
mt	-187
lugh	-188
lughafen	-189
ew	-190
▁Gr	-191
▁mit	-192
▁Coun	-193
▁As	-194
▁Sch	-195
▁(	-196
ann	-197
▁Air	-198
▁als	-199
▁Ind	-200
eck	-201
▁Speck	-202
▁st	-203
der	-204
▁Ad	-205
▁k	-206
ivers	-207
pt	-208
▁am	-209
gr	-210
che	-211
ag	-212
iversit	-213
▁County	-214
aupt	-215
▁O	-216
▁Flughafen	-217
all	-218
▁war	-219
▁geb	-220
▁Haupt	-221
▁Universit	-222
▁Er	-223
▁Mar	-224
ell	-225
ahr	-226
▁3	-227
▁Reg	-228
ab	-229
tern	-230
bahn	-231
ei	-232
▁New	-233
ot	-234
oren	-235
port	-236
ian	-237
▁z	-238
▁Ch	-239
▁für	-240
▁an	-241
▁Verein	-242
ternational	-243
ac	-244
sch	-245
▁Land	-246
▁p	-247
est	-248
▁Me	-249
▁geboren	-250
ikan	-251
upp	-252
▁l	-253
▁Ein	-254
ard	-255
glie	-256
▁Jo	-257
▁Airport	-258
stadt	-259
tel	-260
▁En	-261
rieben	-262
ff	-263
eit	-264
art	-265
▁spie	-266
▁Ger	-267
▁Tex	-268
▁Pr	-269
gt	-270
▁et	-271
eter	-272
og	-273
▁stam	-274
▁Texas	-275
▁ethn	-276
▁Zut	-277
ap	-278
▁Stadt	-279
▁Region	-280
▁Grupp	-281
▁Mit	-282
▁the	-283
▁stammt	-284
▁Hauptstadt	-285
63	-286
▁Es	-287
▁bet	-288
ack	-289
ow	-290
ang	-291
▁Amer	-292
▁auch	-293
li	-294
▁Vereinig	-295
▁Gericht	-296
dr	-297
lin	-298
▁g	-299
pol	-300
av	-301
ün	-302
if	-303
▁Spra	-304
▁Vereinigten	-305
▁is	-306
▁Man	-307
ey	-308
ud	-309
▁ent	-310
▁Alan	-311
ran	-312
▁auf	-313
pro	-314
▁Teil	-315
▁Sta	-316
ert	-317
▁University	-318
▁sein	-319
prochen	-320
▁Bak	-321
▁gesprochen	-322
uf	-323
ade	-324
▁Bu	-325
▁Sprache	-326
amp	-327
unden	-328
▁International	-329
ens	-330
chn	-331
olog	-332
co	-333
▁Se	-334
▁"	-335
ust	-336
orn	-337
ande	-338
sen	-339
▁Engl	-340
bl	-341
ek	-342
land	-343
grün	-344
▁Bo	-345
▁kom	-346
▁er	-347
gründet	-348
ät	-349
ore	-350
ummer	-351
▁n	-352
ikaner	-353
▁Ab	-354
ipp	-355
los	-356
▁At	-357
so	-358
▁Mitglie	-359
▁Meter	-360
arb	-361
entl	-362
ones	-363
▁And	-364
ungs	-365
▁Techn	-366
änge	-367
ffentl	-368
▁gegründet	-369
itz	-370
öffentl	-371
▁Ro	-372
▁Wil	-373
br	-374
pollo	-375
▁Apollo	-376
ah	-377
chit	-378
ark	-379
mal	-380
▁zu	-381
▁Ak	-382
▁and	-383
ong	-384
ahrbahn	-385
sh	-386
▁Fahrbahn	-387
ip	-388
▁gef	-389
alien	-390
▁ü	-391
gel	-392
▁über	-393
ena	-394
▁11	-395
▁Technolog	-396
▁Amerikaner	-397
▁Le	-398
▁Bes	-399
ame	-400
▁Am	-401
▁Staaten	-402
adr	-403
▁Ge	-404
▁It	-405
ant	-406
▁Meer	-407
ton	-408
adem	-409
▁/	-410
hö	-411
▁De	-412
ilot	-413
ient	-414
-1	-415
▁gesch	-416
▁Indien	-417
▁Archit	-418
▁Rom	-419
▁Lo	-420
att	-421
ary	-422
aj	-423
ool	-424
▁Span	-425
▁Aar	-426
iss	-427
ute	-428
▁20	-429
hör	-430
▁John	-431
hus	-432
van	-433
esspie	-434
esspiegel	-435
▁Meeresspiegel	-436
▁Ho	-437
ais	-438
▁Fran	-439
ASA	-440
▁Aarhus	-441
▁NASA	-442
000	-443
▁spiel	-444
▁kommt	-445
▁veröffentl	-446
äs	-447
▁Y	-448
are	-449
▁Was	-450
▁lie	-451
▁Englisch	-452
▁ethnische	-453
reich	-454
▁liegt	-455
fen	-456
▁Aust	-457
▁Italien	-458
▁Indones	-459
stit	-460
▁Sc	-461
▁Jahr	-462
▁Instit	-463
▁Be	-464
▁So	-465
▁veröffentlicht	-466
▁Boden	-467
▁betrieben	-468
▁Br	-469
▁The	-470
aus	-471
ama	-472
tur	-473
▁Zutat	-474
iert	-475
ity	-476
634	-477
▁Gruppe	-478
▁'	-479
▁AC	-480
arya	-481
charya	-482
▁IS	-483
ze	-484
alt	-485
▁Acharya	-486
▁Gro	-487
ister	-488
ath	-489
▁Indonesien	-490
tellt	-491
liam	-492
▁William	-493
ire	-494
ver	-495
zz	-496
iot	-497
eg	-498
▁Mitglieder	-499
0.	-500
enk	-501
ident	-502
ork	-503
ach	-504
▁geschrieben	-505
▁di	-506
bur	-507
ürk	-508
bt	-509
eiß	-510
▁York	-511
estand	-512
atz	-513
▁FC	-514
ja	-515
man	-516
ler	-517
ersey	-518
ält	-519
▁Jersey	-520
▁5	-521
▁i	-522
enn	-523
annt	-524
äsident	-525
▁Universität	-526
pilot	-527
ippin	-528
hält	-529
▁Austin	-530
▁National	-531
wei	-532
▁Stat	-533
▁6	-534
ul	-535
▁spielt	-536
▁ihr	-537
enkmal	-538
▁einem	-539
▁ab	-540
▁Zutaten	-541
op	-542
fer	-543
hil	-544
▁es	-545
ka	-546
hen	-547
adrid	-548
ci	-549
arn	-550
▁1634	-551
shire	-552
▁Gruppen	-553
▁Madrid	-554
se	-555
vil	-556
alif	-557
▁Col	-558
emark	-559
aliforn	-560
änemark	-561
ll	-562
ited	-563
▁Men	-564
▁Stud	-565
cat	-566
tw	-567
länge	-568
▁Ac	-569
▁Institute	-570
yl	-571
arian	-572
▁Fahrbahnlänge	-573
qu	-574
gestellt	-575
ron	-576
▁Ser	-577
ae	-578
drin	-579
andebahn	-580
▁United	-581
▁193	-582
her	-583
schaf	-584
▁Name	-585
▁Frank	-586
▁Technology	-587
▁8	-588
▁verb	-589
▁Landebahn	-590
sp	-591
▁gefunden	-592
lich	-593
ierte	-594
▁Q	-595
▁1.	-596
▁Sie	-597
▁entw	-598
ays	-599
▁Spanien	-600
▁Dänemark	-601
▁0	-602
▁Mal	-603
14	-604
▁Eine	-605
▁City	-606
▁Mary	-607
▁Aldrin	-608
▁Präsident	-609
▁ethnischen	-610
▁She	-611
use	-612
▁4	-613
men	-614
▁Shep	-615
▁vom	-616
▁ak	-617
▁einer	-618
▁Besatz	-619
rew	-620
▁School	-621
▁wer	-622
▁Start	-623
ubl	-624
▁Ru	-625
▁Ell	-626
ington	-627
Denkmal	-628
▁States	-629
▁192	-630
▁bei	-631
▁gehör	-632
▁AF	-633
▁Anders	-634
hilippin	-635
zt	-636
▁Stand	-637
▁werden	-638
ita	-639
ri	-640
lub	-641
lack	-642
▁spielte	-643
fle	-644
▁Kaliforn	-645
fleisch	-646
dris	-647
▁Mendris	-648
▁Char	-649
▁Architek	-650
ok	-651
üd	-652
istan	-653
▁Kalifornien	-654
▁Shepard	-655
ta	-656
ön	-657
▁dient	-658
▁Mendrisio	-659
▁international	-660
finden	-661
ham	-662
agen	-663
up	-664
ager	-665
▁See	-666
▁12	-667
▁Com	-668
führer	-669
mitglie	-670
ungsmitglie	-671
schaft	-672
lä	-673
ica	-674
▁bek	-675
▁Buzz	-676
▁Manager	-677
▁enthält	-678
sten	-679
iat	-680
org	-681
▁verw	-682
Nummer	-683
▁Elliot	-684
▁196	-685
▁Akita	-686
ser	-687
▁11.	-688
os	-689
ris	-690
▁Gem	-691
▁Landes	-692
ue	-693
▁Nummer	-694
▁Gre	-695
▁verbunden	-696
ht	-697
▁18	-698
▁Gu	-699
ührt	-700
son	-701
▁bekannt	-702
▁Anführer	-703
ick	-704
▁Scien	-705
ungsmitglied	-706
ces	-707
hlt	-708
ene	-709
ße	-710
▁Wash	-711
lie	-712
▁Standort	-713
end	-714
▁191	-715
ingap	-716
▁Singap	-717
▁7	-718
aya	-719
ond	-720
▁Singapur	-721
▁Washington	-722
▁Ju	-723
ma	-724
essert	-725
▁Ruh	-726
▁Ruhestand	-727
uar	-728
▁lo	-729
▁10	-730
▁Bus	-731
▁Sol	-732
orfen	-733
▁1963	-734
ams	-735
igur	-736
7.	-737
ive	-738
▁Baku	-739
ou	-740
own	-741
▁Par	-742
▁Ban	-743
▁Math	-744
▁starb	-745
olf	-746
auce	-747
▁Test	-748
▁lang	-749
afr	-750
feren	-751
▁oder	-752
,0	-753
undes	-754
▁entworfen	-755
▁Ara	-756
▁Mon	-757
▁Vol	-758
gin	-759
uch	-760
önig	-761
▁Sum	-762
▁Club	-763
▁Dessert	-764
▁14	-765
▁Buch	-766
ican	-767
▁Sri	-768
▁Bean	-769
▁König	-770
alc	-771
▁198	-772
▁Groß	-773
▁Malays	-774
▁AI	-775
more	-776
ical	-777
▁Po	-778
brit	-779
ilom	-780
▁All	-781
obl	-782
▁He	-783
3.	-784
▁Bar	-785
annien	-786
▁Großbrit	-787
▁Testpilot	-788
▁Großbritannien	-789
urk	-790
▁1634:	-791
öl	-792
ara	-793
bas	-794
▁m	-795
andw	-796
▁akadem	-797
▁AFC	-798
50	-799
ico	-800
hio	-801
▁Inf	-802
iness	-803
▁Business	-804
uis	-805
▁US	-806
eland	-807
▁Penn	-808
▁Student	-809
syl	-810
▁Gl	-811
vania	-812
▁Pennsyl	-813
ampf	-814
▁Turk	-815
▁Philippin	-816
▁Pennsylvania	-817
▁Königreich	-818
teil	-819
andwich	-820
rit	-821
▁Pro	-822
ertig	-823
▁2014	-824
▁Malaysia	-825
▁Regional	-826
lant	-827
▁200	-828
▁Ram	-829
▁Hall	-830
iet	-831
BN	-832
▁Sport	-833
▁Lan	-834
sin	-835
▁Leben	-836
bb	-837
▁sie	-838
▁Adams	-839
▁fertig	-840
ibt	-841
ster	-842
▁Jav	-843
▁15	-844
weiz	-845
▁195	-846
tem	-847
iana	-848
▁Bat	-849
▁ISBN	-850
▁fertiggestellt	-851
rä	-852
ceae	-853
▁Her	-854
▁Banan	-855
▁Schweiz	-856
ger	-857
alore	-858
▁American	-859
▁Av	-860
▁finden	-861
pen	-862
▁Bang	-863
ding	-864
akistan	-865
kür	-866
▁Bangalore	-867
▁Philippinen	-868
alcio	-869
▁Miss	-870
▁Calcio	-871
▁gehört	-872
),	-873
▁sp	-874
aisa	-875
▁Vis	-876
▁Mich	-877
▁Black	-878
-2	-879
▁Road	-880
iga	-881
ähr	-882
▁Wis	-883
▁Grie	-884
let	-885
▁Süd	-886
eiter	-887
▁Heim	-888
ne	-889
▁Juli	-890
yet	-891
ales	-892
▁sch	-893
cial	-894
ichtig	-895
▁Acc	-896
emat	-897
ewell	-898
▁Mathemat	-899
alli	-900
▁Dan	-901
ademia	-902
ball	-903
leton	-904
ppleton	-905
▁Bakewell	-906
▁a	-907
organ	-908
▁Accademia	-909
jax	-910
▁as	-911
▁Appleton	-912
ign	-913
sel	-914
ves	-915
ella	-916
erba	-917
▁bed	-918
▁wichtig	-919
▁Con	-920
▁ser	-921
anter	-922
▁Studenten	-923
ium	-924
▁Ajax	-925
anterie	-926
▁Bundes	-927
-0	-928
ain	-929
▁Dav	-930
umber	-931
▁dort	-932
▁serv	-933
▁Länge	-934
▁Atlant	-935
▁Griechen	-936
ov	-937
▁Su	-938
▁Abe	-939
▁Add	-940
▁2000	-941
▁bedient	-942
burg	-943
aceae	-944
ts	-945
ys	-946
▁Ob	-947
▁Mississ	-948
SN	-949
ago	-950
asil	-951
ippi	-952
In	-953
ly	-954
aka	-955
▁Dr	-956
▁tr	-957
amen	-958
ville	-959
▁Architet	-960
▁Mississippi	-961
▁Architettur	-962
by	-963
▁Eur	-964
▁ging	-965
▁Mil	-966
▁seine	-967
az	-968
▁II	-969
altet	-970
▁Hamp	-971
▁Publ	-972
▁dessen	-973
▁Hampshire	-974
▁Architettura	-975
idsch	-976
▁Addis	-977
idschan	-978
be	-979
ift	-980
anco	-981
▁Et	-982
idge	-983
▁Abeba	-984
ariante	-985
erbaidschan	-986
".	-987
rift	-988
▁ausge	-989
▁Aserbaidschan	-990
rägt	-991
▁ISSN	-992
olfo	-993
umän	-994
▁bes	-995
▁Rind	-996
▁gele	-997
ionico	-998
udding	-999
▁Andrew	-1000
con	-1001
ira	-1002
▁Pl	-1003
▁Griechenland	-1004
aison	-1005
▁Akron	-1006
enschen	-1007
▁Adolfo	-1008
iva	-1009
ola	-1010
araya	-1011
enyet	-1012
ausge	-1013
unter	-1014
hm	-1015
to	-1016
oll	-1017
eine	-1018
▁Flin	-1019
consin	-1020
▁Rumän	-1021
▁Visves	-1022
▁Rumänien	-1023
▁Frankreich	-1024
cated	-1025
▁Camp	-1026
varaya	-1027
▁Comic	-1028
▁Flint	-1029
wä	-1030
iel	-1031
▁Eric	-1032
▁Mitglied	-1033
▁Wisconsin	-1034
▁Visvesvaraya	-1035
▁Town	-1036
▁Sauce	-1037
▁paisa	-1038
▁Variante	-1039
xp	-1040
xplos	-1041
xplosion	-1042
▁Währ	-1043
arnat	-1044
▁Roman	-1045
▁Serie	-1046
▁Karnat	-1047
▁Sh	-1048
ajas	-1049
hatt	-1050
▁Obama	-1051
▁Brasil	-1052
▁beträgt	-1053
▁serviert	-1054
).	-1055
ug	-1056
▁Li	-1057
ative	-1058
▁Stre	-1059
▁Ridge	-1060
▁ha	-1061
itet	-1062
itra	-1063
▁Barack	-1064
▁Public	-1065
▁Street	-1066
iz	-1067
▁Ay	-1068
rieb	-1069
▁Alp	-1070
andeja	-1071
▁Athen	-1072
▁Social	-1073
ern	-1074
aska	-1075
▁Pal	-1076
▁haben	-1077
▁Technological	-1078
od	-1079
bal	-1080
inz	-1081
way	-1082
apan	-1083
▁Sciences	-1084
eil	-1085
▁Saison	-1086
ish	-1087
▁Türk	-1088
▁Atlantic	-1089
▁Bet	-1090
eiten	-1091
figur	-1092
▁kann	-1093
▁Bionico	-1094
▁Währung	-1095
▁Menschen	-1096
bell	-1097
wählt	-1098
▁Sitz	-1099
▁Sportiva	-1100
Inf	-1101
esh	-1102
ord	-1103
▁Mex	-1104
ignit	-1105
bellion	-1106
ference	-1107
▁Townsh	-1108
-4	-1109
pool	-1110
twer	-1111
twerpen	-1112
▁Township	-1113
▁Antwerpen	-1114
min	-1115
▁Hong	-1116
inignit	-1117
▁Asilom	-1118
▁Regier	-1119
Infanterie	-1120
96	-1121
ude	-1122
ilene	-1123
▁Asad	-1124
▁Asilomar	-1125
▁Blackpool	-1126
▁wichtigsten	-1127
anz	-1128
arr	-1129
hak	-1130
twaf	-1131
▁Vers	-1132
uftwaf	-1133
▁Lanka	-1134
▁Alaska	-1135
▁geführt	-1136
▁spielen	-1137
uel	-1138
dern	-1139
▁250	-1140
allas	-1141
▁Dallas	-1142
▁Abilene	-1143
▁Andrews	-1144
▁Architekt	-1145
▁Karnataka	-1146
▁9	-1147
▁21	-1148
rise	-1149
▁Rebellion	-1150
ayer	-1151
▁Ayam	-1152
▁Java	-1153
▁dien	-1154
▁Krise	-1155
▁Türkei	-1156
ln	-1157
▁Mas	-1158
▁bayer	-1159
▁Derby	-1160
▁geleitet	-1161
▁Derbyshire	-1162
▁-	-1163
Bar	-1164
▁de	-1165
▁Etagen	-1166
▁internationale	-1167
atr	-1168
grem	-1169
ines	-1170
▁brit	-1171
▁heiß	-1172
▁Besitz	-1173
▁located	-1174
ob	-1175
gen	-1176
▁Aj	-1177
▁La	-1178
▁weiß	-1179
▁asiat	-1180
Barajas	-1181
Am	-1182
LC	-1183
olv	-1184
ont	-1185
raz	-1186
solv	-1187
▁Alpena	-1188
8.	-1189
ate	-1190
lugze	-1191
catraz	-1192
▁Louis	-1193
▁bayerische	-1194
▁Ag	-1195
gesch	-1196
▁unter	-1197
oblanco	-1198
▁Maryland	-1199
amm	-1200
zut	-1201
kong	-1202
▁zur	-1203
▁Rindfleisch	-1204
ona	-1205
uadr	-1206
▁Aut	-1207
▁Libr	-1208
uadrat	-1209
▁Versus	-1210
▁Hongkong	-1211
▁Big	-1212
▁Hauptzut	-1213
hl	-1214
▁diente	-1215
flä	-1216
▁ar	-1217
onal	-1218
▁Pol	-1219
▁Hard	-1220
oy	-1221
üs	-1222
ment	-1223
▁Kway	-1224
▁Teow	-1225
▁Alcatraz	-1226
▁c	-1227
ast	-1228
▁Hu	-1229
▁le	-1230
hann	-1231
▁Agra	-1232
CLC	-1233
ott	-1234
ondon	-1235
▁Tran	-1236
▁absolv	-1237
▁Pakistan	-1238
▁Hauptzutaten	-1239
mp	-1240
uß	-1241
acon	-1242
choy	-1243
▁ind	-1244
▁Ohio	-1245
isation	-1246
▁London	-1247
▁Meister	-1248
▁Vir	-1249
ietro	-1250
▁führ	-1251
▁Lebens	-1252
▁Pietro	-1253
gab	-1254
▁3.	-1255
▁Long	-1256
▁her	-1257
mittel	-1258
▁Lebensmittel	-1259
ai	-1260
pr	-1261
edas	-1262
▁600	-1263
▁Evil	-1264
Sandwich	-1265
▁absolvierte	-1266
▁akademische	-1267
DS	-1268
orth	-1269
istor	-1270
▁Asso	-1271
▁Bacon	-1272
▁verwen	-1273
▁Librarian	-1274
ics	-1275
acht	-1276
mann	-1277
▁OCLC	-1278
▁Startbahn	-1279
aw	-1280
ige	-1281
tor	-1282
▁Bir	-1283
▁gibt	-1284
▁Staat	-1285
▁belie	-1286
▁Flughafens	-1287
uss	-1288
uchen	-1289
▁1932	-1290
ins	-1291
ition	-1292
▁Mars	-1293
39	-1294
80	-1295
sterd	-1296
ingham	-1297
arbeiter	-1298
▁Conference	-1299
haj	-1300
lung	-1301
▁Europ	-1302
▁Librarians	-1303
▁Mitarbeiter	-1304
ußball	-1305
▁pedas	-1306
▁Gemein	-1307
▁e	-1308
ane	-1309
▁Ir	-1310
auch	-1311
▁Min	-1312
erikan	-1313
▁Trans	-1314
▁Pudding	-1315
▁britischen	-1316
ji	-1317
▁Du	-1318
▁Press	-1319
▁Heimat	-1320
hal	-1321
▁Bel	-1322
▁For	-1323
ering	-1324
▁Liga	-1325
▁einen	-1326
,0.	-1327
igan	-1328
▁Ash	-1329
▁Mie	-1330
▁Chic	-1331
▁Volk	-1332
▁Hotel	-1333
▁England	-1334
gest	-1335
ginia	-1336
▁Belg	-1337
ischer	-1338
▁Bella	-1339
▁Virginia	-1340
me	-1341
oc	-1342
wo	-1343
back	-1344
egre	-1345
▁Ang	-1346
fläche	-1347
▁Mexik	-1348
▁Chicago	-1349
flughafen	-1350
grö	-1351
▁100	-1352
▁Huhn	-1353
eitsch	-1354
▁Kampf	-1355
▁North	-1356
▁Mieter	-1357
▁Batchoy	-1358
▁Quadrat	-1359
▁beliebt	-1360
eitschrift	-1361
ule	-1362
üse	-1363
▁wh	-1364
▁Ahm	-1365
▁Arap	-1366
▁Mexiko	-1367
är	-1368
etzt	-1369
▁Row	-1370
afrikan	-1371
mingham	-1372
▁Amsterd	-1373
▁Poaceae	-1374
▁Ajoblanco	-1375
qbal	-1376
▁vor	-1377
raten	-1378
▁Angola	-1379
▁Gemüse	-1380
▁Seiten	-1381
▁Birmingham	-1382
30	-1383
▁@	-1384
hed	-1385
band	-1386
▁Geb	-1387
▁Hal	-1388
▁Whe	-1389
auber	-1390
▁Wasp	-1391
lossen	-1392
▁Force	-1393
▁Iqbal	-1394
▁Allama	-1395
geschlossen	-1396
war	-1397
yal	-1398
eler	-1399
▁Del	-1400
acter	-1401
gabat	-1402
cation	-1403
▁Colmore	-1404
▁Wheeler	-1405
15	-1406
gang	-1407
name	-1408
▁Bro	-1409
▁Prov	-1410
ala	-1411
reg	-1412
aman	-1413
▁190	-1414
▁AIDS	-1415
▁Atat	-1416
▁Luftwaf	-1417
▁afrikan	-1418
age	-1419
▁Aven	-1420
▁Aldern	-1421
fl	-1422
go	-1423
ky	-1424
▁Loyal	-1425
▁Avenue	-1426
▁Alderney	-1427
ft	-1428
cer	-1429
zeich	-1430
▁Summit	-1431
▁Bananaman	-1432
▁verwaltet	-1433
▁verwendet	-1434
ilm	-1435
off	-1436
ense	-1437
urch	-1438
estandteil	-1439
▁Kampfpilot	-1440
cem	-1441
tyr	-1442
iraqu	-1443
▁Glen	-1444
▁Dancer	-1445
▁Betrieb	-1446
▁Arapiraqu	-1447
▁Character	-1448
▁internationalen	-1449
70	-1450
▁Or	-1451
▁Fre	-1452
organisation	-1453
▁Arapiraquense	-1454
ke	-1455
vy	-1456
col	-1457
per	-1458
▁Lar	-1459
▁ers	-1460
▁Levy	-1461
gremia	-1462
▁Asser	-1463
▁Delaw	-1464
auberer	-1465
▁Atatürk	-1466
▁Betriebs	-1467
▁Zauberer	-1468
ry	-1469
umb	-1470
▁Ras	-1471
cover	-1472
▁Delaware	-1473
▁Hardcover	-1474
▁Comicfigur	-1475
76	-1476
aat	-1477
vor	-1478
▁gew	-1479
▁Bhaj	-1480
▁Roma	-1481
▁ausgewählt	-1482
Ar	-1483
St	-1484
ana	-1485
▁it	-1486
lege	-1487
▁Dis	-1488
▁Mad	-1489
behör	-1490
zeichn	-1491
▁Namen	-1492
▁ihren	-1493
▁which	-1494
▁Penyet	-1495
▁College	-1496
▁Johnson	-1497
▁Provinz	-1498
▁Amsterdam	-1499
▁Af	-1500
chef	-1501
useum	-1502
▁Grey	-1503
iciana	-1504
isches	-1505
▁Martyr	-1506
▁gebraten	-1507
och	-1508
▁Med	-1509
▁Adare	-1510
▁Japan	-1511
behörde	-1512
CC	-1513
onica	-1514
staat	-1515
▁führend	-1516
kürzt	-1517
▁Miller	-1518
atriciana	-1519
spr	-1520
▁Ice	-1521
▁Nov	-1522
▁heißt	-1523
gekürzt	-1524
▁Binignit	-1525
▁Explosion	-1526
CCN	-1527
ban	-1528
lev	-1529
▁Im	-1530
größ	-1531
iven	-1532
stät	-1533
▁Clev	-1534
▁Schl	-1535
▁größ	-1536
▁trad	-1537
stätte	-1538
▁Cleveland	-1539
▁tradition	-1540
ahl	-1541
▁Kat	-1542
▁LCCN	-1543
▁Pena	-1544
▁Südafr	-1545
urn	-1546
▁Ef	-1547
▁Ur	-1548
kins	-1549
▁Lum	-1550
▁wie	-1551
einou	-1552
üssel	-1553
▁Bakso	-1554
einoupol	-1555
fe	-1556
-15	-1557
rez	-1558
base	-1559
árez	-1560
▁Efx	-1561
▁mal	-1562
Pilot	-1563
hagen	-1564
▁Suárez	-1565
▁Efxeinoupol	-1566
▁r	-1567
▁on	-1568
bbio	-1569
▁Met	-1570
▁San	-1571
▁nam	-1572
▁Metern	-1573
▁größte	-1574
37	-1575
SAM	-1576
ari	-1577
▁Is	-1578
▁en	-1579
ital	-1580
iplin	-1581
urnal	-1582
▁ASAM	-1583
▁Chie	-1584
▁Plac	-1585
▁Green	-1586
▁Rober	-1587
▁Gubbio	-1588
▁Museum	-1589
▁wurden	-1590
ao	-1591
vo	-1592
uts	-1593
alle	-1594
▁23.	-1595
▁Corn	-1596
▁Reis	-1597
▁ange	-1598
ziplin	-1599
Zeitschrift	-1600
ete	-1601
uten	-1602
▁Ard	-1603
▁Ardmore	-1604
euse	-1605
ider	-1606
▁Ben	-1607
▁Dim	-1608
utter	-1609
▁Verona	-1610
euseeland	-1611
▁Amatriciana	-1612
ale	-1613
para	-1614
riot	-1615
uner	-1616
▁Fest	-1617
▁Park	-1618
▁namens	-1619
▁seinen	-1620
▁Agremia	-1621
▁Marriot	-1622
▁Bundesstaat	-1623
ost	-1624
änd	-1625
▁103	-1626
▁14.	-1627
▁AIP	-1628
aeont	-1629
▁Acta	-1630
▁Chievo	-1631
▁Irland	-1632
▁Airbase	-1633
▁Festung	-1634
▁Palaeont	-1635
▁angeschlossen	-1636
vered	-1637
▁1962	-1638
▁Severed	-1639
▁Turkish	-1640
ão	-1641
ial	-1642
▁56	-1643
ember	-1644
▁Disziplin	-1645
isham	-1646
ystem	-1647
IT	-1648
zm	-1649
ika	-1650
ois	-1651
▁23	-1652
bury	-1653
ulia	-1654
▁gen	-1655
▁Gran	-1656
▁Marriott	-1657
ill	-1658
uft	-1659
brie	-1660
iden	-1661
ylde	-1662
▁Rad	-1663
▁Sky	-1664
▁1918	-1665
▁engl	-1666
▁Decem	-1667
▁Medal	-1668
▁System	-1669
▁Fußball	-1670
▁Ashgabat	-1671
▁Michigan	-1672
▁Spanisch	-1673
▁Decembrie	-1674
elle	-1675
zmir	-1676
▁300	-1677
▁Dia	-1678
▁Führ	-1679
▁Sard	-1680
▁Campus	-1681
rü	-1682
igh	-1683
ilie	-1684
▁Way	-1685
terly	-1686
▁Quar	-1687
▁Martyrs	-1688
▁Quarterly	-1689
11	-1690
▁27	-1691
▁Art	-1692
▁Marm	-1693
gangen	-1694
▁Monum	-1695
▁Greenville	-1696
92	-1697
▁j	-1698
009	-1699
ure	-1700
▁to	-1701
unds	-1702
Arena	-1703
▁Main	-1704
▁Fylde	-1705
▁Bhajji	-1706
▁Monument	-1707
Mar	-1708
arg	-1709
ros	-1710
▁ro	-1711
hnan	-1712
orno	-1713
zung	-1714
▁Ass	-1715
hatta	-1716
▁Hess	-1717
ivorno	-1718
▁Infant	-1719
arghatta	-1720
▁Hessarghatta	-1721
▁Efxeinoupolis	-1722
öst	-1723
teht	-1724
▁Bay	-1725
vanah	-1726
▁1923	-1727
▁56009	-1728
▁Spitz	-1729
rishnan	-1730
östlich	-1731
▁Radhak	-1732
vanahalli	-1733
36	-1734
kto	-1735
ault	-1736
▁fol	-1737
aston	-1738
emier	-1739
olumb	-1740
▁Okto	-1741
▁Sand	-1742
▁Solde	-1743
ciation	-1744
▁Johann	-1745
▁Adisham	-1746
▁Dimitra	-1747
▁Glaston	-1748
▁Oktober	-1749
▁Regierungs	-1750
▁Radhakrishnan	-1751
▁Soldevanahalli	-1752
adu	-1753
▁Kn	-1754
fiel	-1755
itel	-1756
wohn	-1757
▁Jan	-1758
▁Tom	-1759
field	-1760
▁1927	-1761
▁Autor	-1762
▁Dales	-1763
▁Grant	-1764
▁Assault	-1765
▁Premier	-1766
▁hergestellt	-1767
46	-1768
▁&	-1769
ölk	-1770
▁Fo	-1771
▁bl	-1772
▁Barn	-1773
▁Indiana	-1774
acy	-1775
ake	-1776
▁Az	-1777
emor	-1778
▁1910	-1779
emorial	-1780
▁Grounds	-1781
▁Livorno	-1782
▁Glastonbury	-1783
▁Regierungschef	-1784
▁Ol	-1785
▁1996	-1786
▁Register	-1787
BC	-1788
cia	-1789
▁Il	-1790
▁VI	-1791
ufen	-1792
zeit	-1793
▁Gebä	-1794
linois	-1795
▁Europä	-1796
ampfalli	-1797
▁Illinois	-1798
gte	-1799
egor	-1800
völk	-1801
▁Bol	-1802
▁Ira	-1803
▁Ker	-1804
▁LaS	-1805
offel	-1806
▁Carr	-1807
▁Stad	-1808
▁dies	-1809
▁Manor	-1810
artoffel	-1811
bh	-1812
ezz	-1813
uppe	-1814
vers	-1815
▁Irak	-1816
▁Barny	-1817
▁deren	-1818
▁Lumezz	-1819
dn	-1820
tt	-1821
dav	-1822
ice	-1823
▁17	-1824
▁Har	-1825
▁Back	-1826
▁Kuchen	-1827
▁Romance	-1828
▁Science	-1829
▁Lumezzane	-1830
ex	-1831
tr	-1832
das	-1833
ufa	-1834
▁by	-1835
▁Bor	-1836
attle	-1837
davad	-1838
esten	-1839
sburg	-1840
▁Arem	-1841
▁Gufa	-1842
▁Sein	-1843
neider	-1844
▁Hauptb	-1845
▁Amdavad	-1846
▁LaSalle	-1847
▁derzeit	-1848
WH	-1849
gine	-1850
▁AWH	-1851
▁Ste	-1852
▁Advan	-1853
▁betre	-1854
verband	-1855
▁Engine	-1856
▁Geback	-1857
▁Parker	-1858
▁Bandeja	-1859
▁Studium	-1860
▁Schneider	-1861
▁Engineering	-1862
1-	-1863
str	-1864
▁NW	-1865
teer	-1866
▁ins	-1867
ianer	-1868
▁Afon	-1869
▁Serv	-1870
▁aber	-1871
unteer	-1872
lugzeug	-1873
▁genannt	-1874
▁Volunteer	-1875
AI	-1876
TA	-1877
ção	-1878
▁ni	-1879
ekan	-1880
▁Kop	-1881
rahlt	-1882
▁jetzt	-1883
▁Kerala	-1884
▁Advances	-1885
ail	-1886
int	-1887
uth	-1888
▁Ant	-1889
▁BBC	-1890
▁Fen	-1891
▁NWC	-1892
▁DeMar	-1893
▁ausgest	-1894
▁asiatische	-1895
▁Sardampfalli	-1896
▁ausgestrahlt	-1897
LT	-1898
00.	-1899
ina	-1900
ämp	-1901
▁16	-1902
▁Dist	-1903
▁Rath	-1904
derick	-1905
▁Battle	-1906
▁DeMarce	-1907
▁Rathaus	-1908
▁Frederick	-1909
▁DC	-1910
▁Mc	-1911
loss	-1912
uart	-1913
▁Mat	-1914
▁Antio	-1915
▁Dekan	-1916
▁Service	-1917
▁Turkmen	-1918
▁amerikan	-1919
▁traditionell	-1920
78	-1921
eth	-1922
läm	-1923
heim	-1924
ione	-1925
▁BLT	-1926
rechen	-1927
▁David	-1928
▁Infantry	-1929
▁Architekten	-1930
aut	-1931
max	-1932
▁um	-1933
agor	-1934
blin	-1935
ucht	-1936
ungen	-1937
▁Baymax	-1938
▁Dublin	-1939
▁Cornell	-1940
ianischen	-1941
▁sprechen	-1942
can	-1943
azet	-1944
▁Gras	-1945
▁Gazet	-1946
ve	-1947
enir	-1948
adesh	-1949
osten	-1950
ürger	-1951
▁Alba	-1952
▁Grasso	-1953
▁Stuart	-1954
▁Pradesh	-1955
dd	-1956
ebr	-1957
red	-1958
▁Hö	-1959
ttar	-1960
▁Und	-1961
▁sow	-1962
▁Arab	-1963
▁Soße	-1964
Ammann	-1965
▁Aenir	-1966
▁Uttar	-1967
met	-1968
▁Kl	-1969
alls	-1970
ivil	-1971
▁Guj	-1972
gonal	-1973
▁Azal	-1974
▁Lake	-1975
▁Negre	-1976
▁Belgien	-1977
▁Journal	-1978
▁Diagonal	-1979
▁32	-1980
acob	-1981
ando	-1982
hiop	-1983
▁Ces	-1984
▁Tin	-1985
idmet	-1986
istoric	-1987
▁Backup	-1988
hältlich	-1989
▁Gebäude	-1990
▁Fahrbahnname	-1991
üß	-1992
iata	-1993
rabb	-1994
orden	-1995
▁Knobl	-1996
▁Madin	-1997
▁Charlie	-1998
▁Knoblauch	-1999
▁erhältlich	-2000
▁gesprochene	-2001
za	-2002
ner	-2003
orm	-2004
▁Pfl	-2005
▁has	-2006
affen	-2007
meter	-2008
rabbiata	-2009
öffentlich	-2010
arat	-2011
▁15.	-2012
▁Pau	-2013
▁türk	-2014
▁Seine	-2015
▁Januar	-2016
▁number	-2017
▁seiner	-2018
9.	-2019
ohl	-2020
rem	-2021
▁Schw	-2022
▁Robert	-2023
▁findet	-2024
▁Historic	-2025
▁Sprachen	-2026
▁traditionelles	-2027
73	-2028
ato	-2029
liz	-2030
▁ch	-2031
arez	-2032
ciaz	-2033
esam	-2034
iger	-2035
▁ger	-2036
▁zum	-2037
lizab	-2038
▁1928	-2039
▁voll	-2040
völker	-2041
▁Elizab	-2042
▁Places	-2043
▁Staats	-2044
▁Suarez	-2045
ciazione	-2046
▁Gujarat	-2047
▁bandeja	-2048
▁Grantville	-2049
▁Association	-2050
jab	-2051
les	-2052
ight	-2053
▁27.	-2054
unjab	-2055
ivenöl	-2056
▁Afonso	-2057
▁gehören	-2058
▁Indianer	-2059
▁Olivenöl	-2060
▁Elizabeth	-2061
.,	-2062
alus	-2063
orge	-2064
▁Get	-2065
▁Hero	-2066
▁Pers	-2067
▁Veil	-2068
amilie	-2069
ferenz	-2070
▁Titel	-2071
ammlung	-2072
▁Punjab	-2073
▁Schlacht	-2074
▁Europäischen	-2075
sgr	-2076
▁süd	-2077
gesell	-2078
▁Batagor	-2079
▁Volksgr	-2080
▁Agremiação	-2081
▁Mathematics	-2082
▁afrikanische	-2083
ans	-2084
cil	-2085
hie	-2086
igt	-2087
▁Ed	-2088
walt	-2089
▁Gra	-2090
▁get	-2091
▁Febr	-2092
▁Nord	-2093
▁Rich	-2094
▁Ahmet	-2095
▁Davut	-2096
▁Getty	-2097
▁Chines	-2098
▁Council	-2099
▁betreibt	-2100
iti	-2101
chte	-2102
▁Lah	-2103
rache	-2104
zeichnet	-2105
ausgegangen	-2106
▁Gettysburg	-2107
48	-2108
öt	-2109
kma	-2110
▁35	-2111
▁36	-2112
emin	-2113
▁Joe	-2114
akter	-2115
chsch	-2116
coben	-2117
hielt	-2118
▁1955	-2119
▁1957	-2120
▁fläm	-2121
spital	-2122
▁Biden	-2123
▁Figur	-2124
▁Lahore	-2125
▁Alcoben	-2126
▁Hochsch	-2127
ix	-2128
-20	-2129
eir	-2130
eon	-2131
geb	-2132
old	-2133
ony	-2134
uck	-2135
uge	-2136
eiro	-2137
isco	-2138
▁Zit	-2139
ektur	-2140
eonato	-2141
▁House	-2142
▁östlich	-2143
▁Sandwich	-2144
▁Brasilien	-2145
▁Brasileiro	-2146
▁Campeonato	-2147
▁Volksgruppe	-2148
,8	-2149
2-	-2150
65	-2151
Ät	-2152
▁Des	-2153
▁1969	-2154
▁Mass	-2155
▁ihre	-2156
Äthiop	-2157
▁Urspr	-2158
▁Cesena	-2159
▁besuch	-2160
Äthiopien	-2161
▁November	-2162
RE	-2163
fü	-2164
äf	-2165
NAI	-2166
ett	-2167
ino	-2168
▁AE	-2169
▁Bot	-2170
▁Mär	-2171
▁gro	-2172
NAIRE	-2173
hattan	-2174
▁Alkma	-2175
▁Cumber	-2176
▁ENAIRE	-2177
▁langer	-2178
▁besuchte	-2179
▁Äthiopien	-2180
versammlung	-2181
▁Alcobendas	-2182
▁Cumberland	-2183
öp	-2184
hit	-2185
elip	-2186
enes	-2187
here	-2188
üche	-2189
▁Vin	-2190
▁Präf	-2191
wohner	-2192
alusien	-2193
▁Schule	-2194
ilometer	-2195
▁erhielt	-2196
▁gerufen	-2197
▁Präfektur	-2198
▁Andalusien	-2199
▁Turkmenistan	-2200
alon	-2201
ungar	-2202
öpfer	-2203
▁Harb	-2204
▁Michel	-2205
▁Gemeinde	-2206
▁Schöpfer	-2207
▁Königreichs	-2208
Ab	-2209
ald	-2210
▁os	-2211
eyin	-2212
ilmi	-2213
▁ACM	-2214
▁Lock	-2215
church	-2216
inguis	-2217
▁Hilmi	-2218
▁Küche	-2219
▁Harbor	-2220
▁Minuten	-2221
inguished	-2222
▁Fenchurch	-2223
▁abgekürzt	-2224
▁gebratenes	-2225
ho	-2226
odi	-2227
▁30	-2228
▁34	-2229
ague	-2230
cher	-2231
▁Mande	-2232
▁beide	-2233
kilometer	-2234
▁Schweine	-2235
▁Manhattan	-2236
gesellschaft	-2237
▁Distinguished	-2238
▁Schweinefleisch	-2239
84	-2240
▁Lu	-2241
ange	-2242
cent	-2243
heed	-2244
soße	-2245
▁18.	-2246
ublik	-2247
▁1930	-2248
▁Print	-2249
▁Semin	-2250
▁osman	-2251
▁Hungar	-2252
▁Zitron	-2253
▁Familie	-2254
▁Vincent	-2255
▁Lockheed	-2256
▁Williams	-2257
▁osmanischen	-2258
53	-2259
aum	-2260
iom	-2261
alla	-2262
sitz	-2263
elipe	-2264
gradu	-2265
iomay	-2266
▁1933	-2267
▁März	-2268
▁stud	-2269
▁Kalla	-2270
▁einge	-2271
enhagen	-2272
▁League	-2273
▁befinden	-2274
▁Battlefield	-2275
har	-2276
▁UT	-2277
ahrt	-2278
denk	-2279
▁Mag	-2280
fahrt	-2281
▁High	-2282
▁Ober	-2283
▁India	-2284
▁Sumat	-2285
▁Zivil	-2286
alonien	-2287
▁Felipe	-2288
▁Antioqu	-2289
▁Hospital	-2290
▁Hochschul	-2291
▁Katalonien	-2292
▁Kopenhagen	-2293
án	-2294
▁Bä	-2295
luft	-2296
usuf	-2297
ühen	-2298
▁AEK	-2299
▁pro	-2300
▁Nude	-2301
▁Jusuf	-2302
▁Mario	-2303
▁folgte	-2304
▁kolumb	-2305
▁malays	-2306
▁2014-15	-2307
▁Februar	-2308
luftfahrt	-2309
▁öffentlich	-2310
▁Zivilluftfahrt	-2311
",	-2312
18	-2313
98	-2314
uk	-2315
zö	-2316
amb	-2317
zös	-2318
▁0-	-2319
ions	-2320
▁700	-2321
▁Bur	-2322
▁Wur	-2323
▁Lars	-2324
ippinc	-2325
▁Admin	-2326
▁Botta	-2327
▁Bäder	-2328
kürzung	-2329
▁Lippinc	-2330
▁Quadratmeter	-2331
bai	-2332
pur	-2333
▁28	-2334
arem	-2335
esse	-2336
istr	-2337
ocacy	-2338
▁Arme	-2339
ondack	-2340
▁blühen	-2341
▁Sumatra	-2342
▁Wilkins	-2343
▁Monocacy	-2344
▁gewidmet	-2345
denkstätte	-2346
▁Antioquia	-2347
▁englische	-2348
▁Lippincott	-2349
▁vorausgegangen	-2350
lam	-2351
mus	-2352
▁Aw	-2353
alen	-2354
oger	-2355
▁Dun	-2356
▁Mum	-2357
▁Rey	-2358
▁for	-2359
▁Adir	-2360
▁Armee	-2361
▁Scott	-2362
▁Mumbai	-2363
▁Rasmus	-2364
▁Richard	-2365
▁Institut	-2366
▁Ursprung	-2367
▁Kartoffel	-2368
▁Regierung	-2369
▁türkische	-2370
▁Adirondack	-2371
▁Gemeinschaft	-2372
10	-2373
74	-2374
kke	-2375
rom	-2376
bast	-2377
usam	-2378
▁Rep	-2379
▁los	-2380
attar	-2381
▁Serg	-2382
▁Soho	-2383
▁Sold	-2384
▁Halim	-2385
▁Reyes	-2386
▁Wurst	-2387
▁waren	-2388
usammen	-2389
▁Mattar	-2390
▁Sebast	-2391
▁Herausge	-2392
▁pakistan	-2393
▁Luftwaffe	-2394
▁Rasmussen	-2395
▁philippin	-2396
▁Italienisch	-2397
ko	-2398
fas	-2399
nen	-2400
wer	-2401
üße	-2402
agle	-2403
ific	-2404
olle	-2405
umai	-2406
▁III	-2407
▁akt	-2408
weiht	-2409
▁Alex	-2410
anzler	-2411
geboren	-2412
▁Morgan	-2413
▁Sergio	-2414
▁Mattarella	-2415
2.	-2416
▁Pu	-2417
auer	-2418
rieg	-2419
▁Ist	-2420
▁Jar	-2421
▁Leg	-2422
▁beg	-2423
acuel	-2424
hakur	-2425
▁ACTA	-2426
▁Sach	-2427
▁Baked	-2428
▁Peter	-2429
teilung	-2430
▁Jarama	-2431
acuellos	-2432
ariation	-2433
▁Alkmaar	-2434
▁besteht	-2435
▁italien	-2436
▁Neuseeland	-2437
▁Paracuellos	-2438
yr	-2439
bar	-2440
-130	-2441
▁737	-2442
▁Aur	-2443
▁Nav	-2444
▁reg	-2445
ständ	-2446
▁Paul	-2447
▁Julia	-2448
▁eines	-2449
▁Siomay	-2450
▁Thakur	-2451
▁Polonica	-2452
▁Republik	-2453
▁Luftwaffen	-2454
▁eingeweiht	-2455
▁Associazione	-2456
AO	-2457
gg	-2458
CAO	-2459
ado	-2460
hol	-2461
▁Egg	-2462
▁Mah	-2463
▁Tir	-2464
▁van	-2465
▁Foot	-2466
▁trat	-2467
▁Bengo	-2468
▁angef	-2469
ologica	-2470
▁Tirstr	-2471
▁diesem	-2472
▁Zitrone	-2473
▁Bevölker	-2474
▁Football	-2475
▁Personal	-2476
▁Abkürzung	-2477
▁Südafrika	-2478
▁Palaeontologica	-2479
imo	-2480
colo	-2481
idro	-2482
▁17.	-2483
▁Pan	-2484
▁Wid	-2485
▁gek	-2486
anzen	-2487
▁1983	-2488
▁ICAO	-2489
▁Magde	-2490
▁Borman	-2491
▁Isidro	-2492
▁Mutter	-2493
▁Tirstrup	-2494
▁Variation	-2495
▁Herausgeber	-2496
▁ausgezeichnet	-2497
odo	-2498
ater	-2499
dene	-2500
▁Car	-2501
▁Eis	-2502
▁are	-2503
▁man	-2504
ocado	-2505
▁1966	-2506
▁Joko	-2507
▁Navy	-2508
▁Widodo	-2509
▁penyet	-2510
▁560090.	-2511
Explosion	-2512
▁Magdeburg	-2513
▁Transport	-2514
▁vollständ	-2515
▁Arrabbiata	-2516
▁geschaffen	-2517
-439	-2518
Crew	-2519
aput	-2520
▁Ran	-2521
▁Tenn	-2522
▁2014.	-2523
▁Haput	-2524
▁histor	-2525
▁Avocado	-2526
▁Pflanzen	-2527
▁zusammen	-2528
▁Gedenkstätte	-2529
arf	-2530
▁Ma	-2531
▁at	-2532
bhuk	-2533
elen	-2534
okos	-2535
▁Nar	-2536
▁Sar	-2537
▁vie	-2538
inghe	-2539
▁Jens	-2540
▁Wick	-2541
▁Wolf	-2542
bhukum	-2543
▁Kokos	-2544
▁Ranil	-2545
▁Granit	-2546
rabhukum	-2547
▁Wickrem	-2548
graduierte	-2549
üt	-2550
utt	-2551
esch	-2552
kara	-2553
outh	-2554
owys	-2555
▁Sep	-2556
endra	-2557
▁AFIT	-2558
▁Modi	-2559
▁Powys	-2560
esinghe	-2561
▁Ankara	-2562
▁Inform	-2563
▁Stadio	-2564
▁entwarf	-2565
▁Narendra	-2566
▁komische	-2567
rabhukumar	-2568
▁Wickremesinghe	-2569
ock	-2570
▁sé	-2571
-12-	-2572
ötet	-2573
▁20.	-2574
▁Cow	-2575
▁Brot	-2576
▁Chil	-2577
▁Kutt	-2578
▁tart	-2579
tember	-2580
▁série	-2581
▁Ampara	-2582
▁getötet	-2583
▁September	-2584
▁Prabhukumar	-2585
ca	-2586
-41	-2587
oor	-2588
tei	-2589
vas	-2590
▁25	-2591
tyle	-2592
▁Ber	-2593
▁Can	-2594
▁Pin	-2595
-4165	-2596
ellen	-2597
fasst	-2598
▁Bohn	-2599
attoor	-2600
▁verbra	-2601
▁Denkmal	-2602
▁studierte	-2603
lor	-2604
▁38	-2605
▁Ei	-2606
▁Zu	-2607
ende	-2608
fügt	-2609
hais	-2610
liga	-2611
oglu	-2612
▁28.	-2613
▁Kap	-2614
▁Pac	-2615
ichte	-2616
lament	-2617
vasion	-2618
▁Grove	-2619
▁Solan	-2620
▁führt	-2621
▁Kuttik	-2622
▁Bundesk	-2623
▁Pacific	-2624
▁Pinhais	-2625
▁Systems	-2626
▁Davutoglu	-2627
▁Quadratmetern	-2628
ph	-2629
ies	-2630
abad	-2631
halb	-2632
weit	-2633
aylor	-2634
izade	-2635
▁Bill	-2636
▁Bolt	-2637
edabad	-2638
▁0-439	-2639
▁Plack	-2640
▁Nudeln	-2641
▁Tennis	-2642
▁altern	-2643
▁Kuttikk	-2644
▁Larcher	-2645
▁Canonica	-2646
▁Rasizade	-2647
▁Americans	-2648
▁Parlament	-2649
▁akademischen	-2650
òs	-2651
kar	-2652
▁AZ	-2653
▁Vo	-2654
anac	-2655
erie	-2656
▁dos	-2657
▁part	-2658
ateure	-2659
▁Artur	-2660
▁viele	-2661
▁Marmor	-2662
▁sowohl	-2663
▁Bundeskanzler	-2664
▁Kuttikkattoor	-2665
94	-2666
spie	-2667
tenf	-2668
▁Kom	-2669
▁dar	-2670
▁kon	-2671
iphol	-2672
lines	-2673
▁Brom	-2674
▁Tony	-2675
halten	-2676
▁Arros	-2677
▁Klaus	-2678
tellung	-2679
▁Carrol	-2680
flugzeug	-2681
▁Saranac	-2682
▁Tintenf	-2683
▁schloss	-2684
▁Ahmedabad	-2685
▁asiatischen	-2686
jo	-2687
don	-2688
ini	-2689
ove	-2690
▁CO	-2691
arth	-2692
entr	-2693
lymp	-2694
park	-2695
unst	-2696
▁Nix	-2697
▁1907	-2698
▁Garth	-2699
▁Kunst	-2700
▁Olymp	-2701
▁Brüssel	-2702
▁Invasion	-2703
▁Schiphol	-2704
▁Soldaten	-2705
▁verbrachte	-2706
AG	-2707
DE	-2708
Un	-2709
-17	-2710
DEN	-2711
hor	-2712
unk	-2713
yan	-2714
▁39	-2715
▁Jr	-2716
▁Aug	-2717
▁Aus	-2718
▁Sus	-2719
▁Dead	-2720
▁East	-2721
▁Ryan	-2722
▁from	-2723
▁CODEN	-2724
sprache	-2725
▁August	-2726
▁Cowper	-2727
▁Marcol	-2728
▁Native	-2729
anischen	-2730
▁Metapan	-2731
▁Michele	-2732
▁Haputale	-2733
97	-2734
IV	-2735
etz	-2736
ila	-2737
▁45	-2738
▁Cl	-2739
Zahl	-2740
hand	-2741
pril	-2742
▁But	-2743
▁HIV	-2744
▁Kir	-2745
▁Tan	-2746
▁April	-2747
▁Mason	-2748
▁Platz	-2749
▁Susana	-2750
▁seinem	-2751
minister	-2752
▁Schrift	-2753
▁Airlines	-2754
▁Marcolini	-2755
FK	-2756
ku	-2757
äd	-2758
ero	-2759
oug	-2760
ròs	-2761
aner	-2762
einh	-2763
▁Chr	-2764
▁Hop	-2765
▁PFK	-2766
▁off	-2767
▁Gold	-2768
▁erst	-2769
▁lead	-2770
▁Arròs	-2771
▁Roule	-2772
▁Valls	-2773
▁durch	-2774
▁where	-2775
▁Duncan	-2776
▁ampara	-2777
▁Halimah	-2778
präsident	-2779
▁Mathematik	-2780
▁amerikanischen	-2781
1.	-2782
45	-2783
As	-2784
bol	-2785
ddy	-2786
jas	-2787
ode	-2788
ajan	-2789
irek	-2790
▁Lau	-2791
▁Vor	-2792
▁was	-2793
▁Euro	-2794
▁Film	-2795
karest	-2796
▁Guner	-2797
▁Paris	-2798
▁Reddy	-2799
▁Stock	-2800
▁Yacob	-2801
▁rotem	-2802
irektor	-2803
▁Shumai	-2804
Amateure	-2805
Memorial	-2806
▁Butuner	-2807
▁Mahajan	-2808
▁Sandesh	-2809
▁Verwalt	-2810
▁indones	-2811
▁Bukarest	-2812
▁Einwohner	-2813
▁Schweizer	-2814
▁blühenden	-2815
ras	-2816
▁Ap	-2817
▁hö	-2818
mand	-2819
ocht	-2820
part	-2821
▁Bau	-2822
▁Blo	-2823
▁Dra	-2824
▁Hus	-2825
▁2009	-2826
isiert	-2827
▁Austr	-2828
▁Brook	-2829
▁Georg	-2830
▁Hafen	-2831
▁verst	-2832
zösisch	-2833
▁archit	-2834
▁Huseyin	-2835
▁Rouleau	-2836
▁Sumitra	-2837
▁Arabisch	-2838
▁location	-2839
äl	-2840
que	-2841
▁Id	-2842
▁Cur	-2843
▁Ihr	-2844
▁Rol	-2845
entif	-2846
▁Weiß	-2847
▁süße	-2848
arbeit	-2849
gessen	-2850
hannis	-2851
westen	-2852
▁Franc	-2853
▁negre	-2854
▁begann	-2855
amerikan	-2856
▁Bananen	-2857
▁Identif	-2858
▁gekocht	-2859
▁Direktor	-2860
▁binignit	-2861
▁gegessen	-2862
▁beliebtes	-2863
17	-2864
52	-2865
ym	-2866
yn	-2867
bin	-2868
enz	-2869
anda	-2870
bank	-2871
uper	-2872
issen	-2873
namen	-2874
ürgerme	-2875
▁Luanda	-2876
▁weißem	-2877
▁Belgaum	-2878
▁Hopkins	-2879
▁östlichen	-2880
▁Französisch	-2881
▁Hafenbehörde	-2882
ars	-2883
ids	-2884
kop	-2885
▁03	-2886
amer	-2887
ymne	-2888
ällt	-2889
▁End	-2890
▁Gen	-2891
▁MIT	-2892
▁Squ	-2893
dnuss	-2894
elade	-2895
▁Fort	-2896
▁Isab	-2897
▁Nach	-2898
▁post	-2899
binsel	-2900
▁Asher	-2901
▁Izmir	-2902
▁fällt	-2903
▁chines	-2904
▁Burbank	-2905
▁Erdnuss	-2906
▁gewählt	-2907
istrative	-2908
▁Chinesen	-2909
▁Isabelle	-2910
▁Memorial	-2911
▁Charakter	-2912
▁Identifier	-2913
ürgermeister	-2914
▁Erdnusssoße	-2915
▁italienische	-2916
12	-2917
act	-2918
ide	-2919
Code	-2920
hens	-2921
ikos	-2922
ität	-2923
pura	-2924
▁320	-2925
▁Alf	-2926
▁Cyr	-2927
▁Jam	-2928
esamt	-2929
geben	-2930
richt	-2931
ungsw	-2932
▁1959	-2933
▁Jaya	-2934
▁China	-2935
▁Nikos	-2936
▁Sucht	-2937
▁höher	-2938
▁offiz	-2939
▁Athens	-2940
▁Bohnen	-2941
▁Depart	-2942
▁Gesamt	-2943
▁weißer	-2944
National	-2945
denepura	-2946
▁Granola	-2947
▁Kategor	-2948
▁Spanier	-2949
▁Führungs	-2950
▁Minister	-2951
▁Südosten	-2952
Neuseeland	-2953
▁Halbinsel	-2954
▁enthalten	-2955
▁Department	-2956
▁Heimstätte	-2957
▁Palaeontol	-2958
▁Premierminister	-2959
bem	-2960
gor	-2961
ith	-2962
sip	-2963
zig	-2964
ück	-2965
▁Io	-2966
asse	-2967
avlo	-2968
luss	-2969
tain	-2970
vent	-2971
▁Glo	-2972
▁Kon	-2973
aster	-2974
blatt	-2975
dnung	-2976
kopis	-2977
oulos	-2978
resse	-2979
uster	-2980
▁Cook	-2981
▁Tsip	-2982
▁city	-2983
ventus	-2984
▁Pavlo	-2985
actions	-2986
▁Alexis	-2987
▁Alfred	-2988
▁Globem	-2989
▁Nation	-2990
▁Wasser	-2991
▁Gazette	-2992
▁Jayawar	-2993
▁Iohannis	-2994
▁Juventus	-2995
▁Prokopis	-2996
▁Marmelade	-2997
▁indischen	-2998
▁Richardson	-2999
▁Globemaster	-3000
▁Information	-3001
▁Jayawardenepura	-3002
33	-3003
eip	-3004
aths	-3005
eing	-3006
▁Arb	-3007
▁kat	-3008
basis	-3009
iking	-3010
utsis	-3011
▁Bund	-3012
▁Crew	-3013
▁Leip	-3014
▁Baths	-3015
▁Stern	-3016
▁leben	-3017
▁malai	-3018
▁beteil	-3019
▁Leipzig	-3020
▁Tsipras	-3021
▁Voutsis	-3022
ungswissen	-3023
▁Gebackenes	-3024
▁Transactions	-3025
ungswissenschaft	-3026
07	-3027
-0.	-3028
bul	-3029
inn	-3030
nie	-3031
ven	-3032
▁31	-3033
▁1974	-3034
▁Bron	-3035
▁Eier	-3036
▁Höhe	-3037
▁Copen	-3038
▁Deuts	-3039
▁Essen	-3040
▁Butter	-3041
▁Square	-3042
▁Viking	-3043
▁leader	-3044
▁Mandeln	-3045
▁Massimo	-3046
▁regiert	-3047
▁Kategorie	-3048
▁beteiligt	-3049
▁Copenhagen	-3050
▁Tintenfisch	-3051
▁Bananenblatt	-3052
▁afrikanischen	-3053
62	-3054
dem	-3055
ean	-3056
lag	-3057
▁AS	-3058
▁Th	-3059
-11-	-3060
otte	-3061
▁210	-3062
anbul	-3063
igung	-3064
ommen	-3065
▁beim	-3066
hority	-3067
ission	-3068
▁Kotte	-3069
gestuft	-3070
▁Boeing	-3071
▁Bundel	-3072
▁Westen	-3073
▁Authority	-3074
▁eingestuft	-3075
▁Gesamtfläche	-3076
one	-3077
▁Jun	-3078
khand	-3079
▁1862	-3080
▁Lira	-3081
▁Phil	-3082
▁arem	-3083
▁17000	-3084
▁Iulia	-3085
▁Milch	-3086
▁Sachb	-3087
▁Bronze	-3088
▁schwar	-3089
▁Adresse	-3090
▁Tomaten	-3091
Universit	-3092
abgekürzt	-3093
▁Franklin	-3094
▁Veilchen	-3095
▁erstellt	-3096
▁Buchfigur	-3097
▁Bundelkhand	-3098
▁Mathematica	-3099
ef	-3100
ez	-3101
add	-3102
ckb	-3103
▁Ex	-3104
▁SV	-3105
▁ad	-3106
üner	-3107
▁gem	-3108
addum	-3109
ished	-3110
▁Cent	-3111
▁Juni	-3112
▁Live	-3113
▁Stil	-3114
▁Wien	-3115
andeln	-3116
eschäd	-3117
▁Drago	-3118
▁Rupie	-3119
▁Wiley	-3120
▁Blockb	-3121
genommen	-3122
▁kategor	-3123
▁Hungarica	-3124
eschädigung	-3125
▁Blockbuster	-3126
▁kategorisiert	-3127
0,	-3128
aq	-3129
ese	-3130
ling	-3131
mals	-3132
▁Här	-3133
▁sam	-3134
ungsd	-3135
▁Fute	-3136
▁Graf	-3137
▁Jose	-3138
hitler	-3139
▁Chute	-3140
▁Clube	-3141
▁Gramm	-3142
▁Jones	-3143
▁Jorge	-3144
▁bevor	-3145
▁erste	-3146
aqaddum	-3147
▁Banane	-3148
▁Härtel	-3149
▁dieser	-3150
schaften	-3151
▁erricht	-3152
▁schrieb	-3153
▁indische	-3154
▁Technical	-3155
▁Bestellung	-3156
▁Amerikanerin	-3157
adh	-3158
aro	-3159
ley	-3160
▁6,	-3161
arta	-3162
hlin	-3163
üngl	-3164
▁159	-3165
▁610	-3166
▁Bas	-3167
▁Sao	-3168
sinen	-3169
▁Alma	-3170
▁Nova	-3171
▁USAF	-3172
▁Vila	-3173
▁Awadh	-3174
▁Chich	-3175
▁Enter	-3176
▁Höhen	-3177
▁Lokke	-3178
▁zuvor	-3179
hitleri	-3180
ünglich	-3181
tainment	-3182
uperliga	-3183
▁Futebol	-3184
▁Führers	-3185
▁Georgia	-3186
▁Rosinen	-3187
Abteilung	-3188
▁erstmals	-3189
mannschaft	-3190
▁errichtet	-3191
▁Entertainment	-3192
▁postgraduierte	-3193
23	-3194
aca	-3195
air	-3196
set	-3197
▁Cu	-3198
▁MA	-3199
▁ur	-3200
flus	-3201
igen	-3202
▁Edu	-3203
dicht	-3204
itiba	-3205
▁2001	-3206
▁Cast	-3207
▁Herr	-3208
▁Post	-3209
flusst	-3210
torben	-3211
▁urspr	-3212
spieler	-3213
▁Center	-3214
▁Harrie	-3215
▁Norden	-3216
▁sambal	-3217
▁Rolando	-3218
einflusst	-3219
▁Education	-3220
▁malaiischen	-3221
▁Südafrikaner	-3222
▁ursprünglich	-3223
Reg	-3224
ash	-3225
ome	-3226
▁22	-3227
omas	-3228
▁Tud	-3229
phalt	-3230
raero	-3231
stown	-3232
▁bede	-3233
▁publ	-3234
poulos	-3235
▁Laura	-3236
▁Sojas	-3237
gericht	-3238
nerhalb	-3239
▁Thomas	-3240
Denkmals	-3241
▁Curitiba	-3242
▁European	-3243
▁Infraero	-3244
▁Istanbul	-3245
▁Location	-3246
▁Sojasauce	-3247
▁gestorben	-3248
▁Pavlopoulos	-3249
-8	-3250
87	-3251
uz	-3252
▁X	-3253
▁Í	-3254
fol	-3255
vel	-3256
-176	-3257
ated	-3258
eten	-3259
▁Kol	-3260
▁Süß	-3261
▁Weg	-3262
alenc	-3263
merce	-3264
▁2015	-3265
tstown	-3266
▁Maran	-3267
▁denen	-3268
▁Ícolo	-3269
agement	-3270
▁Christ	-3271
▁geheim	-3272
▁Asphalt	-3273
▁Ordnung	-3274
▁Commerce	-3275
▁Francisco	-3276
▁Gebackene	-3277
▁Grafschaft	-3278
▁Management	-3279
▁flämischen	-3280
▁Präsidenten	-3281
▁aufgenommen	-3282
32	-3283
ael	-3284
ejo	-3285
kas	-3286
urr	-3287
yah	-3288
ürt	-3289
▁"1	-3290
▁88	-3291
▁FK	-3292
▁fo	-3293
Teil	-3294
oles	-3295
vano	-3296
▁Flä	-3297
▁Gel	-3298
▁Sil	-3299
▁Wei	-3300
erson	-3301
onnen	-3302
pielt	-3303
▁Aure	-3304
▁Hein	-3305
▁Patr	-3306
▁Stan	-3307
▁Arena	-3308
▁ersch	-3309
▁Conejo	-3310
▁Gerard	-3311
▁German	-3312
▁Verlag	-3313
▁valenc	-3314
lugzeuge	-3315
▁Silvano	-3316
▁Aureoles	-3317
▁gespielt	-3318
▁Italiener	-3319
▁Harrietstown	-3320
uc	-3321
305	-3322
zir	-3323
äse	-3324
▁Fr	-3325
Asso	-3326
Loug	-3327
aber	-3328
▁12.	-3329
▁Est	-3330
▁frü	-3331
▁lat	-3332
▁Kore	-3333
▁Mehl	-3334
▁Sell	-3335
▁zwei	-3336
▁Heinl	-3337
▁volle	-3338
▁George	-3339
▁McLoug	-3340
▁Sellerie	-3341
▁alternat	-3342
▁bedeuten	-3343
▁Superliga	-3344
▁flämische	-3345
▁McLoughlin	-3346
▁Amsterdamer	-3347
▁vollständige	-3348
▁valencianischen	-3349
.)	-3350
zp	-3351
kab	-3352
lud	-3353
mil	-3354
rag	-3355
rüm	-3356
▁Bl	-3357
iste	-3358
rahm	-3359
ielle	-3360
▁1904	-3361
▁Jack	-3362
▁aktu	-3363
ertrüm	-3364
▁Aniti	-3365
▁Bezir	-3366
▁Johns	-3367
▁Ramap	-3368
▁Sauer	-3369
▁Stars	-3370
Luftwaf	-3371
▁bundes	-3372
▁Patrick	-3373
▁stammen	-3374
ertrümmer	-3375
▁herausge	-3376
▁Sauerrahm	-3377
▁Sehitleri	-3378
▁innerhalb	-3379
▁bundesweit	-3380
▁Architektur	-3381
▁herausgegeben	-3382
▁kolumbianischen	-3383
26	-3384
hef	-3385
hos	-3386
ior	-3387
oco	-3388
win	-3389
ador	-3390
cano	-3391
hosa	-3392
ison	-3393
▁Jak	-3394
▁lok	-3395
▁1500	-3396
▁Fior	-3397
▁Garn	-3398
ameron	-3399
eitung	-3400
ierung	-3401
locano	-3402
nummer	-3403
▁Auron	-3404
▁Cyril	-3405
▁Edwin	-3406
▁Malay	-3407
▁State	-3408
▁Zentr	-3409
ocotyle	-3410
▁100305	-3411
▁Manuel	-3412
▁Seagle	-3413
▁Wilson	-3414
▁Cameron	-3415
▁Fiorent	-3416
▁Madison	-3417
▁Heinlein	-3418
ocotyledon	-3419
▁Ramaphosa	-3420
▁Rumäniens	-3421
▁Solanales	-3422
▁published	-3423
ferenznummer	-3424
▁Variationen	-3425
▁pakistanischen	-3426
▁philippinische	-3427
Ge	-3428
0-0	-3429
ada	-3430
ano	-3431
eng	-3432
hem	-3433
ián	-3434
mel	-3435
▁te	-3436
bany	-3437
elig	-3438
▁ACF	-3439
▁Bis	-3440
▁Fal	-3441
▁Ort	-3442
▁but	-3443
arnie	-3444
burts	-3445
İzmir	-3446
▁3500	-3447
▁eben	-3448
ademie	-3449
hnacht	-3450
eligion	-3451
gremium	-3452
▁Albany	-3453
▁Kirche	-3454
▁Leiter	-3455
▁Partei	-3456
▁arbeit	-3457
dichtete	-3458
▁Stadion	-3459
▁Garnelen	-3460
▁Sebastián	-3461
▁offizielle	-3462
▁Führungsgremium	-3463
▁Luftwaffenbasis	-3464
4-2	-3465
eym	-3466
isl	-3467
urs	-3468
▁29	-3469
buch	-3470
burn	-3471
lins	-3472
omot	-3473
scha	-3474
ucci	-3475
utzt	-3476
äter	-3477
▁Jal	-3478
▁Sal	-3479
▁Tel	-3480
▁Tim	-3481
melin	-3482
Region	-3483
ologie	-3484
▁Sands	-3485
angehör	-3486
eymouth	-3487
ludscha	-3488
▁Berlin	-3489
hnachtsp	-3490
sitzende	-3491
▁Geburts	-3492
▁Jakarta	-3493
▁Panucci	-3494
▁0-439-176	-3495
▁Christian	-3496
▁Falludscha	-3497
▁Fiorentina	-3498
▁malaysischen	-3499
hnachtspudding	-3500
▁Bürgermeister	-3501
▁Referenznummer	-3502
bü	-3503
352	-3504
fts	-3505
izo	-3506
▁zw	-3507
bhai	-3508
esen	-3509
kurr	-3510
▁978	-3511
▁Bal	-3512
▁Cul	-3513
▁Gan	-3514
adion	-3515
anger	-3516
essin	-3517
orizo	-3518
▁1987	-3519
▁Taro	-3520
attung	-3521
esamöl	-3522
▁16000	-3523
▁Jacob	-3524
umberto	-3525
▁Ganges	-3526
▁Sanger	-3527
▁Tessin	-3528
▁Tomate	-3529
▁Worden	-3530
▁sarnie	-3531
▁Cullins	-3532
▁Jalisco	-3533
▁Sesamöl	-3534
▁umfasst	-3535
alifornia	-3536
▁Humberto	-3537
▁Kapstadt	-3538
▁Standard	-3539
▁California	-3540
▁Indonesisch	-3541
▁beeinflusst	-3542
▁Monocotyledon	-3543
67	-3544
90	-3545
do	-3546
ec	-3547
aik	-3548
ict	-3549
ilt	-3550
our	-3551
ste	-3552
tes	-3553
chup	-3554
doza	-3555
▁12,	-3556
▁Arm	-3557
▁Lim	-3558
▁Län	-3559
▁Mot	-3560
▁Rev	-3561
▁ras	-3562
enada	-3563
▁1931	-3564
▁1986	-3565
▁3180	-3566
▁Naik	-3567
▁Pain	-3568
etchup	-3569
kuchen	-3570
▁Grund	-3571
Mission	-3572
▁Brooke	-3573
▁Legisl	-3574
▁Stoger	-3575
▁gebaut	-3576
▁ground	-3577
▁rasher	-3578
▁Grenada	-3579
▁Mendoza	-3580
▁Nordosten	-3581
▁aktuellen	-3582
▁arbeitete	-3583
▁Administrative	-3584
13	-3585
AC	-3586
cao	-3587
gri	-3588
oga	-3589
uez	-3590
yst	-3591
▁".	-3592
▁53	-3593
▁El	-3594
▁IN	-3595
▁re	-3596
apán	-3597
iast	-3598
ival	-3599
olgt	-3600
äten	-3601
▁211	-3602
▁Ast	-3603
▁Kar	-3604
▁Odd	-3605
griff	-3606
orino	-3607
rafts	-3608
räger	-3609
uffin	-3610
▁1976	-3611
▁Base	-3612
▁Koch	-3613
▁Rodr	-3614
apital	-3615
yahoga	-3616
▁Diese	-3617
▁Grand	-3618
▁Roger	-3619
▁South	-3620
▁beinh	-3621
▁butty	-3622
▁mater	-3623
▁weiße	-3624
mandant	-3625
setzung	-3626
▁Lankas	-3627
▁Placid	-3628
▁latein	-3629
melinids	-3630
▁Charles	-3631
▁Chichar	-3632
▁Ketchup	-3633
▁Metapán	-3634
▁Michael	-3635
▁Revival	-3636
▁Seminar	-3637
▁gefolgt	-3638
iastadion	-3639
▁Cuyahoga	-3640
▁Auszeichn	-3641
▁beinhaltet	-3642
▁Fortsetzung	-3643
▁Olympiastadion	-3644
ahm	-3645
uma	-3646
▁8.	-3647
▁co	-3648
anst	-3649
haca	-3650
iter	-3651
kuit	-3652
lage	-3653
stüt	-3654
uage	-3655
well	-3656
▁546	-3657
▁Akt	-3658
▁Dem	-3659
▁INF	-3660
▁Sci	-3661
ansas	-3662
ichen	-3663
logen	-3664
milch	-3665
uelle	-3666
▁Puig	-3667
▁Syst	-3668
▁Zuma	-3669
▁Zwei	-3670
genden	-3671
ürtige	-3672
▁Above	-3673
▁Druck	-3674
▁Oddie	-3675
▁Tudor	-3676
▁schuf	-3677
▁steht	-3678
eringue	-3679
estlich	-3680
▁Crafts	-3681
▁Kansas	-3682
▁Kolumb	-3683
▁Muffin	-3684
▁Poales	-3685
▁Indiens	-3686
▁Roberts	-3687
▁Zentral	-3688
▁konkurr	-3689
▁Akademie	-3690
▁Meringue	-3691
kuitkuchen	-3692
▁Kolumbien	-3693
▁kolumbian	-3694
angehöriger	-3695
▁Agremiacao	-3696
▁Infanterie	-3697
▁Kokosmilch	-3698
▁angeflogen	-3699
▁Bestandteil	-3700
▁Legislative	-3701
amerikanischer	-3702
-5	-3703
Te	-3704
-07	-3705
▁70	-3706
▁da	-3707
-206	-3708
berg	-3709
▁Dez	-3710
alcon	-3711
aracy	-3712
ekton	-3713
oller	-3714
vador	-3715
▁Dies	-3716
▁Mata	-3717
▁Mech	-3718
▁Oreg	-3719
▁Krieg	-3720
▁Paisa	-3721
▁einst	-3722
▁hatte	-3723
▁sowie	-3724
▁1-4165	-3725
▁Falcon	-3726
▁Ithaca	-3727
▁Rinder	-3728
▁Solent	-3729
▁Taylor	-3730
▁später	-3731
▁Coaracy	-3732
▁geheime	-3733
▁Dezember	-3734
▁Gazetten	-3735
▁Schlüssel	-3736
▁angeführt	-3737
▁gebratene	-3738
▁1-4165-206	-3739
▁Indonesiens	-3740
▁architekton	-3741
▁Biskuitkuchen	-3742
-7	-3743
Ver	-3744
alo	-3745
rog	-3746
▁Ha	-3747
0000	-3748
adal	-3749
eral	-3750
etts	-3751
icip	-3752
onse	-3753
ters	-3754
ynam	-3755
▁108	-3756
▁911	-3757
▁Ham	-3758
▁Hel	-3759
▁Pap	-3760
▁Von	-3761
▁gle	-3762
achus	-3763
ffalo	-3764
▁1913	-3765
▁Dave	-3766
▁Hack	-3767
▁Käse	-3768
▁Luft	-3769
▁Süßk	-3770
▁kalt	-3771
▁spez	-3772
icipal	-3773
ierten	-3774
onseca	-3775
▁Dynam	-3776
▁Ernie	-3777
▁Kochi	-3778
▁Piste	-3779
▁Balder	-3780
▁Castle	-3781
▁Guadal	-3782
▁dieses	-3783
Dänemark	-3784
▁Buffalo	-3785
▁Fonseca	-3786
▁General	-3787
▁Hamburg	-3788
▁capital	-3789
achusetts	-3790
▁Dynamics	-3791
ungsdichte	-3792
▁Deutschen	-3793
▁Sebastian	-3794
▁Kommandant	-3795
▁englischen	-3796
▁Commelinids	-3797
▁Hackfleisch	-3798
▁Bodenfleisch	-3799
▁Kampfpilotin	-3800
▁Süßkartoffel	-3801
▁Massachusetts	-3802
▁Mathematischen	-3803
cr	-3804
392	-3805
550	-3806
arm	-3807
die	-3808
hav	-3809
mts	-3810
pat	-3811
une	-3812
▁33	-3813
▁60	-3814
.000	-3815
arry	-3816
dete	-3817
edom	-3818
enre	-3819
ethe	-3820
▁Lab	-3821
▁Lat	-3822
▁ben	-3823
▁nun	-3824
Sauce	-3825
arese	-3826
erton	-3827
iesel	-3828
orben	-3829
▁2008	-3830
▁4000	-3831
▁Auft	-3832
▁Tesh	-3833
▁barm	-3834
▁nach	-3835
region	-3836
treten	-3837
▁70634	-3838
▁Fight	-3839
▁arros	-3840
lantain	-3841
▁Labour	-3842
▁Wissen	-3843
▁weiter	-3844
peration	-3845
▁Freedom	-3846
▁Lufthav	-3847
▁Ländern	-3848
▁Teshome	-3849
▁Verband	-3850
▁verfügt	-3851
▁Aktiesel	-3852
▁Anderson	-3853
▁Asherton	-3854
▁Fighting	-3855
▁Guadalaj	-3856
▁Schüssel	-3857
▁Weymouth	-3858
▁language	-3859
▁Süßkartoffeln	-3860
▁pakistanische	-3861
-16	-3862
270	-3863
atu	-3864
ere	-3865
▁07	-3866
Char	-3867
ambo	-3868
amin	-3869
ayas	-3870
club	-3871
ekom	-3872
hmen	-3873
vard	-3874
ämpf	-3875
▁280	-3876
▁Erd	-3877
▁Ros	-3878
▁Ter	-3879
▁ans	-3880
akles	-3881
ciale	-3882
leitz	-3883
ollar	-3884
uring	-3885
zpunk	-3886
▁8000	-3887
▁Amts	-3888
▁Code	-3889
▁with	-3890
ekomst	-3891
grethe	-3892
ritten	-3893
▁Anbar	-3894
▁Eagle	-3895
▁Steve	-3896
▁Zambo	-3897
▁found	-3898
anciale	-3899
mandeln	-3900
▁Steven	-3901
leitzahl	-3902
▁8000270	-3903
▁Harvard	-3904
▁Visayas	-3905
Charakter	-3906
stützpunk	-3907
▁Enduring	-3908
▁Italiens	-3909
▁Stockwer	-3910
▁Zamboang	-3911
▁spielten	-3912
▁toekomst	-3913
▁Margrethe	-3914
▁Sportpark	-3915
▁Guadalajara	-3916
▁verdichtete	-3917
▁akademisches	-3918
▁historischen	-3919
▁Wissenschaften	-3920
duz	-3921
ook	-3922
äss	-3923
▁"0	-3924
3528	-3925
kürz	-3926
prim	-3927
▁Auf	-3928
Stand	-3929
bergt	-3930
orges	-3931
▁Fern	-3932
▁Marv	-3933
▁warm	-3934
▁Boris	-3935
▁beher	-3936
▁ihrer	-3937
duziert	-3938
▁16.000	-3939
▁Dieser	-3940
▁Kokosn	-3941
▁Latium	-3942
▁ansäss	-3943
▁blanco	-3944
Standort	-3945
▁Georges	-3946
▁Texaner	-3947
▁Fernando	-3948
stützpunkt	-3949
▁Spitzname	-3950
▁beherbergt	-3951
..	-3952
1-8	-3953
407	-3954
egn	-3955
erk	-3956
mob	-3957
sex	-3958
▁41	-3959
▁87	-3960
▁Au	-3961
▁Ne	-3962
634:	-3963
adio	-3964
glia	-3965
ieto	-3966
ogao	-3967
race	-3968
wald	-3969
üßer	-3970
▁21.	-3971
▁Mun	-3972
▁rom	-3973
40714	-3974
ailem	-3975
aldor	-3976
alegn	-3977
rique	-3978
▁Beef	-3979
▁Gebr	-3980
▁Manu	-3981
▁VIAG	-3982
▁hinz	-3983
ämpfer	-3984
▁10000	-3985
▁Immob	-3986
▁Metro	-3987
▁Nieto	-3988
▁Weiße	-3989
banelle	-3990
verwalt	-3991
▁Anglia	-3992
▁Araber	-3993
▁Auburn	-3994
▁Ealdor	-3995
▁Hailem	-3996
▁Panama	-3997
▁geback	-3998
▁voller	-3999
westlich	-4000
▁Enrique	-4001
▁Gattung	-4002
▁Teilung	-4003
▁Terrace	-4004
▁60040714	-4005
▁Aurakles	-4006
▁Desalegn	-4007
▁Flugzeug	-4008
▁Gebraten	-4009
▁Gerichts	-4010
▁Religion	-4011
verwaltung	-4012
▁Ealdorman	-4013
▁Guanciale	-4014
▁Kokosnuss	-4015
▁Chinesisch	-4016
▁Erdmandeln	-4017
▁produziert	-4018
▁Bevölkerung	-4019
▁Grundfläche	-4020
▁Zamboangans	-4021
▁traditionelle	-4022
20	-4023
ea	-4024
pa	-4025
▁Ü	-4026
-42	-4027
ilo	-4028
typ	-4029
▁2.	-4030
0008	-4031
etti	-4032
ford	-4033
inor	-4034
▁11,	-4035
▁Gar	-4036
-4253	-4037
Black	-4038
ariam	-4039
falls	-4040
hymne	-4041
ieren	-4042
▁Drog	-4043
▁Igor	-4044
▁Mahe	-4045
▁abge	-4046
▁Über	-4047
elwald	-4048
redder	-4049
▁Chall	-4050
▁Essex	-4051
▁Faber	-4052
▁James	-4053
▁kämpf	-4054
-1-4165	-4055
▁Klasse	-4056
▁Mandel	-4057
▁Mexico	-4058
▁Rivers	-4059
▁560090,	-4060
▁Lufthavn	-4061
▁Stanford	-4062
▁aktuelle	-4063
▁ansässig	-4064
▁schwarze	-4065
▁Besatzung	-4066
▁Challinor	-4067
▁Höhenlage	-4068
▁Landesvor	-4069
▁Operation	-4070
▁Riverside	-4071
▁gebürtige	-4072
▁Geburtsort	-4073
-1-4165-4253	-4074
▁Fußballclub	-4075
▁Hailemariam	-4076
▁geschredder	-4077
▁malaysische	-4078
▁indonesische	-4079
▁Griechenlands	-4080
▁Universitäten	-4081
44	-4082
Sp	-4083
8-2	-4084
Sta	-4085
adi	-4086
cht	-4087
ded	-4088
ugt	-4089
yum	-4090
zen	-4091
▁AK	-4092
▁aj	-4093
▁bu	-4094
apio	-4095
asan	-4096
hack	-4097
iver	-4098
▁Ana	-4099
▁Mer	-4100
▁Rut	-4101
▁Stö	-4102
▁bis	-4103
Staat	-4104
Techn	-4105
aille	-4106
autet	-4107
erick	-4108
trenn	-4109
▁Asam	-4110
▁Bart	-4111
▁Holl	-4112
▁Koln	-4113
▁Mill	-4114
▁Pall	-4115
▁Walt	-4116
apioca	-4117
chisch	-4118
▁Chili	-4119
▁Fisch	-4120
▁added	-4121
▁darin	-4122
anische	-4123
ugefügt	-4124
yumasan	-4125
▁Astron	-4126
▁Igorot	-4127
▁Status	-4128
▁lautet	-4129
▁voraus	-4130
lugzeugt	-4131
▁Anaheim	-4132
▁Atlanta	-4133
▁Auftrag	-4134
▁komprim	-4135
▁verkürz	-4136
▁written	-4137
▁Hollande	-4138
▁Limerick	-4139
▁gewonnen	-4140
▁gleichen	-4141
▁Banyumasan	-4142
▁Gebratenes	-4143
▁Nordwesten	-4144
▁Vereinigte	-4145
▁hinzugefügt	-4146
lugzeugträger	-4147
▁gesprochenen	-4148
▁Nationalhymne	-4149
34	-4150
85	-4151
vd	-4152
äm	-4153
-9.	-4154
3,8	-4155
Kon	-4156
alm	-4157
ibb	-4158
ibe	-4159
kin	-4160
sit	-4161
▁pr	-4162
Buch	-4163
akes	-4164
chie	-4165
iane	-4166
iber	-4167
kham	-4168
oder	-4169
▁-3.	-4170
▁000	-4171
▁973	-4172
▁Ajo	-4173
▁Dok	-4174
▁Pat	-4175
▁Pic	-4176
▁kön	-4177
▁typ	-4178
andid	-4179
tonio	-4180
▁Blvd	-4181
▁Chef	-4182
▁Eman	-4183
▁Lega	-4184
▁Rahm	-4185
▁währ	-4186
griffs	-4187
ilding	-4188
person	-4189
▁Award	-4190
▁Clubs	-4191
▁Diane	-4192
▁Garden	-4193
▁Telang	-4194
▁gewann	-4195
▁können	-4196
Taqaddum	-4197
enkandid	-4198
▁Emanuel	-4199
▁Tinkham	-4200
▁während	-4201
Blackwell	-4202
Konferenz	-4203
Luftwaffe	-4204
▁Pallesen	-4205
▁Salvador	-4206
▁darunter	-4207
▁verstarb	-4208
▁Ellington	-4209
▁Hauptgang	-4210
▁Immobilie	-4211
▁verstorben	-4212
▁öffentliche	-4213
▁Spitzenkandid	-4214
▁Schlüsselperson	-4215
-9	-4216
TV	-4217
ón	-4218
▁ä	-4219
Don	-4220
Man	-4221
eme	-4222
gan	-4223
hys	-4224
wie	-4225
▁Ps	-4226
alil	-4227
amil	-4228
glas	-4229
iben	-4230
mond	-4231
nell	-4232
økke	-4233
üler	-4234
▁Dou	-4235
▁Klu	-4236
▁bra	-4237
843,8	-4238
▁1998	-4239
▁Asch	-4240
▁Lage	-4241
▁Phys	-4242
▁Whit	-4243
Taylor	-4244
Verona	-4245
▁Beach	-4246
▁Cakes	-4247
▁Duane	-4248
▁Fluss	-4249
▁Psalm	-4250
▁Stück	-4251
▁Urich	-4252
▁"1634:	-4253
▁Graeme	-4254
▁beitra	-4255
▁früher	-4256
▁siegte	-4257
enreiter	-4258
▁-3.3528	-4259
▁Douglas	-4260
▁kämpfte	-4261
Technical	-4262
flugzeuge	-4263
▁gebacken	-4264
ganisation	-4265
▁Aschgabat	-4266
▁Chicharon	-4267
▁Telangana	-4268
▁abgetrenn	-4269
▁Amtssprache	-4270
▁Nationalpark	-4271
▁Spitzenreiter	-4272
▁geschredderte	-4273
▁Spitzenkandidat	-4274
QU	-4275
da	-4276
pl	-4277
002	-4278
QUE	-4279
azu	-4280
ine	-4281
rat	-4282
▁KV	-4283
▁SK	-4284
▁ne	-4285
3645	-4286
esel	-4287
höhe	-4288
iker	-4289
ston	-4290
▁Afr	-4291
▁Exc	-4292
▁Fil	-4293
▁Frü	-4294
▁Pot	-4295
▁STV	-4296
▁Wol	-4297
▁bat	-4298
▁dav	-4299
▁ähn	-4300
araba	-4301
haric	-4302
ienst	-4303
ionen	-4304
urtur	-4305
uston	-4306
▁Balt	-4307
▁Shir	-4308
acones	-4309
itiker	-4310
lichen	-4311
▁19238	-4312
▁93645	-4313
▁Colon	-4314
▁Kesel	-4315
▁Løkke	-4316
▁McDon	-4317
▁Poyet	-4318
▁hogao	-4319
ellence	-4320
▁Boston	-4321
▁Dieses	-4322
▁Kluwer	-4323
▁Qaraba	-4324
▁Stöger	-4325
urturing	-4326
▁30843,8	-4327
▁Amharic	-4328
▁Austern	-4329
▁Estadio	-4330
▁Houston	-4331
▁Leitung	-4332
▁Wolters	-4333
▁ähnlich	-4334
polregion	-4335
▁Mechelen	-4336
▁Dänemarks	-4337
▁Südwesten	-4338
▁ebenfalls	-4339
▁Excellence	-4340
▁Oberfläche	-4341
▁Spitznamen	-4342
▁ChievoVerona	-4343
▁Fahrbahnnamen	-4344
Nationalspieler	-4345
▁Metropolregion	-4346
AA	-4347
IS	-4348
XN	-4349
iu	-4350
-01	-4351
Ger	-4352
apt	-4353
mic	-4354
ows	-4355
vin	-4356
äch	-4357
aple	-4358
cian	-4359
elli	-4360
gium	-4361
illa	-4362
jano	-4363
nete	-4364
▁896	-4365
▁Adv	-4366
▁Aff	-4367
▁Dil	-4368
▁Gus	-4369
▁Mor	-4370
▁Qiu	-4371
00.0.	-4372
Bauch	-4373
ademy	-4374
ensis	-4375
teapt	-4376
waren	-4377
▁Karl	-4378
▁Verb	-4379
▁grie	-4380
▁teil	-4381
hackte	-4382
ighter	-4383
▁Count	-4384
▁Frang	-4385
▁Kolle	-4386
▁Maple	-4387
▁Motto	-4388
▁davon	-4389
micelli	-4390
▁Dollar	-4391
▁Oregon	-4392
▁Academy	-4393
▁Shirley	-4394
▁Tapioca	-4395
▁Whitman	-4396
▁Kollegium	-4397
▁McDonnell	-4398
▁Millionen	-4399
▁ajoblanco	-4400
▁Stockwerke	-4401
▁Austernsoße	-4402
▁Bodenfläche	-4403
▁Mitgliedern	-4404
▁chinesische	-4405
▁öffentlichen	-4406
▁Tennisverband	-4407
▁vollständiger	-4408
▁kolumbianische	-4409
1,	-4410
7,	-4411
At	-4412
Ch	-4413
eo	-4414
pi	-4415
wn	-4416
zw	-4417
11.	-4418
Tin	-4419
cos	-4420
orc	-4421
ula	-4422
zer	-4423
üll	-4424
▁52	-4425
▁Fu	-4426
▁km	-4427
Amer	-4428
aduy	-4429
ambg	-4430
anze	-4431
aude	-4432
ipol	-4433
keit	-4434
wall	-4435
wohl	-4436
▁277	-4437
▁497	-4438
▁Mol	-4439
▁Run	-4440
▁Tas	-4441
▁Val	-4442
▁erb	-4443
▁pol	-4444
Athen	-4445
Izmir	-4446
Tinte	-4447
artei	-4448
auten	-4449
ciano	-4450
ement	-4451
utsch	-4452
▁Apul	-4453
▁Bibb	-4454
▁Kenn	-4455
▁Moro	-4456
alileo	-4457
ffüßer	-4458
funden	-4459
sterix	-4460
▁Icolo	-4461
▁Spall	-4462
▁arepa	-4463
▁built	-4464
▁sauer	-4465
Fußball	-4466
Gericht	-4467
kämpfer	-4468
orcilla	-4469
schluss	-4470
▁Affair	-4471
▁Claude	-4472
▁Maiden	-4473
▁Parana	-4474
▁Tejano	-4475
chenbuch	-4476
▁Asterix	-4477
▁Desmond	-4478
▁Galileo	-4479
▁Ilocano	-4480
▁Luciano	-4481
▁Pflanze	-4482
▁Schipol	-4483
▁Schüler	-4484
▁Seehöhe	-4485
ungsreich	-4486
▁Seminary	-4487
▁Apulensis	-4488
▁Kopffüßer	-4489
▁Stockport	-4490
Universitas	-4491
▁arrabbiata	-4492
▁Taschenbuch	-4493
▁beitragenden	-4494
▁Regierungschefs	-4495
6-	-4496
64	-4497
yp	-4498
-11	-4499
-8-	-4500
-92	-4501
573	-4502
670	-4503
715	-4504
amt	-4505
els	-4506
▁26	-4507
▁57	-4508
-033	-4509
3648	-4510
80-4	-4511
hner	-4512
iaol	-4513
ivis	-4514
länd	-4515
onym	-4516
uert	-4517
▁512	-4518
▁Adm	-4519
▁Büt	-4520
▁Hüs	-4521
▁Vic	-4522
▁its	-4523
7156-	-4524
essen	-4525
ester	-4526
gramm	-4527
olone	-4528
uting	-4529
▁1985	-4530
▁2777	-4531
▁Alab	-4532
▁Chin	-4533
▁Kämp	-4534
▁Mish	-4535
▁Mols	-4536
▁Spie	-4537
-92550	-4538
Chines	-4539
ension	-4540
▁0-670	-4541
▁1957.	-4542
▁Adsit	-4543
▁Baduy	-4544
▁Filip	-4545
▁Güner	-4546
▁style	-4547
edaille	-4548
iaolong	-4549
▁870008	-4550
▁Bright	-4551
▁Columb	-4552
▁Davuto	-4553
▁spezif	-4554
-03380-4	-4555
üllungen	-4556
▁Bütüner	-4557
▁Deutsch	-4558
▁Fighter	-4559
▁Flächen	-4560
▁Hüseyin	-4561
▁Javaner	-4562
▁Mishkin	-4563
▁Olympia	-4564
▁Schloss	-4565
▁Staates	-4566
▁Wolfman	-4567
▁schufen	-4568
7156-3648	-4569
▁Building	-4570
Chinesisch	-4571
▁Abteilung	-4572
▁Baltische	-4573
▁Bartolone	-4574
▁Carrarese	-4575
▁Spalletti	-4576
▁Australien	-4577
▁0-439-92550	-4578
griffsflugzeug	-4579
▁0-670-03380-4	-4580
19	-4581
GR	-4582
zo	-4583
371	-4584
Geb	-4585
abi	-4586
kon	-4587
orr	-4588
ğlu	-4589
▁05	-4590
▁09	-4591
▁Ku	-4592
▁TV	-4593
0-0.	-4594
0025	-4595
imon	-4596
ritt	-4597
skab	-4598
ände	-4599
▁AGR	-4600
▁Lin	-4601
▁Los	-4602
▁Mel	-4603
▁Neu	-4604
▁mex	-4605
asiat	-4606
atins	-4607
atown	-4608
druck	-4609
▁2776	-4610
▁Brit	-4611
▁Dane	-4612
▁Horr	-4613
▁Ster	-4614
▁alma	-4615
▁inzw	-4616
gesamt	-4617
ierter	-4618
ämonym	-4619
▁39371	-4620
▁Hymne	-4621
▁Mathe	-4622
▁group	-4623
atinsky	-4624
▁Melaka	-4625
▁Wiener	-4626
▁ethnic	-4627
▁südost	-4628
▁Alabama	-4629
▁Antioch	-4630
▁Chester	-4631
▁chorizo	-4632
Fußballer	-4633
gegründet	-4634
patacones	-4635
▁Horrigan	-4636
▁Xiaolong	-4637
▁gegangen	-4638
▁kaliforn	-4639
zertrümmer	-4640
▁Chinatown	-4641
▁Davutoğlu	-4642
▁Flächenco	-4643
▁Bolatinsky	-4644
▁bedeutende	-4645
▁inzwischen	-4646
▁0-7156-3648	-4647
▁Astronauten	-4648
▁südostasiat	-4649
▁Chesterfield	-4650
▁alternativen	-4651
▁öffentlicher	-4652
▁amerikanische	-4653
▁1-4165-2060-0.	-4654
5,	-4655
Or	-4656
kl	-4657
of	-4658
th	-4659
246	-4660
613	-4661
ahn	-4662
ehr	-4663
kre	-4664
lez	-4665
lot	-4666
res	-4667
▁Ly	-4668
▁ay	-4669
▁ob	-4670
Gebä	-4671
arif	-4672
asha	-4673
eich	-4674
gory	-4675
hard	-4676
haus	-4677
iell	-4678
iens	-4679
kuas	-4680
rika	-4681
rock	-4682
▁448	-4683
▁Als	-4684
▁Put	-4685
▁air	-4686
▁met	-4687
374-2	-4688
delez	-4689
drini	-4690
drück	-4691
ectur	-4692
geles	-4693
unkle	-4694
▁1080	-4695
▁1174	-4696
▁Auch	-4697
▁Diaz	-4698
▁Poln	-4699
▁Sago	-4700
▁leng	-4701
▁rote	-4702
▁sago	-4703
392246	-4704
heuert	-4705
igkeit	-4706
▁1955.	-4707
▁Kenny	-4708
▁Kuala	-4709
▁Mater	-4710
▁Union	-4711
Quadrat	-4712
▁140000	-4713
▁Chilli	-4714
▁Lumpur	-4715
▁Meride	-4716
▁Sharif	-4717
▁Torino	-4718
▁besitz	-4719
▁dunkle	-4720
▁kommen	-4721
374-2613	-4722
ischeibe	-4723
rocknete	-4724
▁Angeles	-4725
▁Bezirke	-4726
▁Carroll	-4727
▁Gregory	-4728
▁Jackson	-4729
▁Menasha	-4730
▁Paprika	-4731
▁Spieler	-4732
▁Verbind	-4733
auptstadt	-4734
▁Boldrini	-4735
▁Mondelez	-4736
▁lengkuas	-4737
▁plantain	-4738
▁verfasst	-4739
Amerikaner	-4740
Sandwiches	-4741
▁Arabische	-4742
▁Lauraceae	-4743
Association	-4744
▁angeheuert	-4745
▁spanischen	-4746
▁getrocknete	-4747
▁Aktieselskab	-4748
▁Hauptsprache	-4749
▁Frangischeibe	-4750
▁Flugzeugkämpfer	-4751
47	-4752
86	-4753
la	-4754
349	-4755
468	-4756
592	-4757
978	-4758
eal	-4759
ikt	-4760
raj	-4761
urz	-4762
usa	-4763
▁Za	-4764
4770	-4765
9618	-4766
ance	-4767
cema	-4768
egen	-4769
enza	-4770
ring	-4771
▁199	-4772
▁388	-4773
▁570	-4774
▁Rei	-4775
▁Tra	-4776
▁cob	-4777
-0-15	-4778
-2015	-4779
46863	-4780
59226	-4781
chnit	-4782
igent	-4783
iguez	-4784
risch	-4785
terne	-4786
velop	-4787
▁1980	-4788
▁3800	-4789
▁5300	-4790
▁Bari	-4791
▁Enda	-4792
▁Gene	-4793
▁Grün	-4794
▁Lyle	-4795
▁Pale	-4796
▁Rand	-4797
▁ayam	-4798
▁fran	-4799
▁gest	-4800
▁lebt	-4801
▁soll	-4802
4770-2	-4803
amsche	-4804
einhin	-4805
▁69618	-4806
▁Arion	-4807
▁Larry	-4808
▁Paulo	-4809
▁Sousa	-4810
▁print	-4811
omotive	-4812
▁Design	-4813
▁Philli	-4814
▁Putraj	-4815
▁Spring	-4816
▁erbaut	-4817
-0-15-20	-4818
chnitten	-4819
ubanelle	-4820
▁Austria	-4821
▁Buscema	-4822
▁Develop	-4823
▁Gelände	-4824
▁Located	-4825
▁Qarabag	-4826
▁Vicenza	-4827
▁gelegen	-4828
▁mexikan	-4829
▁57059226	-4830
▁57392246	-4831
▁89646863	-4832
▁2014-2015	-4833
▁gemeinhin	-4834
▁insgesamt	-4835
▁Olympiacos	-4836
▁erschaffen	-4837
▁lokomotive	-4838
▁Development	-4839
▁architectur	-4840
▁geschnitten	-4841
▁Organisation	-4842
▁abgetrennter	-4843
▁historischer	-4844
-0-15-204770-2	-4845
▁Auszeichnungen	-4846
▁978-1-4165-4253	-4847
5.	-4848
AS	-4849
GP	-4850
ki	-4851
364	-4852
983	-4853
ATA	-4854
Die	-4855
PGP	-4856
ace	-4857
▁SC	-4858
3900	-4859
6315	-4860
cash	-4861
ließ	-4862
▁767	-4863
▁Abg	-4864
▁Ann	-4865
▁Bab	-4866
▁Hat	-4867
▁Jac	-4868
▁SVE	-4869
▁one	-4870
▁sel	-4871
▁tex	-4872
PGPAC	-4873
büros	-4874
hemal	-4875
stein	-4876
▁1988	-4877
▁5000	-4878
▁8364	-4879
▁Arms	-4880
▁Boer	-4881
▁IATA	-4882
▁West	-4883
drückt	-4884
iensis	-4885
▁23900	-4886
▁Bhaji	-4887
▁Carpi	-4888
▁Colan	-4889
▁Distr	-4890
▁Short	-4891
▁Simon	-4892
▁nutzt	-4893
cashire	-4894
elsberg	-4895
▁767983	-4896
▁Cookie	-4897
▁ehemal	-4898
▁vollen	-4899
▁Abgänge	-4900
▁Alexand	-4901
▁Antonio	-4902
▁Barajas	-4903
▁Früchte	-4904
▁Mission	-4905
▁Rutland	-4906
▁Unterne	-4907
▁gedruck	-4908
▁gemacht	-4909
▁83646315	-4910
▁Berliner	-4911
▁Neustadt	-4912
kilometern	-4913
▁Pakistans	-4914
▁Putrajaya	-4915
▁Rodriguez	-4916
▁gestaltet	-4917
▁Babelsberg	-4918
▁Lancashire	-4919
▁Äthiopiens	-4920
▁Frankreichs	-4921
▁Zeitschrift	-4922
▁alternative	-4923
▁Aarhusiensis	-4924
▁veröffentlichte	-4925
71	-4926
AM	-4927
bu	-4928
711	-4929
kro	-4930
teo	-4931
▁08	-4932
▁13	-4933
▁Hü	-4934
ajji	-4935
antw	-4936
crem	-4937
enzi	-4938
erth	-4939
ffer	-4940
krop	-4941
▁787	-4942
▁880	-4943
▁Arn	-4944
▁Fox	-4945
▁Mac	-4946
▁Vit	-4947
▁sea	-4948
Serie	-4949
ailan	-4950
creme	-4951
eldon	-4952
ieder	-4953
lname	-4954
▁3000	-4955
▁4150	-4956
▁4349	-4957
▁Bach	-4958
▁Dale	-4959
▁Dazu	-4960
▁Mold	-4961
▁Real	-4962
▁dass	-4963
▁hess	-4964
▁mehr	-4965
▁nord	-4966
▁oper	-4967
▁vers	-4968
iation	-4969
▁Arbor	-4970
▁Perth	-4971
▁Renzi	-4972
▁Ukrop	-4973
antwort	-4974
▁787711	-4975
▁880573	-4976
▁Fenves	-4977
▁Hartel	-4978
▁Herren	-4979
▁Kailan	-4980
▁Matteo	-4981
▁Rovers	-4982
▁Bereich	-4983
▁Sheldon	-4984
▁französ	-4985
▁Designer	-4986
▁District	-4987
▁Eiscreme	-4988
▁Rosaceae	-4989
▁Vollname	-4990
▁bevölker	-4991
▁gehackte	-4992
▁Fußballer	-4993
▁Konferenz	-4994
▁Municipal	-4995
▁reference	-4996
▁spanische	-4997
▁südöstlich	-4998
Associazione	-4999
▁0-439-17684	-5000
▁Europäische	-5001
▁Universitas	-5002
▁Unternehmen	-5003
▁Nationalität	-5004
▁chinesischen	-5005
▁Flugzeugträger	-5006
bo	-5007
no	-5008
ér	-5009
-63	-5010
2-9	-5011
Rom	-5012
aju	-5013
iah	-5014
imm	-5015
lyn	-5016
nam	-5017
ähe	-5018
▁46	-5019
▁6.	-5020
▁Vi	-5021
▁po	-5022
-637	-5023
Post	-5024
amno	-5025
best	-5026
elor	-5027
gabe	-5028
obil	-5029
rant	-5030
▁292	-5031
▁900	-5032
▁Gér	-5033
▁Jos	-5034
▁Lee	-5035
▁bas	-5036
▁kam	-5037
2-932	-5038
crust	-5039
größe	-5040
hajji	-5041
innah	-5042
▁2215	-5043
▁Cohn	-5044
▁Dick	-5045
▁Gard	-5046
▁Gary	-5047
▁Huss	-5048
▁Into	-5049
▁Nähe	-5050
▁Tart	-5051
▁Univ	-5052
▁Ximo	-5053
▁Zeal	-5054
▁book	-5055
▁made	-5056
Staats	-5057
akrieg	-5058
ambien	-5059
amnoon	-5060
anzahl	-5061
folger	-5062
immung	-5063
ournal	-5064
▁Mobil	-5065
▁Youth	-5066
▁above	-5067
▁gesal	-5068
▁level	-5069
▁neben	-5070
anstalt	-5071
▁Arnhem	-5072
▁Bezirk	-5073
▁Carles	-5074
▁Fläche	-5075
▁Gérard	-5076
▁Herald	-5077
▁Jinnah	-5078
▁bhajji	-5079
▁bisher	-5080
▁weißen	-5081
▁widmet	-5082
▁Führung	-5083
▁Gardner	-5084
▁Hussain	-5085
▁Mamnoon	-5086
▁Moldoff	-5087
▁Oberflä	-5088
▁Sachsen	-5089
▁Staatsb	-5090
▁Vitesse	-5091
▁Zealand	-5092
▁besitzt	-5093
▁südlich	-5094
Nurturing	-5095
iederländ	-5096
▁1080-637	-5097
▁140000,0	-5098
▁Airports	-5099
▁Arbeiten	-5100
▁Bachelor	-5101
▁Besitzer	-5102
▁Brooklyn	-5103
▁Taqaddum	-5104
▁geborene	-5105
bestimmung	-5106
▁Mobilität	-5107
▁britische	-5108
▁hessische	-5109
▁vertreten	-5110
▁Kollegiums	-5111
▁Koreakrieg	-5112
▁Nachfolger	-5113
▁Shortcrust	-5114
▁Veranstalt	-5115
▁vermicelli	-5116
Postleitzahl	-5117
▁0-439-17685	-5118
▁Bodenanzahl	-5119
▁Personalgröße	-5120
▁Aserbaidschans	-5121
4.	-5122
An	-5123
OS	-5124
ua	-5125
Bes	-5126
IDS	-5127
füg	-5128
imp	-5129
obi	-5130
osc	-5131
öln	-5132
▁42	-5133
▁50	-5134
▁or	-5135
978.	-5136
afft	-5137
ania	-5138
eute	-5139
heda	-5140
inny	-5141
kott	-5142
menz	-5143
serv	-5144
▁101	-5145
▁130	-5146
▁ROS	-5147
▁São	-5148
▁com	-5149
-07-2	-5150
andes	-5151
folge	-5152
führt	-5153
ietet	-5154
stral	-5155
ucker	-5156
zenes	-5157
▁1911	-5158
▁Arts	-5159
▁Gosc	-5160
▁José	-5161
▁Köln	-5162
▁Lein	-5163
▁Vaju	-5164
▁Vala	-5165
▁geht	-5166
▁name	-5167
▁näch	-5168
feffer	-5169
frisch	-5170
impico	-5171
konser	-5172
▁3500.	-5173
▁Damen	-5174
▁Fland	-5175
▁Hambg	-5176
▁Kirby	-5177
▁Pugin	-5178
▁Urein	-5179
▁meine	-5180
▁İzmir	-5181
ausgabe	-5182
▁Eigent	-5183
▁Hühner	-5184
▁Knight	-5185
▁Malatu	-5186
▁Manual	-5187
▁ROSIDS	-5188
▁Reihen	-5189
▁Weißen	-5190
▁bewohn	-5191
▁landes	-5192
kottchen	-5193
thelwald	-5194
▁English	-5195
▁Paleobi	-5196
▁Palmenz	-5197
▁austral	-5198
▁benutzt	-5199
konserven	-5200
ontologie	-5201
▁80002709	-5202
▁Augustus	-5203
▁Drogheda	-5204
▁Flandern	-5205
▁Goscinny	-5206
▁Leinster	-5207
▁Oberhalb	-5208
▁Olimpico	-5209
▁blühende	-5210
▁national	-5211
▁93645978.	-5212
▁Abschluss	-5213
▁Instituts	-5214
Universität	-5215
▁gesalzenes	-5216
▁landesweit	-5217
▁türkischen	-5218
▁zertrümmer	-5219
▁Maskottchen	-5220
▁Reihenfolge	-5221
▁Ureinwohner	-5222
▁konkurriert	-5223
zertrümmertes	-5224
▁Palmenzucker	-5225
▁Printausgabe	-5226
▁Staatsbürger	-5227
▁Williamsburg	-5228
▁alternativer	-5229
▁Hühnergericht	-5230
▁Paleobiologie	-5231
▁abgeschlossen	-5232
▁0-439-92550-9.	-5233
▁Internationalen	-5234
21	-5235
72	-5236
Al	-5237
EM	-5238
90.	-5239
AGE	-5240
Ein	-5241
Süß	-5242
abl	-5243
brü	-5244
bst	-5245
des	-5246
ema	-5247
reh	-5248
uin	-5249
▁4.	-5250
▁AD	-5251
▁AM	-5252
▁sh	-5253
7,94	-5254
baan	-5255
buqu	-5256
cois	-5257
etta	-5258
form	-5259
irma	-5260
reaz	-5261
reek	-5262
weiß	-5263
▁170	-5264
▁298	-5265
▁476	-5266
▁War	-5267
▁Wiz	-5268
Krieg	-5269
acker	-5270
brühe	-5271
chbar	-5272
enzie	-5273
erque	-5274
ritte	-5275
▁1981	-5276
▁Bord	-5277
▁Dreh	-5278
▁Fuad	-5279
▁Peng	-5280
▁SAGE	-5281
▁Süße	-5282
▁Wall	-5283
▁asam	-5284
▁bena	-5285
▁groß	-5286
uständ	-5287
▁2015.	-5288
▁Civil	-5289
▁Einer	-5290
▁Steyr	-5291
▁Valer	-5292
▁bajji	-5293
Journal	-5294
berater	-5295
haretta	-5296
▁167,94	-5297
▁Admira	-5298
▁Albuqu	-5299
▁Daniel	-5300
▁Eiweiß	-5301
▁Potter	-5302
▁Promot	-5303
▁Random	-5304
▁Wacker	-5305
▁Wizard	-5306
▁bevölk	-5307
▁bietet	-5308
▁braune	-5309
▁metres	-5310
▁obwohl	-5311
chbarten	-5312
▁Geboren	-5313
▁Penguin	-5314
▁dämonym	-5315
▁87000823	-5316
▁Aviation	-5317
▁Columbia	-5318
▁Desserts	-5319
▁Filipino	-5320
▁Francois	-5321
▁Vajubhai	-5322
▁verschie	-5323
heimischen	-5324
▁geschafft	-5325
ionsberater	-5326
▁Alpharetta	-5327
▁wichtigste	-5328
▁Albuquerque	-5329
▁Architektin	-5330
▁Heimatstadt	-5331
▁Rinderbrühe	-5332
▁lateinische	-5333
▁Universities	-5334
▁benachbarten	-5335
▁französische	-5336
4,	-5337
FC	-5338
Gr	-5339
PE	-5340
▁Æ	-5341
USA	-5342
ata	-5343
chi	-5344
itt	-5345
ken	-5346
mut	-5347
sea	-5348
ärö	-5349
▁73	-5350
▁8,	-5351
▁BS	-5352
▁Uj	-5353
▁ir	-5354
-792	-5355
4517	-5356
EMPE	-5357
ahar	-5358
awaz	-5359
beef	-5360
enat	-5361
ikas	-5362
ippe	-5363
owda	-5364
quet	-5365
▁507	-5366
▁Abu	-5367
▁Net	-5368
▁Pir	-5369
▁Sow	-5370
▁Wel	-5371
▁Win	-5372
▁rup	-5373
elsea	-5374
iment	-5375
▁1820	-5376
▁2744	-5377
▁Amar	-5378
▁Dort	-5379
▁Garr	-5380
▁Hook	-5381
▁Mark	-5382
▁Team	-5383
▁Toch	-5384
67-792	-5385
etzter	-5386
ietnam	-5387
klasse	-5388
reiber	-5389
▁17023	-5390
▁497,0	-5391
▁Baron	-5392
▁Breaz	-5393
▁Gesch	-5394
▁Gowda	-5395
▁Great	-5396
▁KEMPE	-5397
▁Kapit	-5398
▁Nawaz	-5399
▁Party	-5400
▁Reith	-5401
▁Senat	-5402
▁Ujang	-5403
▁Verte	-5404
▁Zahar	-5405
herland	-5406
ovement	-5407
quetsch	-5408
schließ	-5409
spartei	-5410
▁464517	-5411
▁Airman	-5412
▁Dillin	-5413
▁Haider	-5414
▁Helmut	-5415
▁Picchi	-5416
▁Sowohl	-5417
▁rupiah	-5418
▁served	-5419
▁Armando	-5420
▁Chelsea	-5421
▁Kämpfen	-5422
▁Tochter	-5423
▁batchoy	-5424
▁bewohnt	-5425
▁bionico	-5426
▁typisch	-5427
Füllungen	-5428
▁Deutsche	-5429
▁Simonson	-5430
▁Spaniens	-5431
▁erschien	-5432
Hauptstadt	-5433
▁Bodenbeef	-5434
▁Æthelwald	-5435
▁Arabischen	-5436
▁Netherland	-5437
▁Staatschef	-5438
▁bezeichnet	-5439
Quadratmeter	-5440
▁Volkspartei	-5441
▁bedeutenden	-5442
▁südwestlich	-5443
▁Postgraduierte	-5444
AB	-5445
cy	-5446
sa	-5447
ád	-5448
-14	-5449
Com	-5450
RAA	-5451
ass	-5452
bat	-5453
dul	-5454
irk	-5455
ons	-5456
ora	-5457
orl	-5458
pot	-5459
ria	-5460
▁Pf	-5461
▁th	-5462
6448	-5463
92,8	-5464
arst	-5465
edah	-5466
egro	-5467
erst	-5468
illo	-5469
mine	-5470
ress	-5471
trat	-5472
ádio	-5473
▁14,	-5474
▁336	-5475
▁4,8	-5476
▁Att	-5477
▁Eth	-5478
▁Ges	-5479
▁Paz	-5480
▁Pre	-5481
▁Red	-5482
▁oft	-5483
Abadi	-5484
akora	-5485
autor	-5486
chmal	-5487
einge	-5488
itain	-5489
loilo	-5490
traum	-5491
▁Aids	-5492
▁Bury	-5493
▁Fett	-5494
▁Jill	-5495
▁Jong	-5496
▁Kond	-5497
▁Liby	-5498
▁ORAA	-5499
▁Shil	-5500
▁Worl	-5501
▁dann	-5502
▁kost	-5503
Bürger	-5504
Gebäck	-5505
Gruppe	-5506
ennung	-5507
ichten	-5508
prache	-5509
▁Abdul	-5510
▁Anand	-5511
▁Annie	-5512
▁Dunne	-5513
▁Genua	-5514
▁Inter	-5515
▁Kedah	-5516
▁Korea	-5517
▁Masum	-5518
▁Patel	-5519
▁Unter	-5520
▁admin	-5521
Mandeln	-5522
ensucht	-5523
portiva	-5524
schloss	-5525
▁2777,0	-5526
▁456448	-5527
▁Briten	-5528
▁Hearst	-5529
▁Pirate	-5530
▁dritte	-5531
▁shumai	-5532
Morcilla	-5533
Süßwaren	-5534
mandiert	-5535
▁Carmine	-5536
▁Cookies	-5537
▁Estádio	-5538
▁Garrett	-5539
▁Gründer	-5540
▁Lambien	-5541
▁Physics	-5542
▁llocano	-5543
▁poaceae	-5544
▁Amarillo	-5545
▁Fortress	-5546
▁Hardback	-5547
▁Movement	-5548
▁Philippe	-5549
▁Shilling	-5550
▁Anandiben	-5551
▁Alexandria	-5552
▁Verantwort	-5553
▁niederländ	-5554
▁spezifisch	-5555
▁verkürzten	-5556
▁verwendete	-5557
▁verschiedene	-5558
▁Veröffentlich	-5559
▁indonesischen	-5560
▁italienischen	-5561
▁administrative	-5562
▁Nationalspieler	-5563
AL	-5564
BI	-5565
Br	-5566
So	-5567
rl	-5568
íg	-5569
-24	-5570
enh	-5571
▁51	-5572
▁Sl	-5573
▁We	-5574
▁br	-5575
-14-	-5576
88-2	-5577
Soße	-5578
anne	-5579
eder	-5580
erto	-5581
icop	-5582
iges	-5583
inen	-5584
kpot	-5585
ktor	-5586
stil	-5587
▁1,8	-5588
▁3.9	-5589
▁Don	-5590
▁Hon	-5591
▁Len	-5592
▁Mul	-5593
▁Pes	-5594
▁Roy	-5595
▁Srl	-5596
▁dän	-5597
▁ten	-5598
endet	-5599
enzil	-5600
imber	-5601
okrat	-5602
perty	-5603
íguez	-5604
▁Ball	-5605
▁Doug	-5606
▁Fein	-5607
▁Four	-5608
▁Gula	-5609
▁Ihre	-5610
▁Jahn	-5611
▁Kong	-5612
▁Palä	-5613
▁Wein	-5614
▁bron	-5615
▁färö	-5616
▁korn	-5617
▁setz	-5618
▁vari	-5619
88-263	-5620
Comics	-5621
aminer	-5622
demont	-5623
iertel	-5624
spiele	-5625
ursema	-5626
▁Arten	-5627
▁Divis	-5628
▁Goldm	-5629
▁Javan	-5630
▁Kolin	-5631
▁Monar	-5632
▁Trade	-5633
▁World	-5634
▁polit	-5635
Agremia	-5636
icopter	-5637
vinegro	-5638
▁560090	-5639
▁APGPAC	-5640
▁Attika	-5641
▁Denzil	-5642
▁Doktor	-5643
▁Gebiet	-5644
▁Iloilo	-5645
▁Inkpot	-5646
▁Puerto	-5647
▁Rektor	-5648
▁heißen	-5649
▁region	-5650
Menschen	-5651
quetscht	-5652
urzgesch	-5653
▁1907-07	-5654
▁Ballist	-5655
▁Britain	-5656
▁Chorizo	-5657
▁Landess	-5658
▁frühere	-5659
Flughafen	-5660
▁0002-932	-5661
▁Duursema	-5662
▁Examiner	-5663
▁Regionen	-5664
▁Weltraum	-5665
▁führende	-5666
▁manchmal	-5667
Agremiação	-5668
▁57059226.	-5669
▁Betreiber	-5670
▁Deportiva	-5671
▁Feinstein	-5672
▁Gegründet	-5673
▁Infantino	-5674
▁Politiker	-5675
▁Rodríguez	-5676
▁Sanderson	-5677
▁abschloss	-5678
▁wichtiger	-5679
▁0-374-2613	-5680
▁1080-6377.	-5681
▁Heimspiele	-5682
▁Helicopter	-5683
▁Puigdemont	-5684
▁Südafrikas	-5685
▁griechisch	-5686
▁kommandiert	-5687
▁Auszeichnung	-5688
▁Goldmedaille	-5689
▁Landessprache	-5690
▁Paläontologie	-5691
▁0-670-03380-4.	-5692
▁Architekturstil	-5693
-6	-5694
Ac	-5695
Pr	-5696
UK	-5697
3-6	-5698
5-2	-5699
akt	-5700
eis	-5701
hän	-5702
rov	-5703
rus	-5704
tus	-5705
uay	-5706
äus	-5707
▁Di	-5708
-063	-5709
00.0	-5710
1887	-5711
4-23	-5712
58-2	-5713
7653	-5714
Asad	-5715
ates	-5716
atik	-5717
atus	-5718
corn	-5719
edic	-5720
flug	-5721
iers	-5722
irus	-5723
isst	-5724
onen	-5725
wick	-5726
▁096	-5727
▁120	-5728
▁McK	-5729
▁Pec	-5730
▁RAM	-5731
▁Zar	-5732
▁can	-5733
▁own	-5734
5-214	-5735
agoza	-5736
allot	-5737
andon	-5738
chent	-5739
ordon	-5740
tella	-5741
upper	-5742
▁1114	-5743
▁1700	-5744
▁1909	-5745
▁3310	-5746
▁737.	-5747
▁Fläm	-5748
▁Häus	-5749
▁Kabi	-5750
▁Mail	-5751
▁Marc	-5752
▁Pick	-5753
▁Quay	-5754
▁Sons	-5755
▁Wirk	-5756
▁ganz	-5757
002539	-5758
188753	-5759
58-286	-5760
ardian	-5761
iloten	-5762
▁1962.	-5763
▁1963.	-5764
▁Honig	-5765
▁Light	-5766
▁Nudel	-5767
▁Place	-5768
▁misst	-5769
-0633-6	-5770
chentyp	-5771
▁0-7653	-5772
▁2776,0	-5773
▁Afonsa	-5774
▁Combat	-5775
▁Dianne	-5776
▁Gordon	-5777
▁Halton	-5778
▁Kimber	-5779
▁Kupper	-5780
▁Mulatu	-5781
▁Virtus	-5782
▁ersten	-5783
▁groups	-5784
▁leitet	-5785
▁zuerst	-5786
allotten	-5787
arbeitet	-5788
▁Afrikan	-5789
▁Brandon	-5790
▁Chilton	-5791
▁Cornish	-5792
▁Entella	-5793
▁Geering	-5794
▁Mailand	-5795
▁Marsden	-5796
▁Pickard	-5797
▁Runcorn	-5798
▁pension	-5799
▁0965-214	-5800
▁1558-286	-5801
▁88002539	-5802
▁Counties	-5803
▁Guardian	-5804
▁McKenzie	-5805
▁Pecorino	-5806
▁Sterling	-5807
▁Zaragoza	-5808
▁begonnen	-5809
▁variiert	-5810
▁zwischen	-5811
▁80002709.	-5812
▁Craftsman	-5813
▁Höhenflug	-5814
▁Kondition	-5815
▁Minicipal	-5816
▁cubanelle	-5817
▁komischen	-5818
eingedrückt	-5819
öffentlicht	-5820
▁Flämischen	-5821
▁Griechisch	-5822
▁Informatik	-5823
▁Kupperberg	-5824
▁Shallotten	-5825
▁Afrikanische	-5826
▁Efxeinoupoli	-5827
urzgeschichten	-5828
▁0-7653-0633-6	-5829
▁kalifornische	-5830
▁Oberflächentyp	-5831
▁Veröffentlicht	-5832
▁Konditionierung	-5833
▁niederländische	-5834
▁philippinisches	-5835
,6	-5836
24	-5837
7-	-5838
BU	-5839
ep	-5840
mo	-5841
-56	-5842
LBU	-5843
adc	-5844
ali	-5845
din	-5846
erb	-5847
gem	-5848
ney	-5849
oen	-5850
ofu	-5851
row	-5852
teg	-5853
ydr	-5854
âne	-5855
▁84	-5856
▁94	-5857
▁Cr	-5858
-818	-5859
2445	-5860
3.0.	-5861
301-	-5862
947-	-5863
Acta	-5864
Flug	-5865
QUER	-5866
aien	-5867
head	-5868
iles	-5869
olet	-5870
tort	-5871
▁110	-5872
▁270	-5873
▁Cat	-5874
▁Deș	-5875
▁HAL	-5876
▁Hok	-5877
▁Inh	-5878
▁hin	-5879
▁rut	-5880
afsch	-5881
anten	-5882
ittle	-5883
oench	-5884
owski	-5885
rewer	-5886
zeigt	-5887
ämpft	-5888
▁"978	-5889
▁1-56	-5890
▁100.	-5891
▁1046	-5892
▁1533	-5893
▁1878	-5894
▁2989	-5895
▁ALBU	-5896
▁Book	-5897
▁Gale	-5898
▁Kohl	-5899
▁Orte	-5900
▁Slay	-5901
▁Tofu	-5902
▁Zuge	-5903
▁hakt	-5904
Bundes	-5905
Saison	-5906
adcast	-5907
enhydr	-5908
sitzen	-5909
teaptă	-5910
tegodi	-5911
▁Amate	-5912
▁Bauch	-5913
▁Giles	-5914
▁Oberb	-5915
▁Rican	-5916
▁Spata	-5917
▁Tamil	-5918
▁ander	-5919
▁based	-5920
▁etabl	-5921
▁ihrem	-5922
▁lange	-5923
▁tritt	-5924
QUERQUE	-5925
afschap	-5926
fußball	-5927
▁0001-8	-5928
▁111484	-5929
▁Betten	-5930
▁Brewer	-5931
▁Moench	-5932
▁Române	-5933
▁andere	-5934
▁design	-5935
▁einige	-5936
▁heißer	-5937
▁sollte	-5938
▁verlie	-5939
947-301-	-5940
tortitel	-5941
▁3188753	-5942
▁3202445	-5943
▁Malaien	-5944
▁Viertel	-5945
▁Zugehör	-5946
▁gezeigt	-5947
▁nachdem	-5948
▁zweiten	-5949
adcasting	-5950
angeführt	-5951
▁0567-792	-5952
▁1046-818	-5953
▁Brasilia	-5954
▁Demokrat	-5955
▁Karnatka	-5956
▁Shephard	-5957
▁Soldiers	-5958
▁rutaceae	-5959
Luftwaffen	-5960
flughafens	-5961
▁Bentegodi	-5962
▁Comicbuch	-5963
▁Deșteaptă	-5964
▁Rathauses	-5965
▁1907-07-11	-5966
▁Graafschap	-5967
▁Kohlenhydr	-5968
▁derzeitige	-5969
▁ALBUQUERQUE	-5970
▁Brasilianer	-5971
▁Doktortitel	-5972
▁romanischen	-5973
▁1-56947-301-	-5974
▁Broadcasting	-5975
▁Postleitzahl	-5976
▁historisches	-5977
▁Zugehörigkeit	-5978
▁komprimierter	-5979
▁0-439-17684-0.	-5980
AH	-5981
▁Ö	-5982
-55	-5983
-7.	-5984
269	-5985
5,3	-5986
78,	-5987
AHE	-5988
bew	-5989
cul	-5990
ios	-5991
omb	-5992
rib	-5993
rix	-5994
wyn	-5995
zzi	-5996
▁40	-5997
▁49	-5998
▁NJ	-5999
Bare	-6000
Chef	-6001
Liga	-6002
Span	-6003
abbr	-6004
ancy	-6005
anta	-6006
dway	-6007
eise	-6008
erry	-6009
eyst	-6010
gene	-6011
iche	-6012
oken	-6013
olph	-6014
präs	-6015
spor	-6016
érix	-6017
▁136	-6018
▁597	-6019
▁Arl	-6020
▁Ego	-6021
▁Lam	-6022
▁Rud	-6023
▁UAB	-6024
▁bem	-6025
▁hok	-6026
▁son	-6027
▁wel	-6028
0-044	-6029
269-9	-6030
32-24	-6031
73-55	-6032
Grant	-6033
Mater	-6034
Sucht	-6035
alows	-6036
ampff	-6037
boten	-6038
cules	-6039
etrov	-6040
itake	-6041
kreuz	-6042
racht	-6043
stand	-6044
▁Atal	-6045
▁Bung	-6046
▁Comp	-6047
▁Dino	-6048
▁Obst	-6049
▁Odin	-6050
▁Rote	-6051
▁Zeit	-6052
▁gilt	-6053
▁hoch	-6054
▁prom	-6055
▁wohn	-6056
Status	-6057
erkens	-6058
teapta	-6059
ternat	-6060
▁13017	-6061
▁Alter	-6062
▁Ander	-6063
▁Bibbo	-6064
▁Chris	-6065
▁Cyrus	-6066
▁Firma	-6067
▁Jerry	-6068
▁Keyst	-6069
▁Pilot	-6070
▁Siehe	-6071
▁Vance	-6072
▁comes	-6073
▁folgt	-6074
▁state	-6075
Barejas	-6076
Dessert	-6077
Spanien	-6078
journal	-6079
kennung	-6080
mission	-6081
präsent	-6082
▁1980-0	-6083
▁Arbeit	-6084
▁Clancy	-6085
▁Colwyn	-6086
▁Comics	-6087
▁Disney	-6088
▁Ordway	-6089
▁Violet	-6090
▁ebenso	-6091
▁selbst	-6092
ributing	-6093
▁1473-55	-6094
▁1732-24	-6095
▁African	-6096
▁Catania	-6097
▁Inhaber	-6098
▁Manuzzi	-6099
▁Odinson	-6100
▁Pfeffer	-6101
▁Rosales	-6102
▁Rudolph	-6103
▁Senator	-6104
▁Studios	-6105
▁kostete	-6106
antenhaus	-6107
servative	-6108
▁1360-044	-6109
▁1588-263	-6110
▁2014-15.	-6111
▁76798317	-6112
▁Atalanta	-6113
▁Cornwall	-6114
▁Division	-6115
▁Hercules	-6116
▁Keystone	-6117
▁Kimberly	-6118
▁Landsitz	-6119
▁Nordwall	-6120
▁entstand	-6121
▁erfunden	-6122
▁weiterer	-6123
▁Arlington	-6124
▁Ballistic	-6125
▁Bibbowski	-6126
▁Bungalows	-6127
▁Drehkreuz	-6128
▁Nationale	-6129
▁angeboten	-6130
▁bemerkens	-6131
▁bevölkern	-6132
▁schwarzer	-6133
▁Polnischen	-6134
▁Solanaceae	-6135
▁etablierte	-6136
▁gebratenem	-6137
▁Geschrieben	-6138
▁gestalteten	-6139
▁Verbindungen	-6140
▁nordwestlich	-6141
ungsmitglieder	-6142
▁Kohlenhydrate	-6143
▁architectural	-6144
▁0-7156-3648-0.	-6145
▁Internationale	-6146
präsentantenhaus	-6147
ET	-6148
uv	-6149
▁.	-6150
-09	-6151
94.	-6152
Ahn	-6153
TIS	-6154
hri	-6155
obe	-6156
ted	-6157
▁62	-6158
▁Pe	-6159
▁ma	-6160
7290	-6161
Page	-6162
adiq	-6163
atum	-6164
bago	-6165
bert	-6166
cehn	-6167
cret	-6168
gelt	-6169
heer	-6170
heit	-6171
iena	-6172
mere	-6173
nung	-6174
stru	-6175
uary	-6176
ätig	-6177
▁03.	-6178
▁Eug	-6179
▁Max	-6180
▁Raf	-6181
▁Wie	-6182
▁flo	-6183
▁had	-6184
Leute	-6185
TISET	-6186
andel	-6187
arton	-6188
ayton	-6189
bügel	-6190
derzo	-6191
gress	-6192
hängt	-6193
obean	-6194
ostel	-6195
platz	-6196
▁1908	-6197
▁1964	-6198
▁3048	-6199
▁5350	-6200
▁Ahri	-6201
▁Ayaz	-6202
▁Beit	-6203
▁Ethn	-6204
▁Fans	-6205
▁Head	-6206
▁King	-6207
▁Komm	-6208
▁Maya	-6209
▁Shuv	-6210
▁fikt	-6211
▁hier	-6212
▁hält	-6213
Kuchen	-6214
bewerb	-6215
endung	-6216
iberts	-6217
nebago	-6218
verein	-6219
▁47290	-6220
▁50000	-6221
▁Acehn	-6222
▁Anwar	-6223
▁Bohne	-6224
▁Chung	-6225
▁Gates	-6226
▁Jamie	-6227
▁Pfund	-6228
▁Sadiq	-6229
▁Siena	-6230
▁anges	-6231
▁dedic	-6232
▁robur	-6233
▁stark	-6234
▁tamil	-6235
▁techn	-6236
▁texas	-6237
▁tätig	-6238
Sprache	-6239
pliment	-6240
wohnern	-6241
▁3992,8	-6242
▁Albert	-6243
▁Carrie	-6244
▁DuPage	-6245
▁Eugene	-6246
▁Jamali	-6247
▁Japans	-6248
▁Motion	-6249
▁Patten	-6250
▁Physik	-6251
▁Pictur	-6252
▁Sardar	-6253
▁Secret	-6254
▁Uderzo	-6255
▁Verfüg	-6256
▁Warton	-6257
▁Zaheer	-6258
gründete	-6259
struiert	-6260
▁1969-09	-6261
▁Amerika	-6262
▁Apostel	-6263
▁Beitrag	-6264
▁Clayton	-6265
▁Country	-6266
▁Francis	-6267
▁Phillip	-6268
▁Schwamm	-6269
▁airport	-6270
▁weitere	-6271
Präsident	-6272
ettbewerb	-6273
▁100305,0	-6274
▁Alkmaair	-6275
▁Amateurs	-6276
▁Belgiens	-6277
▁Gazettes	-6278
▁Huiberts	-6279
▁Häuschen	-6280
▁Jacobean	-6281
▁Springer	-6282
▁Tranmere	-6283
▁entweder	-6284
▁gekämpft	-6285
▁operated	-6286
▁60040714.	-6287
▁89646863.	-6288
▁Computing	-6289
▁Stadtteil	-6290
▁Winnebago	-6291
▁angehängt	-6292
▁dedicated	-6293
▁kornische	-6294
▁offiziell	-6295
▁Einwohnern	-6296
▁Drogensucht	-6297
▁Flächencode	-6298
▁Javanischen	-6299
▁Rinderbügel	-6300
▁Flächencodes	-6301
▁lateinischer	-6302
amerikanischen	-6303
▁1-4165-2060-0	-6304
▁Amsterdamsche	-6305
Luftwaffenbasis	-6306
▁Comicbuchautor	-6307
▁amerikanischer	-6308
▁Veranstaltungen	-6309
▁philippinischen	-6310
."	-6311
EP	-6312
PS	-6313
TH	-6314
,66	-6315
250	-6316
3.0	-6317
969	-6318
AID	-6319
EPT	-6320
Kom	-6321
Pol	-6322
chd	-6323
del	-6324
gth	-6325
orw	-6326
ätz	-6327
▁75	-6328
▁83	-6329
▁Gi	-6330
▁RB	-6331
1-8.	-6332
Arts	-6333
Book	-6334
Bröt	-6335
PSTH	-6336
akar	-6337
code	-6338
delt	-6339
gele	-6340
gend	-6341
ifin	-6342
inch	-6343
lari	-6344
oden	-6345
raße	-6346
çois	-6347
▁518	-6348
▁Dal	-6349
▁Den	-6350
▁Fut	-6351
▁Lal	-6352
▁ScD	-6353
▁Shi	-6354
▁Top	-6355
▁kob	-6356
▁len	-6357
▁opp	-6358
46,66	-6359
AIDBI	-6360
aktor	-6361
arrón	-6362
geber	-6363
lagen	-6364
lecht	-6365
orgos	-6366
rovil	-6367
zerte	-6368
▁1929	-6369
▁2194	-6370
▁2702	-6371
▁CEPT	-6372
▁Fire	-6373
▁Link	-6374
▁Mach	-6375
▁Norw	-6376
▁food	-6377
▁rock	-6378
Marine	-6379
akaria	-6380
aminis	-6381
chdale	-6382
erback	-6383
gemein	-6384
iedelt	-6385
nehmen	-6386
▁27250	-6387
▁3078,	-6388
▁51969	-6389
▁53502	-6390
▁610,0	-6391
▁Brown	-6392
▁EPSTH	-6393
▁Irlam	-6394
▁Vertr	-6395
▁owned	-6396
▁sonst	-6397
▁Arifin	-6398
▁Bridge	-6399
▁Cesana	-6400
▁Einige	-6401
▁Frucht	-6402
▁Futbol	-6403
▁Handel	-6404
▁Libyen	-6405
▁Little	-6406
▁Meeres	-6407
▁Pakora	-6408
▁Philip	-6409
▁Runway	-6410
▁griech	-6411
▁length	-6412
▁regelt	-6413
▁romane	-6414
▁spoken	-6415
Brötchen	-6416
schafter	-6417
uständig	-6418
▁Autoren	-6419
▁Gelegen	-6420
▁Giorgos	-6421
▁Javenes	-6422
▁Kaminis	-6423
▁Kanzler	-6424
▁Königin	-6425
▁Lalbhai	-6426
▁Letzter	-6427
▁Munster	-6428
▁Zakaria	-6429
bereitung	-6430
rovillari	-6431
▁February	-6432
▁François	-6433
▁Gefunden	-6434
▁Konzerte	-6435
▁Norwegen	-6436
▁Pictures	-6437
▁Rochdale	-6438
▁Shiitake	-6439
▁antreten	-6440
▁gedruckt	-6441
Bestellung	-6442
▁Druckform	-6443
▁Hauptsitz	-6444
▁Heimplatz	-6445
▁Paperback	-6446
▁Topklasse	-6447
▁betreiben	-6448
▁zuständig	-6449
▁0002-9327.	-6450
▁Anderlecht	-6451
▁Wettbewerb	-6452
▁Aktieselkab	-6453
▁Vorsitzende	-6454
▁asiatischer	-6455
▁Tintenfische	-6456
▁0-7156-3648-0	-6457
▁Castrovillari	-6458
▁mexikanisches	-6459
-0-15-204770-2.	-6460
▁Demokratischen	-6461
▁Stadtverwaltung	-6462
Re	-6463
nd	-6464
-52	-6465
236	-6466
AAJ	-6467
aly	-6468
fel	-6469
unt	-6470
äft	-6471
▁37	-6472
▁By	-6473
▁MS	-6474
▁kn	-6475
HAAJ	-6476
Math	-6477
Stil	-6478
abat	-6479
ahle	-6480
ewis	-6481
iere	-6482
mood	-6483
telt	-6484
önes	-6485
▁3.5	-6486
▁30.	-6487
▁Asa	-6488
▁Cal	-6489
▁Ren	-6490
▁ihm	-6491
▁sit	-6492
-130,	-6493
145,3	-6494
apind	-6495
chell	-6496
eziel	-6497
halid	-6498
ianza	-6499
iraca	-6500
kreis	-6501
stoff	-6502
ötigt	-6503
▁1.53	-6504
▁1121	-6505
▁1800	-6506
▁1971	-6507
▁1995	-6508
▁3990	-6509
▁600.	-6510
▁Aeth	-6511
▁Cott	-6512
▁Entw	-6513
▁Mann	-6514
▁Port	-6515
▁Reze	-6516
▁Ring	-6517
▁Städ	-6518
▁Zahl	-6519
▁eins	-6520
▁poln	-6521
▁vica	-6522
236-52	-6523
Führer	-6524
andeur	-6525
faktor	-6526
igante	-6527
ombard	-6528
speise	-6529
▁1908.	-6530
▁Bones	-6531
▁Harry	-6532
▁Jahre	-6533
▁Lewis	-6534
▁Sahle	-6535
▁Schut	-6536
▁Valen	-6537
▁count	-6538
▁distr	-6539
▁essen	-6540
Amsterd	-6541
▁0269-9	-6542
▁AMHAAJ	-6543
▁Bodens	-6544
▁Dalpat	-6545
▁Eisner	-6546
▁Irisch	-6547
▁Khalid	-6548
▁Roland	-6549
▁Volkes	-6550
▁Zaanst	-6551
▁beiges	-6552
▁belieb	-6553
▁hadert	-6554
▁machen	-6555
▁setzen	-6556
▁traten	-6557
Gerichts	-6558
▁3746,66	-6559
▁62145,3	-6560
▁8805735	-6561
▁Gigante	-6562
▁Kapitan	-6563
▁Mahmood	-6564
▁Nachbar	-6565
▁Pension	-6566
▁Richter	-6567
▁Vietnam	-6568
▁brauner	-6569
▁schönes	-6570
▁student	-6571
apindales	-6572
▁Acehnese	-6573
▁Bezeichn	-6574
▁Gebacken	-6575
▁Hardwick	-6576
▁Mitchell	-6577
▁Phillipp	-6578
▁Property	-6579
▁Süßwaren	-6580
▁Valencia	-6581
▁benötigt	-6582
▁district	-6583
▁gebracht	-6584
▁sandwich	-6585
▁speziell	-6586
▁83646315.	-6587
▁Alvinegro	-6588
▁Betrieben	-6589
▁Greenland	-6590
▁Landkreis	-6591
▁Polnische	-6592
▁Reiseziel	-6593
▁Verfügung	-6594
▁Vertreter	-6595
▁getöteten	-6596
▁nationale	-6597
▁polnische	-6598
▁verkürzte	-6599
Bundesstaat	-6600
estandteile	-6601
▁1046-8188.	-6602
▁1588-2632.	-6603
▁1969-09-01	-6604
▁1980-04-23	-6605
▁Aethelwald	-6606
▁Brasiliens	-6607
▁Chicharrón	-6608
▁Cottingham	-6609
▁Italienern	-6610
▁Kommandeur	-6611
▁Verbindung	-6612
▁Zaanstreek	-6613
▁bearbeitet	-6614
▁beigesetzt	-6615
▁ehemaliger	-6616
▁Javanisches	-6617
▁Managements	-6618
▁Philippinos	-6619
▁Präsidentin	-6620
▁Springfield	-6621
▁angesiedelt	-6622
▁griechische	-6623
▁konstruiert	-6624
▁politischer	-6625
▁technischen	-6626
▁verwendeten	-6627
▁zertrümmert	-6628
Amsterdamsche	-6629
▁australische	-6630
▁Einheimischen	-6631
▁Obstkonserven	-6632
▁0-374-26131-8.	-6633
▁0-439-17685-9.	-6634
▁0-7653-0633-6.	-6635
▁1-56947-301-3.	-6636
▁Vorausgegangen	-6637
▁kolumbianisches	-6638
,9	-6639
41	-6640
Es	-6641
yk	-6642
▁#	-6643
-10	-6644
21.	-6645
48.	-6646
LCN	-6647
New	-6648
Pro	-6649
The	-6650
aff	-6651
bel	-6652
ery	-6653
ias	-6654
tis	-6655
urt	-6656
wär	-6657
▁Ai	-6658
▁Bü	-6659
▁SS	-6660
▁Ud	-6661
▁ed	-6662
▁ow	-6663
-585	-6664
1,92	-6665
Bere	-6666
Cune	-6667
Kurs	-6668
Mary	-6669
amon	-6670
apid	-6671
cabi	-6672
coln	-6673
dley	-6674
hend	-6675
ifiz	-6676
phen	-6677
schr	-6678
spra	-6679
udes	-6680
vens	-6681
ümer	-6682
▁22.	-6683
▁29.	-6684
▁360	-6685
▁Bew	-6686
▁Klo	-6687
▁Mod	-6688
▁Out	-6689
▁Sam	-6690
▁Scr	-6691
▁bak	-6692
▁hav	-6693
▁ihn	-6694
▁pie	-6695
80550	-6696
Manus	-6697
abian	-6698
aldem	-6699
arben	-6700
chäft	-6701
court	-6702
emper	-6703
ffset	-6704
ielen	-6705
inery	-6706
inese	-6707
rales	-6708
riest	-6709
sbury	-6710
tenza	-6711
utzen	-6712
zentr	-6713
▁"000	-6714
▁1.12	-6715
▁1411	-6716
▁1961	-6717
▁2012	-6718
▁250.	-6719
▁Aviv	-6720
▁Beth	-6721
▁Cont	-6722
▁Eber	-6723
▁Ered	-6724
▁Iren	-6725
▁LLCN	-6726
▁Laan	-6727
▁Nebr	-6728
▁Rene	-6729
▁René	-6730
▁Sara	-6731
▁Sind	-6732
▁Verw	-6733
▁alle	-6734
▁also	-6735
▁fung	-6736
▁home	-6737
-10-17	-6738
aduate	-6739
ireann	-6740
ivener	-6741
ivisie	-6742
teller	-6743
▁2011.	-6744
▁Aarus	-6745
▁Byron	-6746
▁Class	-6747
▁Damon	-6748
▁Dilts	-6749
▁Ethik	-6750
▁Finch	-6751
▁Liber	-6752
▁Osten	-6753
▁Rapid	-6754
▁Shinz	-6755
▁Tudyk	-6756
▁Vogel	-6757
▁known	-6758
▁owner	-6759
▁piece	-6760
▁teiln	-6761
Bereich	-6762
Familie	-6763
Romance	-6764
aldemok	-6765
solvent	-6766
▁121,92	-6767
▁Abhand	-6768
▁Aiport	-6769
▁Bodley	-6770
▁Buches	-6771
▁Bürger	-6772
▁Calero	-6773
▁Collin	-6774
▁Curtis	-6775
▁Dimmit	-6776
▁Fische	-6777
▁Kampff	-6778
▁Karben	-6779
▁McCune	-6780
▁Provin	-6781
▁Romano	-6782
▁Samuel	-6783
▁Triest	-6784
▁Unione	-6785
▁Varese	-6786
▁Vorwär	-6787
▁Wayans	-6788
▁dienen	-6789
▁führte	-6790
▁nächst	-6791
▁promov	-6792
▁starke	-6793
0025-585	-6794
Medaille	-6795
Programm	-6796
chäftigt	-6797
gemeinde	-6798
ifiziert	-6799
ternativ	-6800
▁4980550	-6801
▁Alianza	-6802
▁Kloster	-6803
▁Library	-6804
▁Lincoln	-6805
▁Maccabi	-6806
▁McManus	-6807
▁Modling	-6808
▁Oregano	-6809
▁Potenza	-6810
▁Stephen	-6811
▁Stevens	-6812
▁Udinese	-6813
▁batagor	-6814
▁nächste	-6815
▁pudding	-6816
▁verlieh	-6817
▁Öffentl	-6818
ification	-6819
▁45644811	-6820
▁Congress	-6821
▁Eberhard	-6822
▁Eigentum	-6823
▁Graduate	-6824
▁Harcourt	-6825
▁Nebraska	-6826
▁Personen	-6827
▁Plantain	-6828
▁Zitronen	-6829
▁designed	-6830
▁dänische	-6831
▁geheimen	-6832
▁gestellt	-6833
schließend	-6834
ungsdienst	-6835
▁57392246.	-6836
▁Absolvent	-6837
▁Arapiraca	-6838
▁Doktorand	-6839
▁Machinery	-6840
▁Monarchie	-6841
▁Scrivener	-6842
▁Triestina	-6843
▁Vorsitzen	-6844
▁Wirkstoff	-6845
Flugmission	-6846
graduierten	-6847
▁Chicharron	-6848
▁Dalpatbhai	-6849
▁Eigentümer	-6850
▁Eredivisie	-6851
▁Turkmenbas	-6852
aldemokraten	-6853
▁Greenlandic	-6854
▁Turkmenabat	-6855
▁Zubereitung	-6856
▁offiziellen	-6857
▁sprechenden	-6858
▁Anschließend	-6859
▁Bestandteile	-6860
▁Hauptgericht	-6861
▁architecture	-6862
Flugzeugträger	-6863
▁0-439-17685-9	-6864
▁Asphaltfläche	-6865
Flugzeugträgern	-6866
▁Classification	-6867
▁Transportation	-6868
▁Flugzeugträgern	-6869
▁Kurzgeschichten	-6870
▁Nachbargemeinde	-6871
▁Nationalfußball	-6872
2,	-6873
8,	-6874
En	-6875
Ho	-6876
Ro	-6877
gh	-6878
hi	-6879
ib	-6880
öd	-6881
14.	-6882
17.	-6883
439	-6884
Ind	-6885
Tud	-6886
Typ	-6887
aná	-6888
asa	-6889
roe	-6890
uem	-6891
umm	-6892
ölf	-6893
▁CA	-6894
▁Fl	-6895
▁Sü	-6896
▁pa	-6897
▁ät	-6898
392.	-6899
ISSN	-6900
alan	-6901
amie	-6902
arts	-6903
atur	-6904
diss	-6905
hito	-6906
idig	-6907
piel	-6908
quel	-6909
reis	-6910
ufel	-6911
▁ATA	-6912
▁Dän	-6913
▁Eas	-6914
▁Jon	-6915
▁Kel	-6916
▁Mao	-6917
▁Mus	-6918
▁Möd	-6919
▁Tor	-6920
▁UTC	-6921
▁arb	-6922
▁ber	-6923
▁inc	-6924
▁who	-6925
00,0.	-6926
Route	-6927
Tudor	-6928
alled	-6929
anics	-6930
bschr	-6931
ersch	-6932
haupt	-6933
lotta	-6934
range	-6935
warts	-6936
änger	-6937
▁1873	-6938
▁1936	-6939
▁8820	-6940
▁Bryn	-6941
▁Erie	-6942
▁Fair	-6943
▁Flug	-6944
▁Gest	-6945
▁Kell	-6946
▁Lane	-6947
▁Mind	-6948
▁Nasa	-6949
▁Nock	-6950
▁Prim	-6951
▁Pure	-6952
▁Rock	-6953
▁Rona	-6954
▁Werk	-6955
▁area	-6956
▁gula	-6957
▁have	-6958
▁letz	-6959
▁long	-6960
▁taro	-6961
▁wenn	-6962
Offset	-6963
Partei	-6964
achten	-6965
amergh	-6966
astelt	-6967
azität	-6968
dienst	-6969
istrat	-6970
museum	-6971
▁1966.	-6972
▁Arron	-6973
▁Arrow	-6974
▁Bloom	-6975
▁Eines	-6976
▁Süden	-6977
▁Weber	-6978
▁bakso	-6979
▁gegen	-6980
▁trägt	-6981
▁wohnt	-6982
▁zwölf	-6983
Ordnung	-6984
etrovir	-6985
gesetzt	-6986
ikation	-6987
osition	-6988
ufelung	-6989
▁2989,0	-6990
▁Ammann	-6991
▁Gesetz	-6992
▁Kelvin	-6993
▁Manley	-6994
▁Monroe	-6995
▁Musuem	-6996
▁Orange	-6997
▁Paraná	-6998
▁Persea	-6999
▁Sterne	-7000
▁called	-7001
▁folgen	-7002
▁führen	-7003
▁großen	-7004
▁nutzen	-7005
▁selben	-7006
▁sendet	-7007
▁tender	-7008
▁äthiop	-7009
Hospital	-7010
Variante	-7011
befindet	-7012
morcilla	-7013
programm	-7014
▁1930-01	-7015
▁3310,0.	-7016
▁4349,0.	-7017
▁Eastern	-7018
▁Handels	-7019
▁Mödling	-7020
▁Vereins	-7021
▁Während	-7022
▁mehrere	-7023
Landebahn	-7024
Politiker	-7025
dissement	-7026
zentriert	-7027
▁93645978	-7028
▁Englands	-7029
▁Gerichte	-7030
▁Jacabian	-7031
▁Laurales	-7032
▁Nockalls	-7033
▁Pallotta	-7034
▁Shuvalan	-7035
▁Vorwarts	-7036
▁Vorwärts	-7037
▁arbeiten	-7038
▁östliche	-7039
Kompliment	-7040
bschrauber	-7041
▁0965-2140	-7042
▁318875313	-7043
▁46451790.	-7044
▁76798317.	-7045
▁Appletone	-7046
▁Blackburn	-7047
▁Cubanelle	-7048
▁Heimatort	-7049
▁Javenesen	-7050
▁Mechanics	-7051
▁Verteidig	-7052
▁bisherige	-7053
▁färöische	-7054
▁gebastelt	-7055
▁gedruckte	-7056
▁0001-8392.	-7057
▁1558-2868.	-7058
▁1933-10-17	-7059
▁Bloomsbury	-7060
▁Hochschule	-7061
▁Kellamergh	-7062
▁eingesetzt	-7063
▁gegründete	-7064
▁nächstgele	-7065
▁tamilische	-7066
▁teilnehmen	-7067
▁Kunstmuseum	-7068
▁amatriciana	-7069
▁beschäftigt	-7070
▁promovierte	-7071
▁texanischen	-7072
▁Turkmenbashi	-7073
▁Verteufelung	-7074
▁spezifischer	-7075
-1-4165-4253-7	-7076
gesellschaften	-7077
▁Arrondissement	-7078
▁kalifornischen	-7079
▁Fruchtkonserven	-7080
55	-7081
99	-7082
há	-7083
▁É	-7084
-02	-7085
-08	-7086
-18	-7087
064	-7088
084	-7089
23.	-7090
ACM	-7091
AIP	-7092
ank	-7093
era	-7094
gle	-7095
hel	-7096
lei	-7097
stö	-7098
áil	-7099
öff	-7100
▁2,	-7101
▁5.	-7102
▁Ní	-7103
▁Of	-7104
▁gr	-7105
▁un	-7106
370.	-7107
8015	-7108
Name	-7109
Rind	-7110
abei	-7111
ajib	-7112
anao	-7113
ause	-7114
azak	-7115
cara	-7116
ción	-7117
dars	-7118
esda	-7119
fino	-7120
führ	-7121
hale	-7122
hála	-7123
igor	-7124
ized	-7125
lton	-7126
lubu	-7127
ocia	-7128
ower	-7129
rage	-7130
team	-7131
wert	-7132
zahl	-7133
zene	-7134
íona	-7135
üsse	-7136
▁"0-	-7137
▁187	-7138
▁233	-7139
▁441	-7140
▁560	-7141
▁733	-7142
▁814	-7143
▁ADO	-7144
▁AKA	-7145
▁Aki	-7146
▁Aso	-7147
▁Bed	-7148
▁Dar	-7149
▁FAS	-7150
▁Lic	-7151
▁Ost	-7152
▁SSD	-7153
▁Ski	-7154
▁SpA	-7155
▁Str	-7156
▁Tar	-7157
▁Zim	-7158
▁bil	-7159
▁cat	-7160
▁eig	-7161
Figur	-7162
abbrv	-7163
agoas	-7164
alier	-7165
azing	-7166
derum	-7167
leger	-7168
sober	-7169
stöck	-7170
uated	-7171
zenen	-7172
▁1.98	-7173
▁1982	-7174
▁2011	-7175
▁9064	-7176
▁Aber	-7177
▁Band	-7178
▁Bozo	-7179
▁Dáil	-7180
▁Haag	-7181
▁Lame	-7182
▁Pier	-7183
▁Zwie	-7184
▁noch	-7185
▁that	-7186
▁weit	-7187
▁were	-7188
Besatz	-7189
Publik	-7190
agamie	-7191
angkab	-7192
arbige	-7193
ations	-7194
iction	-7195
reated	-7196
sprach	-7197
▁1909.	-7198
▁1910.	-7199
▁1931.	-7200
▁1982.	-7201
▁3360.	-7202
▁Asian	-7203
▁Batak	-7204
▁Dhála	-7205
▁Frage	-7206
▁Glend	-7207
▁Inder	-7208
▁Kreis	-7209
▁Media	-7210
▁Najib	-7211
▁Razak	-7212
▁Salat	-7213
▁Schul	-7214
▁Spain	-7215
▁Vigor	-7216
▁dabei	-7217
▁eigen	-7218
▁floor	-7219
▁genau	-7220
▁georg	-7221
▁klubu	-7222
▁nicht	-7223
▁organ	-7224
▁pages	-7225
▁stumm	-7226
▁woher	-7227
Antonio	-7228
Gattung	-7229
Piloten	-7230
oldaten	-7231
opoulos	-7232
ordnung	-7233
uperhel	-7234
▁148015	-7235
▁2215,0	-7236
▁AAIDBI	-7237
▁Asocia	-7238
▁Beding	-7239
▁Críona	-7240
▁Flüsse	-7241
▁Fulton	-7242
▁Gesell	-7243
▁Hotels	-7244
▁Kämpfe	-7245
▁Lemper	-7246
▁Number	-7247
▁Obwohl	-7248
▁Romane	-7249
▁Sparta	-7250
▁Sports	-7251
▁Städte	-7252
▁Zimmer	-7253
▁antrat	-7254
▁letzte	-7255
▁siomay	-7256
egorized	-7257
religion	-7258
▁1974-08	-7259
▁2215,0.	-7260
▁3800,0.	-7261
▁3800.0.	-7262
▁9064084	-7263
▁Akihito	-7264
▁Alagoas	-7265
▁Amazing	-7266
▁Astérix	-7267
▁Bryning	-7268
▁Delfino	-7269
▁Limited	-7270
▁Pescara	-7271
▁Prequel	-7272
▁Primera	-7273
▁Zwiebel	-7274
▁anderen	-7275
▁country	-7276
▁welcher	-7277
▁Éireann	-7278
Einwohner	-7279
▁3078,48.	-7280
▁3992,88.	-7281
▁46451790	-7282
▁78771100	-7283
▁Bethesda	-7284
▁Dhálaigh	-7285
▁Gebäudes	-7286
▁Leiterin	-7287
▁Metapans	-7288
▁Mindanao	-7289
▁Rutaceae	-7290
▁bronzene	-7291
▁einsetzt	-7292
▁situated	-7293
▁weiteres	-7294
▁wiederum	-7295
darsteller	-7296
soberhaupt	-7297
▁1932-07-2	-7298
▁49805501.	-7299
▁78771100.	-7300
▁Desteapta	-7301
▁Flugzeuge	-7302
▁Füllungen	-7303
▁Glendower	-7304
▁Haputhale	-7305
▁Kapazität	-7306
▁Minangkab	-7307
▁Nurturing	-7308
▁Outagamie	-7309
▁Reference	-7310
▁Ursprungs	-7311
▁bronzenen	-7312
▁kubanelle	-7313
▁südlichen	-7314
Publikation	-7315
Rindfleisch	-7316
geschrieben	-7317
▁0269-9370.	-7318
▁1732-2421.	-7319
▁1930-01-20	-7320
▁Abhandlung	-7321
▁Australier	-7322
▁Mannschaft	-7323
▁Schlachten	-7324
▁Verwendung	-7325
▁bisheriger	-7326
Gedenkstätte	-7327
▁"0-374-2613	-7328
▁Bedingungen	-7329
▁Gesetzgeber	-7330
▁Publikation	-7331
▁Verdichtete	-7332
▁Vietnamesen	-7333
▁betriebenen	-7334
▁categorized	-7335
▁eingestellt	-7336
▁nordöstlich	-7337
▁Contributing	-7338
▁Gesellschaft	-7339
▁Pavloopoulos	-7340
▁konkurrierte	-7341
▁konzentriert	-7342
▁lateinischen	-7343
▁studentische	-7344
▁Fußballverein	-7345
▁Pensionierung	-7346
▁einheimischen	-7347
▁indonesisches	-7348
▁komprimierten	-7349
▁philippinisch	-7350
▁ursprüngliche	-7351
-1-4165-4253-7"	-7352
▁traditionellen	-7353
▁Nationalsprache	-7354
▁Staatsoberhaupt	-7355
8-	-7356
DL	-7357
rd	-7358
we	-7359
-03	-7360
ACY	-7361
ASK	-7362
Aso	-7363
Ast	-7364
BCT	-7365
baz	-7366
beg	-7367
eak	-7368
frü	-7369
its	-7370
kom	-7371
lia	-7372
ohn	-7373
oly	-7374
oss	-7375
ous	-7376
pte	-7377
urd	-7378
vis	-7379
von	-7380
zia	-7381
▁BC	-7382
▁Em	-7383
▁NV	-7384
▁Ni	-7385
▁ft	-7386
▁us	-7387
▁zä	-7388
-878	-7389
173.	-7390
3226	-7391
Roma	-7392
Sham	-7393
Univ	-7394
able	-7395
adeh	-7396
bani	-7397
cion	-7398
deen	-7399
dert	-7400
ging	-7401
hbaz	-7402
ieti	-7403
imme	-7404
immt	-7405
inae	-7406
inos	-7407
kanz	-7408
mill	-7409
oper	-7410
pert	-7411
poli	-7412
prov	-7413
uila	-7414
utal	-7415
über	-7416
▁1.8	-7417
▁153	-7418
▁215	-7419
▁248	-7420
▁3.3	-7421
▁Asō	-7422
▁BSc	-7423
▁CFC	-7424
▁Fak	-7425
▁Hab	-7426
▁Jep	-7427
▁PDL	-7428
▁abh	-7429
▁aff	-7430
▁eth	-7431
▁sal	-7432
▁tot	-7433
-02-2	-7434
Hambg	-7435
Semin	-7436
anted	-7437
avson	-7438
edikt	-7439
entiv	-7440
erker	-7441
icher	-7442
jamin	-7443
schau	-7444
ändes	-7445
ätten	-7446
▁1.52	-7447
▁18,0	-7448
▁1818	-7449
▁1865	-7450
▁3684	-7451
▁Beis	-7452
▁Bern	-7453
▁Burg	-7454
▁Ever	-7455
▁Form	-7456
▁Gust	-7457
▁Hier	-7458
▁Iron	-7459
▁KACY	-7460
▁Karr	-7461
▁Kate	-7462
▁Kend	-7463
▁LASK	-7464
▁Linz	-7465
▁Mais	-7466
▁Mans	-7467
▁SBCT	-7468
▁dazu	-7469
▁rund	-7470
-03-15	-7471
-11-18	-7472
8-3226	-7473
Asocia	-7474
Dollar	-7475
Shamal	-7476
andelt	-7477
beginn	-7478
dessen	-7479
farben	-7480
fügbar	-7481
gehend	-7482
ichter	-7483
ishers	-7484
schlag	-7485
▁1.533	-7486
▁1932.	-7487
▁1987.	-7488
▁3800.	-7489
▁AMAHE	-7490
▁Champ	-7491
▁Colón	-7492
▁EISSN	-7493
▁Handw	-7494
▁Hause	-7495
▁Merit	-7496
▁Pedas	-7497
▁Polen	-7498
▁Route	-7499
▁Teile	-7500
▁Valor	-7501
▁Zuvor	-7502
▁beste	-7503
▁deuts	-7504
▁diese	-7505
▁heute	-7506
▁ident	-7507
▁north	-7508
▁padeh	-7509
▁roter	-7510
▁speak	-7511
Manager	-7512
baniyah	-7513
erschaf	-7514
kanzlei	-7515
kenhead	-7516
minster	-7517
oneiche	-7518
perties	-7519
piloten	-7520
provinz	-7521
utalist	-7522
▁4000,0	-7523
▁518,0.	-7524
▁597,0.	-7525
▁ATISET	-7526
▁Aguila	-7527
▁Bücher	-7528
▁Dienst	-7529
▁Empoli	-7530
▁Fakten	-7531
▁Hardie	-7532
▁Jepson	-7533
▁Lentiv	-7534
▁Pierce	-7535
▁Rafael	-7536
▁Schwar	-7537
▁Shinzo	-7538
▁Stimme	-7539
▁Travis	-7540
▁brasil	-7541
▁diesen	-7542
▁hinter	-7543
▁orange	-7544
▁vielen	-7545
▁worden	-7546
Alcatraz	-7547
Superhel	-7548
ietnames	-7549
iteratur	-7550
▁13017,0	-7551
▁2776,0.	-7552
▁Autorin	-7553
▁Everett	-7554
▁Irlands	-7555
▁Kapitol	-7556
▁Kendall	-7557
▁Lamezia	-7558
▁Macmill	-7559
▁Nummern	-7560
▁Rezepte	-7561
▁Shehbaz	-7562
▁Stätten	-7563
▁Tarrant	-7564
▁Zuständ	-7565
▁created	-7566
▁fiktive	-7567
▁handelt	-7568
▁lokalen	-7569
▁station	-7570
▁veranst	-7571
▁1473-557	-7572
▁1865-878	-7573
▁32024459	-7574
▁8805735.	-7575
▁Aberdeen	-7576
▁Benedikt	-7577
▁Fairhead	-7578
▁Germania	-7579
▁Karriere	-7580
▁Postcode	-7581
▁Programm	-7582
▁Verleger	-7583
▁Warschau	-7584
▁färöisch	-7585
▁salvador	-7586
▁tenanted	-7587
Gequetscht	-7588
Grantville	-7589
isterschaf	-7590
▁1998-07-2	-7591
▁32024459.	-7592
▁45644811.	-7593
▁51969173.	-7594
▁87000823.	-7595
▁Baubeginn	-7596
▁Columbian	-7597
▁Entworfen	-7598
▁Filipinos	-7599
▁Gustavson	-7600
▁Magistrat	-7601
▁Malaysian	-7602
▁Senatorin	-7603
▁beliebten	-7604
▁folgenden	-7605
▁verfügbar	-7606
▁vietnames	-7607
etrovirinae	-7608
schließlich	-7609
▁1360-0443.	-7610
▁1923-11-18	-7611
▁1932-03-15	-7612
▁Birkenhead	-7613
▁Bundesliga	-7614
▁Habbaniyah	-7615
▁Handwerker	-7616
▁Landesliga	-7617
▁Lentivirus	-7618
▁Properties	-7619
▁Publishers	-7620
▁Sapindales	-7621
▁Schoneiche	-7622
▁Vermicelli	-7623
▁akademisch	-7624
▁gebackenen	-7625
▁gequetscht	-7626
▁vorausging	-7627
▁weitgehend	-7628
▁Beeinflusst	-7629
▁Botschafter	-7630
▁Schulfarben	-7631
▁Universitat	-7632
▁Westminster	-7633
▁eingedrückt	-7634
▁Abhandlungen	-7635
▁Istanbulspor	-7636
▁Publications	-7637
▁Ursprungsort	-7638
▁bemerkenswer	-7639
▁komprimierte	-7640
▁konservative	-7641
▁pensionierte	-7642
▁veranstaltet	-7643
▁Öffentlicher	-7644
▁0-439-17684-0	-7645
▁Staatskanzlei	-7646
▁Zuständigkeit	-7647
▁pensionierter	-7648
Standortkennung	-7649
▁"0-374-26131-8	-7650
▁nächstgelegene	-7651
▁Großbritanniens	-7652
▁Hauptdarsteller	-7653
▁Technologischen	-7654
▁veröffentlichen	-7655
")	-7656
.8	-7657
3,	-7658
Ad	-7659
Bl	-7660
Kl	-7661
Pa	-7662
VI	-7663
10.	-7664
110	-7665
12.	-7666
23"	-7667
65.	-7668
Lou	-7669
Org	-7670
Sch	-7671
arō	-7672
asy	-7673
bro	-7674
dam	-7675
ito	-7676
jek	-7677
lem	-7678
mun	-7679
ofd	-7680
wen	-7681
▁7.	-7682
▁97	-7683
▁CF	-7684
▁Oy	-7685
▁PS	-7686
▁TS	-7687
▁UK	-7688
▁kl	-7689
▁lu	-7690
92.8	-7691
Form	-7692
ISBN	-7693
OCLC	-7694
Türk	-7695
VIAG	-7696
Vern	-7697
aigh	-7698
aint	-7699
alot	-7700
atot	-7701
auen	-7702
auft	-7703
avor	-7704
fest	-7705
gten	-7706
herd	-7707
holt	-7708
iona	-7709
ique	-7710
itur	-7711
klus	-7712
käse	-7713
lang	-7714
lena	-7715
mehl	-7716
odon	-7717
oord	-7718
ople	-7719
opod	-7720
ousi	-7721
pher	-7722
ußer	-7723
weih	-7724
▁"87	-7725
▁142	-7726
▁219	-7727
▁26.	-7728
▁3.8	-7729
▁618	-7730
▁672	-7731
▁877	-7732
▁ABl	-7733
▁Are	-7734
▁Bav	-7735
▁Bil	-7736
▁Bra	-7737
▁Cep	-7738
▁Cit	-7739
▁Fol	-7740
▁Hüt	-7741
▁Nak	-7742
▁Rat	-7743
▁Wer	-7744
▁abH	-7745
▁nur	-7746
19,0.	-7747
3523.	-7748
AMAHE	-7749
Above	-7750
Boden	-7751
Engle	-7752
Genre	-7753
Louis	-7754
adori	-7755
askas	-7756
edoch	-7757
enten	-7758
enton	-7759
iliat	-7760
itoit	-7761
kommt	-7762
liche	-7763
ohner	-7764
ossil	-7765
otter	-7766
ragen	-7767
risis	-7768
tenaw	-7769
usätz	-7770
üssen	-7771
▁12,0	-7772
▁1510	-7773
▁2439	-7774
▁25,0	-7775
▁2900	-7776
▁34,0	-7777
▁Barb	-7778
▁Dhal	-7779
▁Edel	-7780
▁Foun	-7781
▁Hays	-7782
▁Klub	-7783
▁Made	-7784
▁Owen	-7785
▁Rund	-7786
▁Smil	-7787
▁Supp	-7788
▁Wahr	-7789
▁char	-7790
▁tarō	-7791
▁used	-7792
1-8392	-7793
APGPAC	-7794
Klasse	-7795
Organe	-7796
ativen	-7797
atotes	-7798
avorit	-7799
cheibe	-7800
ekannt	-7801
fasste	-7802
rusfrü	-7803
wertes	-7804
▁1.982	-7805
▁2014,	-7806
▁3360,	-7807
▁900,0	-7808
▁Asiat	-7809
▁Books	-7810
▁Creek	-7811
▁Drake	-7812
▁Eiern	-7813
▁Halle	-7814
▁Hoofd	-7815
▁Leute	-7816
▁Markt	-7817
▁Saint	-7818
▁Teams	-7819
▁Tinte	-7820
▁alias	-7821
▁gesam	-7822
▁latin	-7823
▁lulia	-7824
▁roten	-7825
▁statt	-7826
▁süßer	-7827
▁there	-7828
000823"	-7829
Pfeffer	-7830
ailable	-7831
alotten	-7832
halopod	-7833
klusive	-7834
stermin	-7835
tenkäse	-7836
zeichen	-7837
▁1121,0	-7838
▁3800.0	-7839
▁44114.	-7840
▁Abitur	-7841
▁Altern	-7842
▁Aplena	-7843
▁Braune	-7844
▁Chieti	-7845
▁Citrus	-7846
▁Criona	-7847
▁Crisis	-7848
▁Dessen	-7849
▁Indian	-7850
▁LaVern	-7851
▁Marine	-7852
▁Oyster	-7853
▁bilden	-7854
▁gebürt	-7855
▁genaue	-7856
▁german	-7857
▁hinaus	-7858
▁lokale	-7859
Flugzeug	-7860
Weymouth	-7861
ichtiger	-7862
isträger	-7863
▁0236-52	-7864
▁2702,0.	-7865
▁3500.0.	-7866
▁3990,0.	-7867
▁4000,0.	-7868
▁Alaskas	-7869
▁Ataturk	-7870
▁Cowpher	-7871
▁Darüber	-7872
▁Dämonym	-7873
▁Einweih	-7874
▁Favorit	-7875
▁Japaner	-7876
▁Konserv	-7877
▁Marousi	-7878
▁Version	-7879
▁airbase	-7880
▁andalus	-7881
▁beendet	-7882
▁folgten	-7883
▁gesetzt	-7884
▁letzter	-7885
▁verteil	-7886
Abkürzung	-7887
Abschluss	-7888
Rebellion	-7889
Regierung	-7890
Superheld	-7891
heimische	-7892
usätzlich	-7893
▁0025-585	-7894
▁Admisham	-7895
▁Archarya	-7896
▁Barbetti	-7897
▁Bavarian	-7898
▁Bewohner	-7899
▁Dhalaigh	-7900
▁Doktorat	-7901
▁Fountain	-7902
▁Gehackte	-7903
▁Georgien	-7904
▁Institue	-7905
▁Johannis	-7906
▁Maismehl	-7907
▁Nakadori	-7908
▁Phillipe	-7909
▁Province	-7910
▁Shepherd	-7911
▁Smilodon	-7912
▁Wolfmann	-7913
▁deutsche	-7914
▁englisch	-7915
▁ethische	-7916
▁gelegene	-7917
▁position	-7918
▁typische	-7919
▁verdicht	-7920
Asociación	-7921
operierten	-7922
rusfrüchte	-7923
sprachigen	-7924
▁0567-7920	-7925
▁1473-5571	-7926
▁90640840.	-7927
▁AlmaMater	-7928
▁Astronaut	-7929
▁Blackwell	-7930
▁Edelstein	-7931
▁Gebürtige	-7932
▁Macmillan	-7933
▁Potatotes	-7934
▁Washtenaw	-7935
▁almaMater	-7936
▁character	-7937
▁ehemalige	-7938
▁fungieren	-7939
▁operative	-7940
▁richtiger	-7941
▁schwarzen	-7942
▁teilnimmt	-7943
präsidenten	-7944
▁"87000823"	-7945
▁1473-5571.	-7946
▁1974-08-01	-7947
▁Asiatische	-7948
▁Asociacion	-7949
▁Cephalopod	-7950
▁Hüttenkäse	-7951
▁Javanische	-7952
▁Provinzrat	-7953
▁Schalotten	-7954
▁gebratenen	-7955
▁malaiische	-7956
Organisation	-7957
ombardierung	-7958
▁Alternative	-7959
▁Amerikanern	-7960
▁Australiern	-7961
▁Hoofdklasse	-7962
▁Marktführer	-7963
▁Stockwerken	-7964
▁Testpiloten	-7965
▁Wahrzeichen	-7966
▁bayerischen	-7967
▁organisiert	-7968
▁verstorbene	-7969
▁äthiopische	-7970
Universitäten	-7971
▁Hubschrauber	-7972
▁Konservative	-7973
▁Phillippinen	-7974
▁Vorsitzender	-7975
▁konkurrieren	-7976
▁positioniert	-7977
▁0-439-92550-9	-7978
▁Bundesstaates	-7979
▁Führungsorgan	-7980
▁Hauptreligion	-7981
▁Konservativen	-7982
▁Zitrusfrüchte	-7983
▁andalusischen	-7984
▁Dessertgericht	-7985
▁einschließlich	-7986
▁Postgraduierten	-7987
▁Standortkennung	-7988
▁bemerkenswertes	-7989
,5	-7990
,7	-7991
Ay	-7992
CQ	-7993
ID	-7994
Kn	-7995
Me	-7996
OU	-7997
PN	-7998
TW	-7999
tı	-8000
ña	-8001
üh	-8002
Şe	-8003
▁İ	-8004
-13	-8005
13.	-8006
370	-8007
8,0	-8008
9.0	-8009
Ajo	-8010
Bet	-8011
Des	-8012
Knö	-8013
OUP	-8014
Tex	-8015
aan	-8016
ajw	-8017
bei	-8018
bet	-8019
cel	-8020
duk	-8021
eim	-8022
ext	-8023
las	-8024
mad	-8025
mpf	-8026
osh	-8027
oux	-8028
ple	-8029
ugh	-8030
zhe	-8031
ıtı	-8032
▁),	-8033
▁04	-8034
▁63	-8035
▁65	-8036
▁GR	-8037
▁ID	-8038
▁Mu	-8039
▁NY	-8040
▁Tr	-8041
▁Wo	-8042
▁av	-8043
▁pe	-8044
▁so	-8045
▁Şe	-8046
6110	-8047
Ayam	-8048
CQAG	-8049
Club	-8050
Cont	-8051
adao	-8052
afür	-8053
ahne	-8054
alas	-8055
ames	-8056
andt	-8057
anka	-8058
aure	-8059
barn	-8060
bohn	-8061
büro	-8062
eckt	-8063
eins	-8064
eint	-8065
eren	-8066
funk	-8067
ices	-8068
iety	-8069
irst	-8070
isse	-8071
itor	-8072
meer	-8073
ontr	-8074
opul	-8075
oshi	-8076
pten	-8077
raum	-8078
satz	-8079
säch	-8080
tell	-8081
ugal	-8082
uits	-8083
währ	-8084
zpat	-8085
ämon	-8086
ühmt	-8087
▁"03	-8088
▁8,0	-8089
▁ASD	-8090
▁Cap	-8091
▁Din	-8092
▁Gir	-8093
▁Jes	-8094
▁Las	-8095
▁Peş	-8096
▁Pur	-8097
▁Soc	-8098
▁bim	-8099
▁squ	-8100
▁wir	-8101
▁İst	-8102
-130.	-8103
Centr	-8104
Namen	-8105
South	-8106
Texas	-8107
aiser	-8108
arrar	-8109
arten	-8110
blich	-8111
egung	-8112
enner	-8113
erste	-8114
gelie	-8115
hoorn	-8116
ilige	-8117
imaan	-8118
leine	-8119
letzt	-8120
ology	-8121
omben	-8122
steht	-8123
tyrer	-8124
zzard	-8125
▁1999	-8126
▁2,19	-8127
▁2007	-8128
▁3090	-8129
▁52,0	-8130
▁8,0.	-8131
▁Afro	-8132
▁Aman	-8133
▁Ando	-8134
▁Birr	-8135
▁Blau	-8136
▁Cant	-8137
▁Eben	-8138
▁Empf	-8139
▁Fant	-8140
▁Linn	-8141
▁Nola	-8142
▁Peso	-8143
▁Peña	-8144
▁Rajw	-8145
▁SarD	-8146
▁blau	-8147
▁curr	-8148
▁grön	-8149
▁kurd	-8150
▁lila	-8151
▁next	-8152
▁prim	-8153
-17684	-8154
ATISET	-8155
Indien	-8156
Knödel	-8157
Mutter	-8158
alliga	-8159
bohnen	-8160
celona	-8161
hammad	-8162
stellt	-8163
udefin	-8164
▁1411.	-8165
▁1957,	-8166
▁1962,	-8167
▁1963,	-8168
▁1981.	-8169
▁1998.	-8170
▁3.500	-8171
▁3990.	-8172
▁600,0	-8173
▁Anıtı	-8174
▁Apfel	-8175
▁Außer	-8176
▁Berry	-8177
▁Doshi	-8178
▁Drehs	-8179
▁GROUP	-8180
▁Italy	-8181
▁Laird	-8182
▁Malik	-8183
▁Nacht	-8184
▁Plätz	-8185
▁Regel	-8186
▁Sahne	-8187
▁Salle	-8188
▁Tadao	-8189
▁Waren	-8190
▁beige	-8191
▁dafür	-8192
▁dämon	-8193
▁inclu	-8194
▁klass	-8195
▁popul	-8196
▁saure	-8197
▁zählt	-8198
1-8392"	-8199
Astérix	-8200
Centrum	-8201
Gebäude	-8202
derbaan	-8203
führers	-8204
heriger	-8205
ierende	-8206
iliated	-8207
issport	-8208
währung	-8209
zpatron	-8210
▁"0-439	-8211
▁1.524.	-8212
▁146110	-8213
▁3.500.	-8214
▁3048,0	-8215
▁3310,0	-8216
▁497,0.	-8217
▁600,0.	-8218
▁8820,0	-8219
▁Barrow	-8220
▁Blanco	-8221
▁Diesem	-8222
▁Farrar	-8223
▁Fertig	-8224
▁Fruits	-8225
▁Füssen	-8226
▁Giroux	-8227
▁Jahren	-8228
▁Kaiser	-8229
▁Legion	-8230
▁Licita	-8231
▁Nieren	-8232
▁Orthor	-8233
▁Palast	-8234
▁Purple	-8235
▁Rotter	-8236
▁Straus	-8237
▁Straße	-8238
▁Südost	-8239
▁Weizen	-8240
▁beiste	-8241
▁gesetz	-8242
▁heraus	-8243
▁jedoch	-8244
▁kosten	-8245
▁pakora	-8246
▁people	-8247
▁romano	-8248
▁setzte	-8249
▁treten	-8250
▁vieler	-8251
▁vierte	-8252
funkhaus	-8253
geliehen	-8254
ianische	-8255
isziplin	-8256
sächlich	-8257
zheilige	-8258
▁1533.0.	-8259
▁1800.0.	-8260
▁2900.0.	-8261
▁3360,12	-8262
▁Brenner	-8263
▁Crewman	-8264
▁Einsatz	-8265
▁Fantasy	-8266
▁Gestein	-8267
▁Hazzard	-8268
▁Keralas	-8269
▁Klimaan	-8270
▁Lasalle	-8271
▁Libyens	-8272
▁Qarabağ	-8273
▁Rafique	-8274
▁Rajwana	-8275
▁eigener	-8276
▁gemeins	-8277
▁oberste	-8278
▁spricht	-8279
▁zuletzt	-8280
Alvinegro	-8281
Desteapta	-8282
anbulspor	-8283
formation	-8284
ländische	-8285
regierung	-8286
▁3360.12.	-8287
▁560090".	-8288
▁Afroamer	-8289
▁Amateure	-8290
▁Außerdem	-8291
▁Beispiel	-8292
▁Benitoit	-8293
▁Cantania	-8294
▁Geländes	-8295
▁Madrider	-8296
▁Medaille	-8297
▁Muhammad	-8298
▁Märtyrer	-8299
▁Nachbarn	-8300
▁Neudefin	-8301
▁Portugal	-8302
▁Stadtrat	-8303
▁Wirkungs	-8304
▁entsteht	-8305
▁erhalten	-8306
▁herkommt	-8307
▁irischen	-8308
▁property	-8309
▁verwandt	-8310
alternativ	-8311
hauptstadt	-8312
▁0001-8392	-8313
▁1966-02-2	-8314
▁2158-3226	-8315
▁Alexander	-8316
▁Anführers	-8317
▁Aufschlag	-8318
▁Barcelona	-8319
▁Empfänger	-8320
▁Letzteres	-8321
▁Madeleine	-8322
▁Nachtisch	-8323
▁Plätzchen	-8324
▁Rotterdam	-8325
▁Singapurs	-8326
▁Solanalen	-8327
▁available	-8328
▁bevölkert	-8329
▁erscheint	-8330
▁indischer	-8331
▁inklusive	-8332
▁verwenden	-8333
▁Şehitleri	-8334
ministerium	-8335
▁0236-5294.	-8336
▁1998-07-21	-8337
▁318875313.	-8338
▁Bezeichner	-8339
▁Bisheriger	-8340
▁Favoritner	-8341
▁Landeschef	-8342
▁Nachspeise	-8343
▁Ostprovinz	-8344
▁Sportarten	-8345
▁Williamson	-8346
▁affiliated	-8347
▁entstanden	-8348
▁germanisch	-8349
Contributing	-8350
utalistische	-8351
▁"0001-8392"	-8352
▁Bezeichnung	-8353
▁Drehscheibe	-8354
▁Neuseelands	-8355
▁Oberflächen	-8356
▁Tennissport	-8357
▁Versammlung	-8358
▁ausgeliehen	-8359
amerikanische	-8360
▁"0-439-17684	-8361
▁Klimaanlagen	-8362
▁Meisterschaf	-8363
▁Mitarbeitern	-8364
▁Nierenbohnen	-8365
▁Regionalliga	-8366
▁Rundfunkhaus	-8367
▁SarDampfalli	-8368
▁Schutzpatron	-8369
▁Wasserfläche	-8370
▁amerikanisch	-8371
▁chinesisches	-8372
▁verdichteter	-8373
▁İstanbulspor	-8374
ungsdienstband	-8375
▁0-374-26131-8	-8376
▁Bombardierung	-8377
▁Landeswährung	-8378
▁Neudefinition	-8379
▁Schutzheilige	-8380
▁australischer	-8381
▁grönländische	-8382
▁identifiziert	-8383
▁komprimiertem	-8384
▁zertrümmertes	-8385
Kurzgeschichten	-8386
▁Afroamerikaner	-8387
▁Kampfflugzeuge	-8388
▁Wirkungsfaktor	-8389
▁Architekturbüro	-8390
▁Aufschlagfaktor	-8391
▁Philippinisches	-8392
▁brasilianischen	-8393
'.	-8394
,2	-8395
03	-8396
3)	-8397
Ak	-8398
CE	-8399
It	-8400
LK	-8401
SV	-8402
ee	-8403
ga	-8404
na	-8405
rs	-8406
ws	-8407
ów	-8408
▁>	-8409
173	-8410
202	-8411
599	-8412
635	-8413
Air	-8414
Bot	-8415
Der	-8416
Dra	-8417
ICE	-8418
Jug	-8419
Kal	-8420
Mit	-8421
Sci	-8422
aak	-8423
als	-8424
dom	-8425
eda	-8426
flo	-8427
hau	-8428
hly	-8429
low	-8430
ull	-8431
wan	-8432
äuß	-8433
örd	-8434
▁01	-8435
▁JP	-8436
▁PR	-8437
▁Pa	-8438
▁Sq	-8439
▁ap	-8440
▁ho	-8441
349.	-8442
3671	-8443
80-0	-8444
873.	-8445
Drog	-8446
Heim	-8447
Kalb	-8448
Mark	-8449
Rank	-8450
aaki	-8451
aden	-8452
ader	-8453
afay	-8454
alph	-8455
ayne	-8456
eite	-8457
enet	-8458
ette	-8459
fern	-8460
gebo	-8461
hora	-8462
iebt	-8463
igte	-8464
ikum	-8465
itol	-8466
loin	-8467
olan	-8468
olte	-8469
pena	-8470
uben	-8471
ucky	-8472
ward	-8473
xton	-8474
zert	-8475
üfer	-8476
▁"05	-8477
▁"10	-8478
▁-8.	-8479
▁07.	-8480
▁1.4	-8481
▁10.	-8482
▁102	-8483
▁20,	-8484
▁25.	-8485
▁33.	-8486
▁4.1	-8487
▁45,	-8488
▁500	-8489
▁83.	-8490
▁ABI	-8491
▁ASB	-8492
▁ATW	-8493
▁Abh	-8494
▁Asi	-8495
▁Bei	-8496
▁FSV	-8497
▁SLK	-8498
▁Wes	-8499
▁aka	-8500
▁arr	-8501
▁dre	-8502
▁est	-8503
-11-2	-8504
Admin	-8505
Akron	-8506
Drake	-8507
Firma	-8508
Lanka	-8509
Radio	-8510
Stadt	-8511
absch	-8512
anern	-8513
annon	-8514
arlem	-8515
chten	-8516
dient	-8517
eanut	-8518
eller	-8519
endak	-8520
eress	-8521
ghlin	-8522
heria	-8523
ienna	-8524
inner	-8525
itelt	-8526
offiz	-8527
onald	-8528
ossen	-8529
respi	-8530
stman	-8531
ugies	-8532
ówkar	-8533
▁1635	-8534
▁1773	-8535
▁1960	-8536
▁1978	-8537
▁2013	-8538
▁23,0	-8539
▁28,0	-8540
▁765.	-8541
▁Airc	-8542
▁Apia	-8543
▁Auck	-8544
▁Balg	-8545
▁Bank	-8546
▁Dean	-8547
▁Enge	-8548
▁Exch	-8549
▁Fach	-8550
▁Fall	-8551
▁Frei	-8552
▁Frit	-8553
▁Geld	-8554
▁Händ	-8555
▁Just	-8556
▁Komp	-8557
▁Kurz	-8558
▁Nahr	-8559
▁Rick	-8560
▁Sage	-8561
▁Show	-8562
▁Stab	-8563
▁Star	-8564
▁Stra	-8565
▁Tage	-8566
▁Vize	-8567
▁Wang	-8568
▁arab	-8569
▁erhö	-8570
▁fand	-8571
▁flog	-8572
▁full	-8573
▁irak	-8574
▁loin	-8575
▁nahm	-8576
▁port	-8577
▁seit	-8578
▁test	-8579
▁this	-8580
▁west	-8581
2-9327	-8582
Archit	-8583
Brasil	-8584
Instit	-8585
angebo	-8586
annten	-8587
elipad	-8588
ieller	-8589
isseur	-8590
munity	-8591
onthly	-8592
termin	-8593
voller	-8594
wickau	-8595
äußert	-8596
önlich	-8597
▁1.121	-8598
▁1910,	-8599
▁1913,	-8600
▁1932)	-8601
▁1986.	-8602
▁1996,	-8603
▁2000)	-8604
▁39599	-8605
▁911,0	-8606
▁973,0	-8607
▁Ahora	-8608
▁Amtsr	-8609
▁Apium	-8610
▁Arepa	-8611
▁Basil	-8612
▁Basis	-8613
▁Basko	-8614
▁Casil	-8615
▁Chief	-8616
▁Coden	-8617
▁Dinar	-8618
▁Einem	-8619
▁Elkin	-8620
▁Eröff	-8621
▁Films	-8622
▁First	-8623
▁Frans	-8624
▁Gujur	-8625
▁Hogao	-8626
▁Lafay	-8627
▁Orden	-8628
▁Payne	-8629
▁Preis	-8630
▁Radio	-8631
▁Ralph	-8632
▁Suppe	-8633
▁arròs	-8634
▁bauen	-8635
▁behau	-8636
▁bekam	-8637
▁chich	-8638
▁holte	-8639
▁immer	-8640
▁italy	-8641
▁names	-8642
▁order	-8643
▁rumän	-8644
▁their	-8645
Livorno	-8646
Ranking	-8647
Staates	-8648
Verband	-8649
abschie	-8650
ampalli	-8651
entlich	-8652
esident	-8653
geführt	-8654
mermeer	-8655
ombenan	-8656
schaden	-8657
udenten	-8658
▁1.121.	-8659
▁1.873.	-8660
▁1800.0	-8661
▁2194,0	-8662
▁273671	-8663
▁3.3528	-8664
▁3.800.	-8665
▁900,0.	-8666
▁Barney	-8667
▁Benton	-8668
▁Buxton	-8669
▁Cannon	-8670
▁Crespi	-8671
▁DeKalb	-8672
▁Franzo	-8673
▁Gebäck	-8674
▁Julius	-8675
▁Kheria	-8676
▁Länder	-8677
▁Projek	-8678
▁Prüfer	-8679
▁Quelle	-8680
▁Romero	-8681
▁Später	-8682
▁Tanaka	-8683
▁Vienna	-8684
▁bereit	-8685
▁endete	-8686
▁establ	-8687
▁floors	-8688
▁meters	-8689
▁public	-8690
▁vorher	-8691
▁weißes	-8692
▁wohnen	-8693
236-5294	-8694
80-04-23	-8695
Institut	-8696
Jugendak	-8697
auftritt	-8698
burgbaan	-8699
ondiment	-8700
stöckige	-8701
zpudding	-8702
▁1219,0.	-8703
▁1533,0.	-8704
▁2194,0.	-8705
▁3.992,8	-8706
▁3048,0.	-8707
▁3992,88	-8708
▁Asiaten	-8709
▁Bernard	-8710
▁Bormann	-8711
▁British	-8712
▁Capitol	-8713
▁Farbige	-8714
▁Fertigs	-8715
▁Haarlem	-8716
▁Heeress	-8717
▁Helipad	-8718
▁Händler	-8719
▁Justice	-8720
▁Kingdom	-8721
▁Konzert	-8722
▁Kämpfer	-8723
▁Masaaki	-8724
▁Mathews	-8725
▁Nahrung	-8726
▁Randall	-8727
▁Seattle	-8728
▁Society	-8729
▁Solanum	-8730
▁Station	-8731
▁Steuben	-8732
▁Zwickau	-8733
▁basiert	-8734
▁benannt	-8735
▁besucht	-8736
▁betrieb	-8737
▁bombard	-8738
▁gehörte	-8739
▁lokales	-8740
▁popular	-8741
▁vertrat	-8742
Besatzung	-8743
Brasilien	-8744
Disziplin	-8745
Formation	-8746
Superliga	-8747
betrieben	-8748
etrovirus	-8749
programms	-8750
ungsdatum	-8751
▁51969173	-8752
▁7877110.	-8753
▁Apiaceae	-8754
▁Auckland	-8755
▁Benjamin	-8756
▁Casillas	-8757
▁Exchange	-8758
▁Früchten	-8759
▁Gerstman	-8760
▁Johnsons	-8761
▁Laughlin	-8762
▁Peşówkar	-8763
▁Schuster	-8764
▁Türkisch	-8765
▁Zentrale	-8766
▁Zusammen	-8767
▁bestehen	-8768
▁besuchen	-8769
▁betitelt	-8770
▁building	-8771
▁folgende	-8772
▁genossen	-8773
▁geäußert	-8774
▁speaking	-8775
▁verteilt	-8776
▁westlich	-8777
▁0002-9327	-8778
▁1558-2868	-8779
▁60040714,	-8780
▁88002539.	-8781
▁Addiction	-8782
▁Balgalore	-8783
▁Basilikum	-8784
▁Champions	-8785
▁Eröffnung	-8786
▁Lafayette	-8787
▁Mexikaner	-8788
▁Regisseur	-8789
▁Südregion	-8790
▁aktueller	-8791
▁angeblich	-8792
▁behaupten	-8793
▁bimonthly	-8794
▁dänischen	-8795
▁irakische	-8796
▁portugies	-8797
▁regionale	-8798
▁verbracht	-8799
▁verliehen	-8800
Botschafter	-8801
Drogensucht	-8802
ungsreichen	-8803
zertrümmert	-8804
▁"0002-9327	-8805
▁"0236-5294	-8806
▁0567-7920.	-8807
▁0965-2140.	-8808
▁1865-8784.	-8809
▁1932-07-27	-8810
▁Alternativ	-8811
▁Einweihung	-8812
▁Hauptzutat	-8813
▁Magistrats	-8814
▁Nationalen	-8815
▁Verwaltung	-8816
▁absolviert	-8817
▁ehemaligen	-8818
▁eigentlich	-8819
▁gearbeitet	-8820
▁graduierte	-8821
▁tenderloin	-8822
▁verabschie	-8823
▁verantwort	-8824
▁1907-07-11)	-8825
▁1932-03-15)	-8826
▁Amtsrichter	-8827
▁Geburtsname	-8828
▁Kalifornier	-8829
▁Ministerium	-8830
▁Phillipinen	-8831
▁Preisträger	-8832
▁Sachschaden	-8833
▁Sardampalli	-8834
▁Stadtführer	-8835
▁Starttermin	-8836
▁Technischen	-8837
▁aufgestellt	-8838
▁derzeitigen	-8839
▁designierte	-8840
▁established	-8841
▁gemeinsames	-8842
▁gesetzgeben	-8843
▁Malaysisches	-8844
▁Suchtjournal	-8845
▁malaysisches	-8846
Jugendakademie	-8847
▁Herausgegeben	-8848
▁Kampfflugzeug	-8849
▁Minangkabauer	-8850
▁Vizepräsident	-8851
▁klassifiziert	-8852
▁konkurrierten	-8853
▁mexikanischen	-8854
griffsflugzeuge	-8855
▁"0-439-17684-0	-8856
▁Alternativname	-8857
▁Haarlemmermeer	-8858
▁Heeressoldaten	-8859
▁Oberflächenart	-8860
▁Schwarzpudding	-8861
▁Veranstaltungs	-8862
▁georgianischen	-8863
▁vietnamesische	-8864
Quadratkilometer	-8865
▁Pflanzenordnung	-8866
',	-8867
16	-8868
2"	-8869
43	-8870
54	-8871
8"	-8872
Az	-8873
CD	-8874
UD	-8875
fä	-8876
pe	-8877
▁+	-8878
▁_	-8879
▁~	-8880
.")	-8881
20.	-8882
215	-8883
603	-8884
78.	-8885
9".	-8886
Add	-8887
Adr	-8888
Aut	-8889
Leg	-8890
Min	-8891
Pat	-8892
aag	-8893
abe	-8894
auf	-8895
bre	-8896
ckt	-8897
dän	-8898
fil	-8899
fäh	-8900
hat	-8901
iam	-8902
ieß	-8903
kun	-8904
net	-8905
pel	-8906
por	-8907
sst	-8908
ähl	-8909
äre	-8910
▁",	-8911
▁#:	-8912
▁06	-8913
▁4,	-8914
▁69	-8915
▁8-	-8916
▁92	-8917
▁Ah	-8918
▁Ke	-8919
▁Ta	-8920
▁Um	-8921
▁ze	-8922
-01.	-8923
00,0	-8924
0770	-8925
337.	-8926
867.	-8927
Arem	-8928
Azal	-8929
Back	-8930
Klub	-8931
Ober	-8932
Team	-8933
Test	-8934
Wolf	-8935
arte	-8936
auli	-8937
aute	-8938
azio	-8939
bsit	-8940
ches	-8941
dukt	-8942
eger	-8943
enzt	-8944
feld	-8945
fert	-8946
gebä	-8947
irec	-8948
kler	-8949
kmal	-8950
konz	-8951
legt	-8952
mont	-8953
okol	-8954
opia	-8955
ordn	-8956
post	-8957
raft	-8958
seit	-8959
sens	-8960
spol	-8961
ulan	-8962
verb	-8963
verw	-8964
weet	-8965
werk	-8966
ürde	-8967
▁"13	-8968
▁"15	-8969
▁"18	-8970
▁(19	-8971
▁214	-8972
▁23-	-8973
▁29,	-8974
▁345	-8975
▁45.	-8976
▁AUD	-8977
▁AbH	-8978
▁Ave	-8979
▁Cor	-8980
▁Gew	-8981
▁Joh	-8982
▁Jul	-8983
▁Mck	-8984
▁Res	-8985
▁Rup	-8986
▁Tod	-8987
▁Vom	-8988
▁ant	-8989
▁con	-8990
▁ern	-8991
▁kre	-8992
▁par	-8993
▁run	-8994
▁zuf	-8995
-10-0	-8996
1634:	-8997
Amate	-8998
Autor	-8999
Award	-9000
Bacon	-9001
Fylde	-9002
Noord	-9003
North	-9004
Roman	-9005
Spitz	-9006
Virus	-9007
Zentr	-9008
aneer	-9009
arhus	-9010
arron	-9011
arter	-9012
bsite	-9013
chend	-9014
datum	-9015
dings	-9016
eitet	-9017
etzen	-9018
filet	-9019
folgt	-9020
gaard	-9021
ibbon	-9022
idenz	-9023
igher	-9024
ilien	-9025
rolle	-9026
scher	-9027
sital	-9028
titel	-9029
uphol	-9030
uppen	-9031
wanen	-9032
ölker	-9033
▁1200	-9034
▁1973	-9035
▁2195	-9036
▁23.0	-9037
▁2939	-9038
▁2953	-9039
▁3678	-9040
▁4019	-9041
▁500.	-9042
▁737,	-9043
▁AFAS	-9044
▁Ages	-9045
▁Bild	-9046
▁Dark	-9047
▁Gast	-9048
▁Hins	-9049
▁Hinz	-9050
▁Hugh	-9051
▁Jung	-9052
▁Kaag	-9053
▁Kind	-9054
▁Kran	-9055
▁MacD	-9056
▁Mahé	-9057
▁Orts	-9058
▁Rico	-9059
▁Rome	-9060
▁Vorg	-9061
▁Well	-9062
▁cuis	-9063
▁dikt	-9064
▁drei	-9065
▁eher	-9066
▁farb	-9067
▁flug	-9068
▁form	-9069
▁nörd	-9070
▁sorg	-9071
▁span	-9072
▁tech	-9073
▁vert	-9074
▁weil	-9075
AAIDBI	-9076
ASCQAG	-9077
Heimat	-9078
Kampff	-9079
Presse	-9080
United	-9081
atlich	-9082
enkurs	-9083
flower	-9084
folgte	-9085
gendes	-9086
inente	-9087
ischem	-9088
izität	-9089
modern	-9090
selben	-9091
stützt	-9092
teldän	-9093
tellte	-9094
öffnet	-9095
▁1635:	-9096
▁1820.	-9097
▁1873.	-9098
▁1904,	-9099
▁1925.	-9100
▁1933,	-9101
▁2007.	-9102
▁3.990	-9103
▁4000.	-9104
▁4100.	-9105
▁597,0	-9106
▁Ahorn	-9107
▁Angol	-9108
▁Bakou	-9109
▁Bunds	-9110
▁Datum	-9111
▁Direc	-9112
▁Fachz	-9113
▁Folge	-9114
▁Insel	-9115
▁Jetzt	-9116
▁Lazio	-9117
▁Lucky	-9118
▁Neger	-9119
▁Reihe	-9120
▁Squid	-9121
▁Stein	-9122
▁Sweet	-9123
▁Texan	-9124
▁Wespe	-9125
▁Wever	-9126
▁apium	-9127
▁brill	-9128
▁cauli	-9129
▁deckt	-9130
▁defin	-9131
▁große	-9132
▁haupt	-9133
▁loyal	-9134
▁penet	-9135
▁south	-9136
▁staat	-9137
▁wicht	-9138
▁würde	-9139
67-7920	-9140
Adresse	-9141
Amateur	-9142
Betrieb	-9143
Kennung	-9144
Lambien	-9145
Leitung	-9146
Meister	-9147
Mitglie	-9148
Schweiz	-9149
bekannt	-9150
festigt	-9151
fähigen	-9152
hackten	-9153
igentum	-9154
isieren	-9155
konzern	-9156
located	-9157
okolade	-9158
ontroll	-9159
ordnete	-9160
ostbaan	-9161
sstraße	-9162
sverein	-9163
uartige	-9164
verordn	-9165
wiegend	-9166
▁1.337.	-9167
▁1.533.	-9168
▁120770	-9169
▁16000.	-9170
▁2,195.	-9171
▁2014,0	-9172
▁2014.0	-9173
▁2744,0	-9174
▁2900.0	-9175
▁3.990.	-9176
▁3800,0	-9177
▁733,0.	-9178
▁Anlage	-9179
▁Anzahl	-9180
▁Buchar	-9181
▁Essens	-9182
▁Fossil	-9183
▁Gründe	-9184
▁Herkun	-9185
▁Jugend	-9186
▁Leader	-9187
▁Marcos	-9188
▁Millar	-9189
▁Paneer	-9190
▁Potato	-9191
▁Rezept	-9192
▁Ribbon	-9193
▁Vinoly	-9194
▁Völker	-9195
▁Zwanen	-9196
▁edited	-9197
▁eigene	-9198
▁frisch	-9199
▁geholt	-9200
▁gelang	-9201
▁kostet	-9202
▁kreden	-9203
▁liegen	-9204
▁square	-9205
▁unters	-9206
▁within	-9207
Maryland	-9208
Zentrale	-9209
istungen	-9210
lerdings	-9211
postcode	-9212
ragenden	-9213
▁2744,0.	-9214
▁2777,0.	-9215
▁3.992.8	-9216
▁3078,48	-9217
▁4100,0.	-9218
▁Ethopia	-9219
▁Gujurat	-9220
▁Ireland	-9221
▁Mexikan	-9222
▁Monarch	-9223
▁Sendung	-9224
▁Vereine	-9225
▁Website	-9226
▁Winkler	-9227
▁Wizards	-9228
▁anderer	-9229
▁auftrat	-9230
▁besetzt	-9231
▁betreut	-9232
▁cuisine	-9233
▁erbaute	-9234
▁ernannt	-9235
▁farbige	-9236
▁gesamte	-9237
▁include	-9238
▁irische	-9239
▁liefert	-9240
▁primäre	-9241
▁tapioca	-9242
▁überall	-9243
▁überras	-9244
Addiction	-9245
Literatur	-9246
Manhattan	-9247
Patacones	-9248
Spitzname	-9249
Testpilot	-9250
gestellte	-9251
sterreich	-9252
verbunden	-9253
▁1480153.	-9254
▁8805735,	-9255
▁Auftritt	-9256
▁Bombenan	-9257
▁Collagen	-9258
▁Erstellt	-9259
▁Ethnisch	-9260
▁Franzose	-9261
▁Freiheit	-9262
▁Georgian	-9263
▁Großraum	-9264
▁Hinspiel	-9265
▁Hopsital	-9266
▁Javanese	-9267
▁Jungfern	-9268
▁Kaagbaan	-9269
▁Lohannis	-9270
▁Mckenzie	-9271
▁Mendriso	-9272
▁Residenz	-9273
▁Richland	-9274
▁Schuphol	-9275
▁Shuvulan	-9276
▁arabisch	-9277
▁beliebte	-9278
▁besitzen	-9279
▁betreute	-9280
▁diktiert	-9281
▁enthielt	-9282
▁eröffnet	-9283
▁farbigen	-9284
▁fiktiver	-9285
▁gründete	-9286
▁historic	-9287
▁irisches	-9288
▁nördlich	-9289
▁studiert	-9290
▁teilnahm	-9291
▁umfasste	-9292
▁wichtige	-9293
0025-5858"	-9294
Bundesliga	-9295
gangenheit	-9296
spolitiker	-9297
▁1046-8188	-9298
▁1080-6377	-9299
▁1360-0443	-9300
▁1732-2421	-9301
▁1927-07-2	-9302
▁27367194.	-9303
▁3.992,88.	-9304
▁45644811,	-9305
▁Community	-9306
▁Ebenfalls	-9307
▁Fransisco	-9308
▁Gestaltet	-9309
▁Herrscher	-9310
▁Indonesia	-9311
▁Innerhalb	-9312
▁Koreanern	-9313
▁Literatur	-9314
▁MacDonald	-9315
▁President	-9316
▁Verbunden	-9317
▁Vorgänger	-9318
▁asiatisch	-9319
▁befestigt	-9320
▁brilliert	-9321
▁fungierte	-9322
▁gehackten	-9323
▁mitteldän	-9324
▁neuartige	-9325
▁techology	-9326
▁vorherige	-9327
verordneten	-9328
▁0025-5858.	-9329
▁0567-7920,	-9330
▁2158-3226.	-9331
▁Bundsgaard	-9332
▁Flugzeugen	-9333
▁Kompliment	-9334
▁Niederländ	-9335
▁Polderbaan	-9336
▁Provincial	-9337
▁Schokolade	-9338
▁Suppenkurs	-9339
▁Wellington	-9340
▁Zusätzlich	-9341
▁bisherigen	-9342
▁chicharron	-9343
▁chinesisch	-9344
▁englischer	-9345
▁gebürtigen	-9346
▁kornischen	-9347
▁kurdischen	-9348
▁nationalen	-9349
▁politische	-9350
▁postmodern	-9351
▁prominente	-9352
▁rumänische	-9353
▁sapindales	-9354
▁spanisches	-9355
▁verkürzter	-9356
amerikanisch	-9357
▁"0002-9327"	-9358
▁"0025-5858"	-9359
▁1932-07-27.	-9360
▁Führertitel	-9361
▁Hauptspeise	-9362
▁Minangkabau	-9363
▁Rinderfilet	-9364
▁Sportangebo	-9365
▁cauliflower	-9366
▁flugfähigen	-9367
▁staatlichen	-9368
▁unterstützt	-9369
▁Filmauftritt	-9370
▁Führungsname	-9371
▁Geburtsdatum	-9372
▁Schlachtfeld	-9373
▁Volksgruppen	-9374
▁Vorsitzenden	-9375
▁abgetrennten	-9376
▁bombardierte	-9377
▁einheimische	-9378
▁mexikanische	-9379
▁stationieren	-9380
▁südöstlichen	-9381
▁teilgenommen	-9382
▁Abgeschlossen	-9383
▁Kalifornierin	-9384
▁Meisterschaft	-9385
▁Mexikanisches	-9386
▁Paleontologie	-9387
▁Staatsangehör	-9388
▁Studentenwerk	-9389
▁Veranstaltung	-9390
▁Vergangenheit	-9391
▁afrikanischer	-9392
▁australischen	-9393
▁hauptsächlich	-9394
▁verabschiedet	-9395
▁0-670-03380-4,	-9396
▁Fertigstellung	-9397
▁Niederländisch	-9398
▁Zwanenburgbaan	-9399
▁amerikanisches	-9400
▁eingeschrieben	-9401
▁gesetzgebenden	-9402
▁herausragenden	-9403
▁portugiesische	-9404
▁Fachzeitschrift	-9405
▁Internationaler	-9406
▁Mitgliedsverein	-9407
▁fertiggestellte	-9408
▁mitteldänischen	-9409
▁postgraduierten	-9410
!"	-9411
!.	-9412
9"	-9413
Be	-9414
KE	-9415
US	-9416
Ur	-9417
aß	-9418
hu	-9419
ub	-9420
wh	-9421
▁?	-9422
▁ö	-9423
!".	-9424
"..	-9425
,65	-9426
,81	-9427
-7,	-9428
.".	-9429
1,2	-9430
1,6	-9431
123	-9432
17,	-9433
19.	-9434
2,3	-9435
3,1	-9436
324	-9437
4,0	-9438
4,1	-9439
4,5	-9440
4,7	-9441
467	-9442
5,4	-9443
509	-9444
6,5	-9445
7,1	-9446
70.	-9447
732	-9448
776	-9449
82,	-9450
9,9	-9451
90,	-9452
Abh	-9453
Ara	-9454
Bez	-9455
Ges	-9456
Pil	-9457
Süd	-9458
TAA	-9459
UAB	-9460
Vol	-9461
Zut	-9462
ags	-9463
agt	-9464
aid	-9465
ajo	-9466
buy	-9467
cal	-9468
elt	-9469
hte	-9470
ite	-9471
ión	-9472
jan	-9473
lat	-9474
mar	-9475
ofo	-9476
ppt	-9477
ren	-9478
the	-9479
wel	-9480
wes	-9481
zte	-9482
▁/.	-9483
▁24	-9484
▁78	-9485
▁Aa	-9486
▁Ee	-9487
▁Km	-9488
▁Os	-9489
▁Sn	-9490
▁Ut	-9491
▁he	-9492
▁if	-9493
▁se	-9494
▁Ök	-9495
-4-2	-9496
1,54	-9497
14,8	-9498
23,9	-9499
372.	-9500
4,33	-9501
42,3	-9502
46,0	-9503
7,43	-9504
8,65	-9505
80,7	-9506
92,6	-9507
Ajax	-9508
Barm	-9509
Engl	-9510
Grie	-9511
Into	-9512
Käse	-9513
Neal	-9514
Neil	-9515
Volk	-9516
abge	-9517
dien	-9518
gers	-9519
hebt	-9520
illi	-9521
inig	-9522
iten	-9523
itin	-9524
lank	-9525
leit	-9526
lerk	-9527
llig	-9528
lten	-9529
mack	-9530
neur	-9531
ogan	-9532
okar	-9533
omat	-9534
pers	-9535
plet	-9536
rans	-9537
rish	-9538
sert	-9539
uden	-9540
uern	-9541
urse	-9542
usef	-9543
vall	-9544
voll	-9545
äfen	-9546
äuft	-9547
ñoly	-9548
üste	-9549
▁"09	-9550
▁"19	-9551
▁-7.	-9552
▁1,0	-9553
▁1,7	-9554
▁12-	-9555
▁19.	-9556
▁2.1	-9557
▁20-	-9558
▁27,	-9559
▁31,	-9560
▁31.	-9561
▁4.0	-9562
▁469	-9563
▁535	-9564
▁686	-9565
▁75,	-9566
▁AIT	-9567
▁APN	-9568
▁Che	-9569
▁Dup	-9570
▁Een	-9571
▁Gou	-9572
▁KKE	-9573
▁Mün	-9574
▁Zug	-9575
▁ajo	-9576
▁bef	-9577
▁bew	-9578
▁col	-9579
▁erw	-9580
▁etw	-9581
▁eur	-9582
▁fin	-9583
▁fok	-9584
▁gab	-9585
▁hel	-9586
▁kol	-9587
▁mar	-9588
▁not	-9589
▁red	-9590
▁sur	-9591
▁var	-9592
▁zun	-9593
▁zwe	-9594
-130-	-9595
-2421	-9596
370".	-9597
4-23.	-9598
96,65	-9599
Alkma	-9600
Dekan	-9601
Halle	-9602
Haupt	-9603
Pilze	-9604
Seite	-9605
Teams	-9606
Titel	-9607
Urspr	-9608
alsme	-9609
annte	-9610
arrie	-9611
blick	-9612
breiv	-9613
brook	-9614
brote	-9615
chern	-9616
crete	-9617
ently	-9618
gewie	-9619
herty	-9620
hiopa	-9621
icana	-9622
icial	-9623
ionis	-9624
leppt	-9625
ließt	-9626
ludes	-9627
odenz	-9628
pelte	-9629
rafen	-9630
rsity	-9631
ruste	-9632
struc	-9633
teams	-9634
tonis	-9635
trägt	-9636
tsown	-9637
uages	-9638
uktur	-9639
urnen	-9640
verst	-9641
which	-9642
wäche	-9643
ächst	-9644
ählte	-9645
▁14,2	-9646
▁1600	-9647
▁167.	-9648
▁214,	-9649
▁25,2	-9650
▁258,	-9651
▁2988	-9652
▁31".	-9653
▁3362	-9654
▁4,14	-9655
▁404,	-9656
▁404.	-9657
▁470.	-9658
▁48,0	-9659
▁512.	-9660
▁55,4	-9661
▁6,81	-9662
▁657.	-9663
▁6573	-9664
▁682,	-9665
▁7202	-9666
▁8002	-9667
▁817,	-9668
▁929.	-9669
▁9453	-9670
▁972.	-9671
▁Anne	-9672
▁Dept	-9673
▁Dill	-9674
▁Disc	-9675
▁Drag	-9676
▁Däne	-9677
▁Fels	-9678
▁Frie	-9679
▁Korn	-9680
▁Page	-9681
▁Pork	-9682
▁Raum	-9683
▁Seit	-9684
▁Tait	-9685
▁They	-9686
▁Tour	-9687
▁UTAA	-9688
▁Viel	-9689
▁Wenn	-9690
▁Zust	-9691
▁airc	-9692
▁bein	-9693
▁east	-9694
▁enge	-9695
▁fast	-9696
▁fest	-9697
▁flie	-9698
▁hohe	-9699
▁john	-9700
▁krem	-9701
▁kurz	-9702
▁many	-9703
▁page	-9704
▁sehr	-9705
▁site	-9706
▁than	-9707
▁type	-9708
▁wahr	-9709
▁well	-9710
9.09.0	-9711
Backup	-9712
Dienst	-9713
Fossil	-9714
Gesetz	-9715
Hungar	-9716
Madrid	-9717
Straße	-9718
alillo	-9719
beeren	-9720
dement	-9721
edicts	-9722
eitere	-9723
erbaan	-9724
esisch	-9725
fassen	-9726
griffe	-9727
ichnam	-9728
ickelt	-9729
ickler	-9730
keiten	-9731
kürzte	-9732
latein	-9733
mander	-9734
marsch	-9735
onente	-9736
pieler	-9737
stufen	-9738
teress	-9739
vallis	-9740
wesend	-9741
▁"1732	-9742
▁1.411	-9743
▁1.873	-9744
▁12467	-9745
▁131,6	-9746
▁144,7	-9747
▁1907)	-9748
▁1910)	-9749
▁1911,	-9750
▁1928)	-9751
▁1930,	-9752
▁1931,	-9753
▁1974.	-9754
▁1976.	-9755
▁1988.	-9756
▁2.776	-9757
▁2009.	-9758
▁2195.	-9759
▁2702.	-9760
▁2744.	-9761
▁286,5	-9762
▁3.310	-9763
▁3310.	-9764
▁347,1	-9765
▁429,9	-9766
▁45,97	-9767
▁518,0	-9768
▁523,9	-9769
▁524,5	-9770
▁74,33	-9771
▁755,3	-9772
▁783,1	-9773
▁914,8	-9774
▁94509	-9775
▁973.0	-9776
▁992,6	-9777
▁ADICE	-9778
▁Addid	-9779
▁Adofo	-9780
▁Alley	-9781
▁Amatr	-9782
▁Codes	-9783
▁Dimit	-9784
▁Dänen	-9785
▁Eigen	-9786
▁Famil	-9787
▁Franz	-9788
▁Gründ	-9789
▁Halls	-9790
▁Hinzu	-9791
▁Irish	-9792
▁Jesus	-9793
▁Jusef	-9794
▁Kevin	-9795
▁Linke	-9796
▁Logan	-9797
▁Lpena	-9798
▁March	-9799
▁Noord	-9800
▁Pfeil	-9801
▁Poace	-9802
▁Pound	-9803
▁Spiel	-9804
▁Study	-9805
▁Their	-9806
▁Todes	-9807
▁Werke	-9808
▁Wüste	-9809
▁chute	-9810
▁comic	-9811
▁hören	-9812
▁india	-9813
▁katal	-9814
▁lokal	-9815
▁macht	-9816
▁rühmt	-9817
▁setzt	-9818
▁solan	-9819
▁stars	-9820
▁start	-9821
▁stone	-9822
▁white	-9823
Alkmaar	-9824
Italien	-9825
Minuten	-9826
agsabge	-9827
bereich	-9828
capital	-9829
denkmal	-9830
dienste	-9831
ensicht	-9832
gebäude	-9833
gelegen	-9834
gresses	-9835
itenvel	-9836
kenhaus	-9837
quarter	-9838
ragende	-9839
schüler	-9840
ussiert	-9841
verneur	-9842
versity	-9843
▁'1634:	-9844
▁107,43	-9845
▁1104,1	-9846
▁1142,3	-9847
▁1411,0	-9848
▁1421,2	-9849
▁1510,0	-9850
▁1533,0	-9851
▁1580,7	-9852
▁161,54	-9853
▁3.310.	-9854
▁3400,0	-9855
▁368,65	-9856
▁3990,0	-9857
▁3992.8	-9858
▁4.100.	-9859
▁4.349.	-9860
▁75,324	-9861
▁877,0.	-9862
▁Ableit	-9863
▁Airpor	-9864
▁Almond	-9865
▁Aurons	-9866
▁Autors	-9867
▁Baltic	-9868
▁Billie	-9869
▁Church	-9870
▁Dupage	-9871
▁Europa	-9872
▁Farben	-9873
▁Follow	-9874
▁Godenz	-9875
▁Herbst	-9876
▁Häuser	-9877
▁Kommen	-9878
▁Kosten	-9879
▁Licata	-9880
▁Mannes	-9881
▁Navajo	-9882
▁Peanut	-9883
▁	-9884
e	-9885
n	-9886
i	-9887
a	-9888
r	-9889
t	-9890
s	-9891
d	-9892
o	-9893
l	-9894
u	-9895
h	-9896
c	-9897
g	-9898
m	-9899
.	-9900
A	-9901
b	-9902
,	-9903
S	-9904
p	-9905
f	-9906
v	-9907
w	-9908
k	-9909
D	-9910
B	-9911
M	-9912
y	-9913
C	-9914
1	-9915
0	-9916
F	-9917
z	-9918
ü	-9919
I	-9920
E	-9921
L	-9922
G	-9923
T	-9924
P	-9925
R	-9926
-	-9927
N	-9928
H	-9929
ä	-9930
2	-9931
3	-9932
9	-9933
U	-9934
K	-9935
V	-9936
J	-9937
6	-9938
W	-9939
8	-9940
4	-9941
7	-9942
ö	-9943
5	-9944
x	-9945
Z	-9946
j	-9947
O	-9948
ß	-9949
(	-9950
)	-9951
"	-9952
q	-9953
/	-9954
Y	-9955
'	-9956
:	-9957
Q	-9958
á	-9959
@	-9960
é	-9961
ã	-9962
ç	-9963
&	-9964
;	-9965
Ä	-9966
X	-9967
ò	-9968
İ	-9969
Í	-9970
!	-9971
ó	-9972
Ü	-9973
í	-9974
ğ	-9975
ø	-9976
Æ	-9977
ō	-9978
â	-9979
ă	-9980
ș	-9981
Ö	-9982
Ş	-9983
ı	-9984
#	-9985
É	-9986
ñ	-9987
?	-9988
ş	-9989
>	-9990
+	-9991
_	-9992
~	-9993
*	-9994
ú	-9995
|	-9996
