<unk>	0
<s>	0
</s>	0
er	-0
en	-1
in	-2
▁d	-3
is	-4
ch	-5
▁A	-6
an	-7
on	-8
ie	-9
▁S	-10
un	-11
ist	-12
at	-13
es	-14
ar	-15
▁ist	-16
▁D	-17
▁der	-18
▁in	-19
al	-20
und	-21
▁v	-22
▁w	-23
it	-24
de	-25
▁M	-26
▁B	-27
▁und	-28
▁s	-29
ein	-30
or	-31
as	-32
▁von	-33
am	-34
▁F	-35
au	-36
ge	-37
ur	-38
ich	-39
▁b	-40
▁die	-41
▁C	-42
▁G	-43
▁E	-44
▁1	-45
▁ein	-46
et	-47
▁P	-48
▁I	-49
isch	-50
▁L	-51
ir	-52
il	-53
▁T	-54
▁R	-55
ol	-56
▁H	-57
te	-58
and	-59
ion	-60
ien	-61
hr	-62
st	-63
ad	-64
▁N	-65
▁be	-66
em	-67
▁St	-68
▁au	-69
▁U	-70
▁h	-71
▁ge	-72
▁J	-73
▁Die	-74
det	-75
▁wur	-76
el	-77
▁K	-78
▁wurde	-79
▁V	-80
ig	-81
hn	-82
ic	-83
fin	-84
▁Sp	-85
▁In	-86
▁Al	-87
ent	-88
om	-89
▁sich	-90
im	-91
ra	-92
▁W	-93
▁hat	-94
findet	-95
ers	-96
▁den	-97
▁Der	-98
▁befindet	-99
ck	-100
um	-101
ter	-102
▁eine	-103
he	-104
▁19	-105
us	-106
af	-107
ges	-108
le	-109
ühr	-110
ird	-111
▁wird	-112
▁Te	-113
ro	-114
▁aus	-115
re	-116
ut	-117
▁2	-118
ort	-119
lu	-120
▁o	-121
ation	-122
iv	-123
ung	-124
▁f	-125
SA	-126
ische	-127
ind	-128
▁das	-129
ak	-130
mit	-131
▁im	-132
ba	-133
id	-134
pp	-135
lt	-136
ber	-137
ia	-138
ing	-139
▁wo	-140
lo	-141
ührer	-142
gl	-143
ür	-144
▁Re	-145
00	-146
io	-147
adt	-148
▁of	-149
▁des	-150
ben	-151
▁sind	-152
icht	-153
ischen	-154
▁Un	-155
chen	-156
rie	-157
▁An	-158
ik	-159
den	-160
▁Co	-161
lug	-162
ty	-163
▁Das	-164
mer	-165
ten	-166
pie	-167
▁Z	-168
ay	-169
▁Führer	-170
ess	-171
ier	-172
ational	-173
afen	-174
ce	-175
än	-176
▁ges	-177
▁USA	-178
▁al	-179
mt	-180
▁dem	-181
▁Ver	-182
aten	-183
▁ver	-184
lugh	-185
lughafen	-186
ed	-187
▁t	-188
▁Ar	-189
▁Gr	-190
ew	-191
▁(	-192
▁Coun	-193
ann	-194
▁Air	-195
▁k	-196
▁mit	-197
▁Sch	-198
▁Ind	-199
▁als	-200
che	-201
▁st	-202
▁Ad	-203
der	-204
▁As	-205
pt	-206
ag	-207
ivers	-208
▁Flughafen	-209
▁County	-210
aupt	-211
▁am	-212
gr	-213
iversit	-214
▁geb	-215
▁O	-216
eck	-217
▁Haupt	-218
▁war	-219
▁Speck	-220
all	-221
▁Universit	-222
▁Er	-223
ahr	-224
▁Reg	-225
bahn	-226
tern	-227
ell	-228
▁Mar	-229
ab	-230
▁3	-231
▁New	-232
oren	-233
ei	-234
port	-235
ot	-236
ian	-237
▁Ch	-238
▁für	-239
▁z	-240
▁an	-241
▁Land	-242
ternational	-243
▁p	-244
▁Verein	-245
upp	-246
ac	-247
est	-248
▁geboren	-249
▁Jo	-250
▁Me	-251
▁l	-252
ikan	-253
sch	-254
tel	-255
▁Ein	-256
▁Airport	-257
▁En	-258
stadt	-259
rieben	-260
eter	-261
glie	-262
ard	-263
▁Ger	-264
▁et	-265
ff	-266
▁stam	-267
▁Pr	-268
gt	-269
eit	-270
art	-271
▁ethn	-272
▁spie	-273
og	-274
▁Tex	-275
▁Stadt	-276
▁Grupp	-277
▁Region	-278
▁stammt	-279
ack	-280
▁Zut	-281
ow	-282
ap	-283
63	-284
▁bet	-285
▁Hauptstadt	-286
▁the	-287
▁Texas	-288
▁Es	-289
▁Amer	-290
▁Gericht	-291
▁Mit	-292
▁Spra	-293
ang	-294
▁auch	-295
▁g	-296
▁Vereinig	-297
ill	-298
▁Man	-299
dr	-300
av	-301
ey	-302
▁is	-303
▁Vereinigten	-304
lin	-305
ün	-306
pol	-307
pro	-308
ert	-309
ran	-310
if	-311
▁Teil	-312
prochen	-313
▁gesprochen	-314
▁auf	-315
ud	-316
▁Alan	-317
▁ent	-318
▁Sta	-319
▁Sprache	-320
▁University	-321
▁sein	-322
uf	-323
▁International	-324
ade	-325
ipp	-326
▁Bu	-327
unden	-328
▁Engl	-329
ande	-330
▁kom	-331
co	-332
ens	-333
sen	-334
▁Bo	-335
▁"	-336
bl	-337
olog	-338
ek	-339
ust	-340
land	-341
chn	-342
▁Meter	-343
grün	-344
so	-345
ones	-346
▁Se	-347
▁At	-348
ikaner	-349
ore	-350
▁Bak	-351
gründet	-352
orn	-353
amp	-354
los	-355
änge	-356
▁Ab	-357
▁er	-358
▁n	-359
ungs	-360
ul	-361
▁And	-362
entl	-363
ip	-364
arb	-365
▁Mitglie	-366
ät	-367
ong	-368
ummer	-369
ffentl	-370
ark	-371
▁Ak	-372
ahrbahn	-373
▁Fahrbahn	-374
öffentl	-375
mal	-376
▁gegründet	-377
chit	-378
▁Span	-379
br	-380
itz	-381
▁gef	-382
▁Techn	-383
über	-384
ant	-385
gel	-386
▁über	-387
pollo	-388
▁Apollo	-389
ah	-390
▁Ro	-391
sh	-392
▁and	-393
hö	-394
ton	-395
alien	-396
▁Pen	-397
adr	-398
▁zu	-399
▁Amerikaner	-400
▁Staaten	-401
▁11	-402
▁Am	-403
▁Ge	-404
▁/	-405
▁Meer	-406
adem	-407
▁It	-408
ient	-409
▁Le	-410
▁Bes	-411
▁Aar	-412
▁gesch	-413
ame	-414
▁De	-415
hus	-416
iss	-417
▁Technolog	-418
▁Archit	-419
hör	-420
ilot	-421
▁John	-422
▁Aarhus	-423
van	-424
▁Fran	-425
▁Rom	-426
ool	-427
▁Lo	-428
esspie	-429
esspiegel	-430
▁Meeresspiegel	-431
aj	-432
ais	-433
▁kommt	-434
äs	-435
▁20	-436
▁Indien	-437
att	-438
-1	-439
▁Y	-440
ASA	-441
▁NASA	-442
▁ethnische	-443
▁Ho	-444
▁Indones	-445
are	-446
pen	-447
▁Was	-448
▁Englisch	-449
▁veröffentl	-450
▁lie	-451
000	-452
ary	-453
reich	-454
▁Be	-455
▁liegt	-456
ute	-457
iert	-458
▁spiel	-459
▁Aust	-460
ity	-461
▁Italien	-462
▁Jahr	-463
▁So	-464
▁Boden	-465
ama	-466
▁Gruppe	-467
634	-468
▁betrieben	-469
fen	-470
aus	-471
iam	-472
▁veröffentlicht	-473
▁Indonesien	-474
▁Sc	-475
tur	-476
▁Zutat	-477
stit	-478
alt	-479
tellt	-480
▁El	-481
▁The	-482
▁Instit	-483
▁AC	-484
▁Br	-485
bt	-486
ippin	-487
ork	-488
bur	-489
▁Gro	-490
,0	-491
ident	-492
▁Will	-493
▁York	-494
eg	-495
enk	-496
ze	-497
▁William	-498
▁FC	-499
▁di	-500
ersey	-501
iot	-502
▁Jersey	-503
▁geschrieben	-504
ach	-505
ürk	-506
äsident	-507
▁'	-508
estand	-509
ja	-510
zz	-511
ält	-512
arya	-513
charya	-514
atz	-515
▁IS	-516
▁Mitglieder	-517
wei	-518
ath	-519
ire	-520
annt	-521
▁Acharya	-522
man	-523
hält	-524
ver	-525
▁1634	-526
enkmal	-527
emark	-528
pilot	-529
änemark	-530
▁spielt	-531
▁Universität	-532
▁i	-533
▁Col	-534
▁Austin	-535
▁6	-536
▁Zutaten	-537
▁5	-538
▁Gruppen	-539
hen	-540
▁es	-541
▁Men	-542
ister	-543
gestellt	-544
se	-545
hil	-546
▁ab	-547
adrid	-548
▁Spanien	-549
ci	-550
▁National	-551
▁einem	-552
▁Madrid	-553
ae	-554
▁Stud	-555
▁Stat	-556
tw	-557
yl	-558
arn	-559
fer	-560
länge	-561
eiß	-562
vil	-563
▁Ac	-564
▁Fahrbahnlänge	-565
▁ihr	-566
schaf	-567
▁193	-568
cat	-569
ron	-570
ka	-571
▁Frank	-572
shire	-573
andebahn	-574
arian	-575
▁gefunden	-576
erv	-577
alif	-578
aliforn	-579
▁1.	-580
▁City	-581
▁Dänemark	-582
▁Landebahn	-583
qu	-584
ited	-585
▁Präsident	-586
hilippin	-587
ays	-588
her	-589
▁Institute	-590
men	-591
▁8	-592
drin	-593
ington	-594
▁Mal	-595
sp	-596
▁verb	-597
▁Q	-598
lich	-599
▁ethnischen	-600
▁Sie	-601
ierte	-602
▁Mary	-603
▁4	-604
14	-605
▁gehör	-606
▁Name	-607
▁United	-608
▁0	-609
▁Eine	-610
use	-611
leisch	-612
▁Technology	-613
▁wer	-614
fleisch	-615
▁Anders	-616
▁einer	-617
Denkmal	-618
▁Start	-619
▁Stand	-620
▁entw	-621
▁werden	-622
lack	-623
istan	-624
ita	-625
▁Ru	-626
▁bei	-627
▁School	-628
zt	-629
▁She	-630
▁vom	-631
▁Besatz	-632
▁Ell	-633
dris	-634
▁Char	-635
▁Mendris	-636
ubl	-637
▁Aldrin	-638
fl	-639
lub	-640
▁ak	-641
▁Shep	-642
▁Mendrisio	-643
ok	-644
ager	-645
▁Architek	-646
agen	-647
▁international	-648
up	-649
▁dient	-650
▁AF	-651
▁States	-652
führer	-653
ham	-654
▁Manager	-655
ön	-656
▁enthält	-657
▁spielte	-658
schaft	-659
üd	-660
▁12	-661
finden	-662
lie	-663
▁Akita	-664
ta	-665
▁Wash	-666
▁Shepard	-667
▁Com	-668
ons	-669
sten	-670
▁11.	-671
▁196	-672
▁See	-673
mitglie	-674
▁Gem	-675
ungsmitglie	-676
▁bek	-677
▁verw	-678
▁Washington	-679
rew	-680
▁Kaliforn	-681
ri	-682
ond	-683
ührt	-684
▁Landes	-685
ick	-686
▁192	-687
▁Anführer	-688
op	-689
org	-690
▁Kalifornien	-691
▁Elliot	-692
os	-693
iat	-694
ris	-695
Nummer	-696
▁Standort	-697
▁Gre	-698
essert	-699
ße	-700
ces	-701
▁Jul	-702
ingap	-703
▁Buzz	-704
▁Singap	-705
hlt	-706
own	-707
▁bekannt	-708
ica	-709
▁18	-710
▁Par	-711
▁Gu	-712
▁Singapur	-713
ungsmitglied	-714
ams	-715
▁10	-716
ht	-717
ene	-718
▁1963	-719
ue	-720
son	-721
▁lo	-722
▁verbunden	-723
▁Ruh	-724
▁lang	-725
▁Ruhestand	-726
andw	-727
▁Scien	-728
▁Qu	-729
ler	-730
auce	-731
▁191	-732
▁Dessert	-733
▁7	-734
▁Bean	-735
aya	-736
undes	-737
end	-738
▁Mon	-739
▁Vol	-740
andwich	-741
▁Philippin	-742
▁m	-743
ican	-744
▁Buch	-745
ou	-746
igur	-747
▁Test	-748
▁Malays	-749
hio	-750
▁Bus	-751
▁Groß	-752
ive	-753
lant	-754
▁Ban	-755
50	-756
gin	-757
ico	-758
▁Nummer	-759
obl	-760
olf	-761
▁14	-762
brit	-763
more	-764
▁All	-765
orfen	-766
▁Penn	-767
syl	-768
▁Bar	-769
vania	-770
▁starb	-771
▁Pennsyl	-772
▁AI	-773
▁Club	-774
▁Pennsylvania	-775
ertig	-776
▁oder	-777
annien	-778
▁Großbrit	-779
▁Großbritannien	-780
uch	-781
ilom	-782
▁Sum	-783
feren	-784
rit	-785
önig	-786
▁Inf	-787
▁1634:	-788
ma	-789
7.	-790
▁Sol	-791
▁König	-792
eland	-793
▁Testpilot	-794
alc	-795
ser	-796
iana	-797
▁198	-798
▁Student	-799
▁Regional	-800
▁entworfen	-801
iz	-802
▁23	-803
▁US	-804
▁Bat	-805
▁fertig	-806
öl	-807
▁Malaysia	-808
▁Po	-809
▁Ser	-810
ara	-811
bas	-812
▁Ara	-813
▁Philippinen	-814
afr	-815
▁fertiggestellt	-816
▁Gl	-817
▁200	-818
▁Pro	-819
▁Ram	-820
▁Math	-821
▁Adams	-822
0.	-823
ical	-824
rä	-825
teil	-826
weiz	-827
▁akadem	-828
▁He	-829
ceae	-830
▁Jav	-831
iness	-832
▁Business	-833
ibt	-834
▁Leben	-835
▁Schweiz	-836
iet	-837
▁AFC	-838
▁Miss	-839
uis	-840
▁Königreich	-841
▁sie	-842
▁American	-843
▁Av	-844
▁195	-845
akistan	-846
ähr	-847
▁2014	-848
▁gehört	-849
▁15	-850
ster	-851
▁Sri	-852
ampf	-853
▁sp	-854
urk	-855
aisa	-856
▁Wis	-857
▁Mich	-858
▁Black	-859
▁finden	-860
ane	-861
▁Grie	-862
▁Atlant	-863
ne	-864
▁Vis	-865
anter	-866
anterie	-867
ger	-868
yet	-869
ball	-870
▁Turk	-871
ales	-872
▁sch	-873
alcio	-874
▁Hall	-875
▁a	-876
iel	-877
▁Calcio	-878
▁Her	-879
),	-880
ign	-881
▁Acc	-882
eiter	-883
kür	-884
ding	-885
▁serv	-886
▁Länge	-887
▁Sport	-888
az	-889
ademia	-890
▁Mississ	-891
ippi	-892
▁bed	-893
sel	-894
cial	-895
▁Con	-896
▁Accademia	-897
▁Mississippi	-898
In	-899
bb	-900
ena	-901
▁as	-902
burg	-903
aceae	-904
alore	-905
organ	-906
▁Bundes	-907
let	-908
▁Juli	-909
▁bedient	-910
▁Ob	-911
▁Süd	-912
▁Baku	-913
▁Heim	-914
▁Griechen	-915
▁Studenten	-916
tem	-917
rägt	-918
▁Eur	-919
ville	-920
▁Bang	-921
▁dort	-922
BN	-923
ella	-924
leton	-925
ppleton	-926
▁Bangalore	-927
ium	-928
jax	-929
ichtig	-930
▁Appleton	-931
▁Sh	-932
▁Dav	-933
▁Lan	-934
▁Rind	-935
iga	-936
▁Ajax	-937
▁ging	-938
ves	-939
ionico	-940
▁wichtig	-941
▁Architet	-942
ts	-943
ago	-944
amen	-945
anco	-946
▁ISBN	-947
▁Architettur	-948
äm	-949
▁Su	-950
ewell	-951
▁Abe	-952
altet	-953
▁Bakewell	-954
▁Architettura	-955
ys	-956
▁Et	-957
▁tr	-958
▁Add	-959
▁2000	-960
▁Währ	-961
▁seine	-962
ain	-963
▁Publ	-964
▁beträgt	-965
SN	-966
▁Frankreich	-967
emat	-968
umber	-969
▁dessen	-970
▁Mathemat	-971
aka	-972
eine	-973
▁serviert	-974
be	-975
wä	-976
▁Pal	-977
onsin	-978
▁Griechenland	-979
▁II	-980
▁Road	-981
▁paisa	-982
enschen	-983
▁Atlantic	-984
ly	-985
▁Town	-986
consin	-987
▁Addis	-988
▁Akron	-989
▁ausge	-990
ariante	-991
).	-992
▁gele	-993
-2	-994
xp	-995
idge	-996
xplos	-997
▁Flin	-998
▁Abeba	-999
▁Sauce	-1000
xplosion	-1001
▁Währung	-1002
▁Wisconsin	-1003
by	-1004
olfo	-1005
ausge	-1006
▁ISSN	-1007
▁Flint	-1008
▁Pl	-1009
unter	-1010
▁Eric	-1011
hm	-1012
▁Dan	-1013
▁Adolfo	-1014
▁Hamp	-1015
andeja	-1016
▁Obama	-1017
▁Hampshire	-1018
".	-1019
-0	-1020
Inf	-1021
▁Ay	-1022
alli	-1023
▁Mex	-1024
ignit	-1025
▁Türk	-1026
oll	-1027
dern	-1028
▁bes	-1029
aison	-1030
araya	-1031
cated	-1032
udding	-1033
▁Barack	-1034
▁Bionico	-1035
od	-1036
inignit	-1037
Infanterie	-1038
ord	-1039
▁Visves	-1040
▁Variante	-1041
anz	-1042
bal	-1043
itet	-1044
▁250	-1045
▁kann	-1046
varaya	-1047
▁Comic	-1048
to	-1049
ug	-1050
rif	-1051
wählt	-1052
▁Hong	-1053
▁Townsh	-1054
▁Visvesvaraya	-1055
▁Ridge	-1056
▁Mitglied	-1057
▁Township	-1058
bell	-1059
rieb	-1060
rift	-1061
▁Public	-1062
ov	-1063
ira	-1064
▁Dr	-1065
▁ha	-1066
aska	-1067
▁Türkei	-1068
way	-1069
umän	-1070
ative	-1071
bellion	-1072
ern	-1073
inz	-1074
ude	-1075
ajas	-1076
apan	-1077
arnat	-1078
▁Roman	-1079
▁haben	-1080
▁Karnat	-1081
▁Social	-1082
▁Menschen	-1083
rise	-1084
▁Serie	-1085
esh	-1086
ola	-1087
▁Li	-1088
ayer	-1089
pool	-1090
twaf	-1091
▁Bet	-1092
figur	-1093
▁Stre	-1094
uftwaf	-1095
▁Athen	-1096
▁Krise	-1097
▁geführt	-1098
▁Sciences	-1099
asil	-1100
ines	-1101
▁Banan	-1102
▁bayer	-1103
▁Street	-1104
▁Rebellion	-1105
▁brit	-1106
▁Rumän	-1107
▁Regier	-1108
▁Rumänien	-1109
▁Blackpool	-1110
ont	-1111
uel	-1112
itra	-1113
▁Sitz	-1114
▁Technological	-1115
atr	-1116
eil	-1117
twer	-1118
▁Ayam	-1119
oblanco	-1120
twerpen	-1121
▁Saison	-1122
▁Antwerpen	-1123
▁Architekt	-1124
96	-1125
▁9	-1126
arr	-1127
erba	-1128
kong	-1129
▁Alaska	-1130
▁bayerische	-1131
-4	-1132
ln	-1133
▁Etagen	-1134
▁Hongkong	-1135
▁Rindfleisch	-1136
Am	-1137
pena	-1138
▁Pol	-1139
▁zur	-1140
eiten	-1141
ilomar	-1142
▁belie	-1143
▁Asilomar	-1144
▁geleitet	-1145
▁internationale	-1146
iva	-1147
▁Aj	-1148
▁Hu	-1149
▁La	-1150
adrat	-1151
▁Java	-1152
▁Vers	-1153
ference	-1154
oy	-1155
hatt	-1156
lung	-1157
▁dien	-1158
▁asiat	-1159
▁wichtigsten	-1160
ate	-1161
gen	-1162
allas	-1163
ilene	-1164
▁Andrew	-1165
▁Dallas	-1166
Sandwich	-1167
▁Karnataka	-1168
min	-1169
▁Asad	-1170
▁Alpena	-1171
▁Maryland	-1172
ona	-1173
▁Ag	-1174
choy	-1175
▁Ohio	-1176
▁Abilene	-1177
▁Camp	-1178
▁unter	-1179
▁located	-1180
▁Pakistan	-1181
zut	-1182
▁le	-1183
▁Aut	-1184
▁Mas	-1185
▁Brasil	-1186
olv	-1187
▁de	-1188
solv	-1189
äche	-1190
gesch	-1191
▁Hauptzut	-1192
uß	-1193
Bar	-1194
▁21	-1195
▁ind	-1196
▁heiß	-1197
▁Derby	-1198
▁Derbyshire	-1199
▁28	-1200
idsch	-1201
▁Teow	-1202
▁Louis	-1203
Barajas	-1204
idschan	-1205
isation	-1206
oh	-1207
raz	-1208
uss	-1209
▁her	-1210
ondon	-1211
▁Kway	-1212
catraz	-1213
ai	-1214
üs	-1215
ast	-1216
mann	-1217
▁Agra	-1218
▁Lebens	-1219
▁London	-1220
▁England	-1221
erbaidschan	-1222
▁Flughafens	-1223
ob	-1224
▁c	-1225
acon	-1226
▁Versus	-1227
▁Hauptzutaten	-1228
▁Aserbaidschan	-1229
▁-	-1230
edas	-1231
▁1932	-1232
mittel	-1233
▁diente	-1234
▁beliebt	-1235
▁Lebensmittel	-1236
orth	-1237
ietro	-1238
▁Pietro	-1239
▁Sportiva	-1240
gab	-1241
▁Bir	-1242
▁gibt	-1243
▁Bacon	-1244
▁Lanka	-1245
▁Besitz	-1246
92	-1247
▁Libr	-1248
▁Long	-1249
ingham	-1250
▁Mexik	-1251
▁absolv	-1252
▁spielen	-1253
▁britischen	-1254
hak	-1255
▁600	-1256
▁Wil	-1257
▁Mexiko	-1258
▁Alcatraz	-1259
▁Startbahn	-1260
▁3.	-1261
▁Big	-1262
lugze	-1263
▁Andrews	-1264
amm	-1265
uar	-1266
▁Huhn	-1267
▁Tran	-1268
▁verwen	-1269
LC	-1270
aw	-1271
pr	-1272
▁ar	-1273
grem	-1274
▁Ash	-1275
▁Asso	-1276
▁führ	-1277
ußball	-1278
▁Staat	-1279
▁pedas	-1280
▁absolvierte	-1281
etzt	-1282
▁Evil	-1283
▁Press	-1284
▁Batchoy	-1285
ish	-1286
onal	-1287
sterd	-1288
arbeiter	-1289
▁Librarian	-1290
▁akademische	-1291
oc	-1292
▁Vir	-1293
ering	-1294
▁Hard	-1295
▁Gemein	-1296
▁Ajoblanco	-1297
▁Mitarbeiter	-1298
DS	-1299
ala	-1300
ott	-1301
ition	-1302
raten	-1303
▁Mars	-1304
▁Heimat	-1305
▁Quadrat	-1306
,0.	-1307
ics	-1308
▁Volk	-1309
▁Europ	-1310
▁Aldern	-1311
▁Conference	-1312
haj	-1313
ment	-1314
▁Hotel	-1315
▁North	-1316
▁Pudding	-1317
▁Alderney	-1318
▁Librarians	-1319
är	-1320
enn	-1321
üse	-1322
▁100	-1323
▁Row	-1324
uchen	-1325
▁Bella	-1326
mingham	-1327
ji	-1328
ins	-1329
▁Whe	-1330
▁vor	-1331
▁Chic	-1332
▁weiß	-1333
erikan	-1334
fläche	-1335
flughafen	-1336
▁Birmingham	-1337
CLC	-1338
ige	-1339
tor	-1340
eler	-1341
qbal	-1342
▁Mie	-1343
▁einen	-1344
▁Gemüse	-1345
▁Wheeler	-1346
▁e	-1347
ana	-1348
gang	-1349
▁Min	-1350
istor	-1351
▁Mill	-1352
▁Iqbal	-1353
▁Allama	-1354
▁Chicago	-1355
▁Colmore	-1356
▁Poaceae	-1357
reg	-1358
auch	-1359
▁Bel	-1360
▁Mieter	-1361
▁Meister	-1362
back	-1363
igan	-1364
name	-1365
▁Ahm	-1366
▁Trans	-1367
yal	-1368
gabat	-1369
ischer	-1370
▁Luftwaf	-1371
hal	-1372
▁Af	-1373
▁Ir	-1374
acter	-1375
▁Belg	-1376
▁Amsterd	-1377
73	-1378
▁wh	-1379
gest	-1380
▁Del	-1381
iciana	-1382
▁For	-1383
auber	-1384
▁OCLC	-1385
cation	-1386
▁Kampf	-1387
30	-1388
▁Aven	-1389
▁Loyal	-1390
▁Seiten	-1391
ke	-1392
cer	-1393
grö	-1394
umb	-1395
war	-1396
▁Mad	-1397
lossen	-1398
▁Avenue	-1399
atriciana	-1400
▁Binignit	-1401
geschlossen	-1402
15	-1403
egre	-1404
▁Pena	-1405
▁Prov	-1406
▁Adare	-1407
▁gebraten	-1408
ky	-1409
age	-1410
off	-1411
▁190	-1412
▁Lar	-1413
ginia	-1414
afrikan	-1415
▁Dancer	-1416
▁Virginia	-1417
▁Character	-1418
▁verwaltet	-1419
▁Or	-1420
chef	-1421
behör	-1422
riebs	-1423
zeich	-1424
▁Namen	-1425
▁Summit	-1426
▁verwendet	-1427
organisation	-1428
▁internationalen	-1429
ft	-1430
urch	-1431
▁Geb	-1432
▁Penyet	-1433
▁Betriebs	-1434
estandteil	-1435
▁ausgewählt	-1436
aat	-1437
ule	-1438
band	-1439
▁AIDS	-1440
▁Atat	-1441
▁Delaw	-1442
behörde	-1443
▁Johnson	-1444
St	-1445
ry	-1446
cem	-1447
col	-1448
▁Bro	-1449
▁Hal	-1450
▁ers	-1451
▁Wasp	-1452
eitsch	-1453
▁Force	-1454
▁afrikan	-1455
▁Delaware	-1456
eitschrift	-1457
▁Kampfpilot	-1458
CC	-1459
hed	-1460
lege	-1461
▁College	-1462
76	-1463
ko	-1464
lev	-1465
▁Im	-1466
aman	-1467
useum	-1468
▁Clev	-1469
auberer	-1470
▁Zauberer	-1471
▁Cleveland	-1472
per	-1473
▁27	-1474
▁Ang	-1475
staat	-1476
▁Glen	-1477
▁Liga	-1478
zeichn	-1479
▁Comicfigur	-1480
vy	-1481
CCN	-1482
ohn	-1483
acht	-1484
üssel	-1485
▁Levy	-1486
▁Asser	-1487
▁Amatriciana	-1488
ub	-1489
▁Ur	-1490
▁VI	-1491
▁it	-1492
ider	-1493
▁Dis	-1494
▁Fre	-1495
▁LCCN	-1496
isches	-1497
▁which	-1498
▁Atatürk	-1499
▁Amsterdam	-1500
▁Bananaman	-1501
▁Explosion	-1502
spr	-1503
▁Kat	-1504
kürzt	-1505
utter	-1506
▁heißt	-1507
▁ihren	-1508
▁Provinz	-1509
▁Spanisch	-1510
ete	-1511
penh	-1512
uten	-1513
▁Met	-1514
▁Arap	-1515
▁Bhaj	-1516
▁Grey	-1517
▁Roma	-1518
▁Japan	-1519
gekürzt	-1520
▁Angola	-1521
penhagen	-1522
vo	-1523
SAM	-1524
kins	-1525
▁Lum	-1526
onica	-1527
▁ASAM	-1528
▁Chie	-1529
fe	-1530
go	-1531
▁@	-1532
▁en	-1533
▁mal	-1534
aeont	-1535
cover	-1536
▁ange	-1537
▁Metern	-1538
▁Palaeont	-1539
▁Hardcover	-1540
ao	-1541
ake	-1542
base	-1543
▁trad	-1544
▁Green	-1545
▁Verona	-1546
▁tradition	-1547
ilm	-1548
▁Bakso	-1549
uft	-1550
größ	-1551
▁103	-1552
▁AIP	-1553
▁Ice	-1554
▁Ras	-1555
▁1962	-1556
▁Reis	-1557
▁größ	-1558
▁Rober	-1559
▁Chievo	-1560
▁Museum	-1561
fx	-1562
urn	-1563
vor	-1564
▁Ko	-1565
alle	-1566
▁14.	-1567
▁Efx	-1568
einou	-1569
einoupol	-1570
▁Efxeinoupol	-1571
ost	-1572
rez	-1573
ure	-1574
árez	-1575
▁nam	-1576
▁wie	-1577
▁Sand	-1578
▁Suárez	-1579
▁führend	-1580
37	-1581
ahl	-1582
ital	-1583
riot	-1584
▁Marriot	-1585
▁Bundesstaat	-1586
▁r	-1587
ois	-1588
out	-1589
▁Is	-1590
bbio	-1591
ense	-1592
▁Med	-1593
Pilot	-1594
iraqu	-1595
urnal	-1596
▁Plac	-1597
▁Gubbio	-1598
▁größte	-1599
▁seinen	-1600
▁Ashgabat	-1601
▁Arapiraqu	-1602
Ar	-1603
ale	-1604
zip	-1605
euse	-1606
iden	-1607
ilie	-1608
▁Joh	-1609
▁San	-1610
▁Sky	-1611
▁engl	-1612
ziplin	-1613
▁Airbase	-1614
▁Fußball	-1615
euseeland	-1616
▁Arapiraquense	-1617
me	-1618
bury	-1619
▁Ard	-1620
▁Dia	-1621
▁Har	-1622
▁gew	-1623
gremia	-1624
▁namens	-1625
▁Ardmore	-1626
▁j	-1627
iven	-1628
▁Ben	-1629
▁Dim	-1630
▁Fest	-1631
▁Miller	-1632
▁angeschlossen	-1633
ohl	-1634
wohn	-1635
▁gen	-1636
▁Park	-1637
▁Monum	-1638
▁Festung	-1639
▁Marriott	-1640
▁Regierungs	-1641
▁23.	-1642
▁300	-1643
▁Art	-1644
▁Ira	-1645
▁Acta	-1646
▁Infant	-1647
▁Johann	-1648
▁Monument	-1649
rü	-1650
-15	-1651
igh	-1652
elle	-1653
para	-1654
▁Corn	-1655
▁Irak	-1656
gangen	-1657
▁Grant	-1658
▁Disziplin	-1659
▁hergestellt	-1660
11	-1661
änd	-1662
▁Fo	-1663
▁on	-1664
fiel	-1665
field	-1666
▁Führ	-1667
▁Südafr	-1668
▁Indiana	-1669
▁Greenville	-1670
▁Regierungschef	-1671
Mar	-1672
brie	-1673
olumb	-1674
▁1918	-1675
▁dies	-1676
▁Decem	-1677
ciation	-1678
▁Decembrie	-1679
IT	-1680
dn	-1681
zm	-1682
▁to	-1683
▁Ker	-1684
▁Way	-1685
Zeitschrift	-1686
egor	-1687
ylde	-1688
arter	-1689
aston	-1690
ystem	-1691
▁Glaston	-1692
▁Michigan	-1693
BC	-1694
ölk	-1695
öst	-1696
orno	-1697
zmir	-1698
▁Jan	-1699
vered	-1700
▁Lake	-1701
ivorno	-1702
▁Manor	-1703
östlich	-1704
▁Severed	-1705
78	-1706
ex	-1707
▁&	-1708
stät	-1709
zung	-1710
stätte	-1711
▁Irland	-1712
▁System	-1713
46	-1714
LT	-1715
WH	-1716
str	-1717
▁Il	-1718
gine	-1719
uppe	-1720
völk	-1721
▁AWH	-1722
▁fol	-1723
linois	-1724
neider	-1725
▁Autor	-1726
▁Engine	-1727
▁Illinois	-1728
▁Engineering	-1729
▁Glastonbury	-1730
tr	-1731
uner	-1732
▁Bor	-1733
▁Tom	-1734
isham	-1735
▁Schl	-1736
▁Fylde	-1737
arterly	-1738
▁Quarterly	-1739
▁Schneider	-1740
▁Efxeinoupolis	-1741
ari	-1742
kto	-1743
ros	-1744
▁bl	-1745
pfer	-1746
unds	-1747
▁Ass	-1748
▁BLT	-1749
▁LaS	-1750
offel	-1751
▁1996	-1752
▁Okto	-1753
▁Medal	-1754
▁Kerala	-1755
artoffel	-1756
▁Livorno	-1757
▁Oktober	-1758
▁Turkmen	-1759
3.	-1760
ão	-1761
ezz	-1762
ault	-1763
itel	-1764
teer	-1765
attle	-1766
▁aber	-1767
unteer	-1768
▁Advan	-1769
▁Spitz	-1770
▁Lumezz	-1771
▁Dimitra	-1772
▁Romance	-1773
▁Volunteer	-1774
gte	-1775
▁Bay	-1776
▁Barn	-1777
▁Carr	-1778
▁jetzt	-1779
▁Bhajji	-1780
▁Europä	-1781
▁Geback	-1782
▁Assault	-1783
▁Bandeja	-1784
▁Lumezzane	-1785
80	-1786
ail	-1787
ika	-1788
ipe	-1789
tyr	-1790
▁17	-1791
▁56	-1792
▁Kn	-1793
▁Gras	-1794
▁Dales	-1795
▁Campus	-1796
▁wurden	-1797
▁LaSalle	-1798
▁Advances	-1799
tt	-1800
acy	-1801
agor	-1802
alls	-1803
teht	-1804
ufen	-1805
▁BBC	-1806
▁Rad	-1807
ember	-1808
▁Sard	-1809
▁deren	-1810
▁Grasso	-1811
▁Agremia	-1812
▁Grounds	-1813
TA	-1814
▁DC	-1815
▁by	-1816
azet	-1817
ekan	-1818
▁Ant	-1819
▁Nov	-1820
▁1910	-1821
▁Gebä	-1822
▁Gran	-1823
▁Sein	-1824
▁Gazet	-1825
▁asiatische	-1826
64	-1827
adu	-1828
vers	-1829
▁Fel	-1830
ianer	-1831
sburg	-1832
rechen	-1833
▁Battle	-1834
▁Hauptb	-1835
▁Adisham	-1836
▁Studium	-1837
▁gesprochene	-1838
▁Ste	-1839
Arena	-1840
▁Arem	-1841
▁Marm	-1842
▁Stad	-1843
derick	-1844
▁Antio	-1845
▁Barny	-1846
▁DeMar	-1847
▁Martyr	-1848
▁genannt	-1849
▁sprechen	-1850
▁Frederick	-1851
009	-1852
ban	-1853
das	-1854
ina	-1855
▁Fen	-1856
▁Pfl	-1857
▁1927	-1858
▁Main	-1859
Ammann	-1860
▁Dekan	-1861
▁betre	-1862
▁Kuchen	-1863
▁DeMarce	-1864
▁Infantry	-1865
AI	-1866
arg	-1867
cia	-1868
hnan	-1869
zeit	-1870
▁ins	-1871
hatta	-1872
▁Back	-1873
▁Hess	-1874
▁Rath	-1875
▁56009	-1876
▁Felipe	-1877
▁Radhak	-1878
arghatta	-1879
▁Rathaus	-1880
▁Fahrbahnname	-1881
▁Hessarghatta	-1882
00.	-1883
dav	-1884
ice	-1885
▁16	-1886
▁Ol	-1887
▁ro	-1888
▁Bol	-1889
▁sow	-1890
devan	-1891
ahalli	-1892
lugzeug	-1893
rishnan	-1894
ianischen	-1895
▁Soldevan	-1896
▁Radhakrishnan	-1897
▁Soldevanahalli	-1898
red	-1899
ufa	-1900
▁Hö	-1901
▁NW	-1902
alus	-1903
hiop	-1904
davad	-1905
osten	-1906
▁1923	-1907
▁Gufa	-1908
▁Amdavad	-1909
▁Architekten	-1910
▁Az	-1911
▁ni	-1912
onso	-1913
▁Serv	-1914
verband	-1915
▁Parker	-1916
▁Charlie	-1917
▁derzeit	-1918
int	-1919
heim	-1920
▁NWC	-1921
▁zum	-1922
esten	-1923
▁Afonso	-1924
ampfalli	-1925
▁Science	-1926
▁Register	-1927
▁amerikan	-1928
▁Grantville	-1929
▁um	-1930
ando	-1931
ater	-1932
▁15.	-1933
▁Pau	-1934
orden	-1935
▁Schw	-1936
▁Madin	-1937
▁gehören	-1938
▁Sprachen	-1939
▁Und	-1940
rahlt	-1941
▁traditionell	-1942
za	-1943
les	-1944
▁Mc	-1945
ivil	-1946
ttar	-1947
ucht	-1948
adesh	-1949
emier	-1950
meter	-1951
▁Soße	-1952
gesell	-1953
▁Seine	-1954
▁Uttar	-1955
alusien	-1956
▁Chines	-1957
▁Batagor	-1958
▁Pradesh	-1959
▁Premier	-1960
▁Service	-1961
▁ausgest	-1962
▁Andalusien	-1963
▁ausgestrahlt	-1964
aut	-1965
▁ch	-1966
esam	-1967
istr	-1968
▁Lah	-1969
▁1955	-1970
▁Alba	-1971
▁Arab	-1972
▁bandeja	-1973
1-	-1974
70	-1975
ve	-1976
ner	-1977
loss	-1978
orge	-1979
uart	-1980
affen	-1981
amilie	-1982
völker	-1983
▁Lahore	-1984
▁Robert	-1985
▁Sandwich	-1986
ans	-1987
can	-1988
jab	-1989
sgr	-1990
▁Fl	-1991
emin	-1992
ilch	-1993
▁Ces	-1994
unjab	-1995
▁Negre	-1996
▁Januar	-1997
▁findet	-1998
▁Gebäude	-1999
▁Volksgr	-2000
▁Association	-2001
eth	-2002
max	-2003
▁36	-2004
ione	-2005
▁Get	-2006
▁süd	-2007
▁türk	-2008
▁Ahmet	-2009
▁David	-2010
▁Davut	-2011
▁Titel	-2012
▁Baymax	-2013
▁Punjab	-2014
▁Journal	-2015
▁Turkish	-2016
▁Sardampfalli	-2017
üß	-2018
geb	-2019
ial	-2020
orm	-2021
arez	-2022
rach	-2023
gonal	-2024
▁Backup	-2025
▁Stuart	-2026
▁Suarez	-2027
hältlich	-2028
▁Belgien	-2029
▁Martyrs	-2030
▁Diagonal	-2031
öffentlich	-2032
9.	-2033
Ab	-2034
achb	-2035
acob	-2036
▁Rich	-2037
▁Getty	-2038
▁Indianer	-2039
▁erhältlich	-2040
▁Turkmenistan	-2041
Ät	-2042
hie	-2043
ção	-2044
iger	-2045
▁27.	-2046
▁ger	-2047
rache	-2048
ferenz	-2049
wohner	-2050
Äthiop	-2051
▁Staats	-2052
▁seiner	-2053
▁Cornell	-2054
Äthiopien	-2055
▁Gettysburg	-2056
▁Volksgruppe	-2057
2-	-2058
amb	-2059
ebr	-2060
ino	-2061
rem	-2062
uck	-2063
▁32	-2064
ight	-2065
▁has	-2066
ektur	-2067
ürger	-2068
▁Nord	-2069
▁beide	-2070
▁Schweine	-2071
▁Äthiopien	-2072
▁Europäischen	-2073
▁Schweinefleisch	-2074
ett	-2075
iti	-2076
enes	-2077
▁Gra	-2078
▁Guj	-2079
▁Joe	-2080
▁Vin	-2081
hielt	-2082
▁Harb	-2083
ondack	-2084
▁Biden	-2085
▁House	-2086
▁Knobl	-2087
▁Michel	-2088
ilometer	-2089
▁Institut	-2090
▁Knoblauch	-2091
gesellschaft	-2092
▁traditionelles	-2093
äf	-2094
▁gro	-2095
▁Adir	-2096
▁Veil	-2097
▁Harbor	-2098
kilometer	-2099
ausgegangen	-2100
▁Adirondack	-2101
,8	-2102
65	-2103
▁Kl	-2104
arat	-2105
üche	-2106
▁Mag	-2107
akter	-2108
▁1928	-2109
▁Azal	-2110
▁Präf	-2111
▁Semin	-2112
▁Cumber	-2113
▁Minuten	-2114
▁betreibt	-2115
▁Präfektur	-2116
▁Cumberland	-2117
▁gebratenes	-2118
▁Mathematics	-2119
▁afrikanische	-2120
ph	-2121
cil	-2122
ony	-2123
▁34	-2124
▁UT	-2125
ciaz	-2126
isco	-2127
soße	-2128
ühen	-2129
▁Dub	-2130
coben	-2131
▁1969	-2132
▁Hero	-2133
▁Nude	-2134
▁voll	-2135
ammlung	-2136
istoric	-2137
▁Dublin	-2138
ciazione	-2139
▁Alcoben	-2140
▁Council	-2141
▁philippin	-2142
.,	-2143
39	-2144
8.	-2145
RE	-2146
dd	-2147
NAI	-2148
cent	-2149
here	-2150
NAIRE	-2151
chsch	-2152
▁Pers	-2153
▁Figur	-2154
▁Küche	-2155
▁Urspr	-2156
▁ENAIRE	-2157
▁langer	-2158
zeichnet	-2159
▁Gujarat	-2160
▁Hochsch	-2161
▁Vincent	-2162
▁erhielt	-2163
▁östlich	-2164
iom	-2165
▁35	-2166
▁AE	-2167
alon	-2168
▁Bot	-2169
▁Ros	-2170
iomay	-2171
▁blühen	-2172
▁number	-2173
▁Antioqu	-2174
▁Gemeinde	-2175
10	-2176
fü	-2177
ald	-2178
hit	-2179
old	-2180
cher	-2181
enir	-2182
iata	-2183
izab	-2184
rabb	-2185
umai	-2186
▁Des	-2187
▁Mär	-2188
▁1930	-2189
▁High	-2190
church	-2191
ivenöl	-2192
▁Cesena	-2193
▁Elizab	-2194
▁besuch	-2195
▁Familie	-2196
▁Olivenöl	-2197
▁Fenchurch	-2198
▁abgekürzt	-2199
▁Alcobendas	-2200
▁Kopenhagen	-2201
▁Battlefield	-2202
▁Königreichs	-2203
ix	-2204
zö	-2205
zös	-2206
▁Ed	-2207
▁Zu	-2208
emor	-2209
▁Wur	-2210
▁Aenir	-2211
emorial	-2212
▁Schule	-2213
rabbiata	-2214
▁Historic	-2215
▁besuchte	-2216
▁Elizabeth	-2217
aum	-2218
igt	-2219
ange	-2220
sitz	-2221
walt	-2222
▁Tin	-2223
▁Wid	-2224
▁Zit	-2225
öpfer	-2226
▁1957	-2227
▁Mass	-2228
spital	-2229
▁Places	-2230
▁kolumb	-2231
ariation	-2232
▁gerufen	-2233
▁Schöpfer	-2234
▁Antioquia	-2235
84	-2236
met	-2237
▁pro	-2238
ungen	-2239
▁1933	-2240
▁Lars	-2241
▁Mande	-2242
▁einge	-2243
▁folgte	-2244
▁malays	-2245
▁Luftwaffe	-2246
versammlung	-2247
bh	-2248
ho	-2249
kma	-2250
lam	-2251
läm	-2252
odo	-2253
üße	-2254
▁Bur	-2255
▁Sar	-2256
▁Tir	-2257
ocacy	-2258
▁Febr	-2259
▁März	-2260
▁fläm	-2261
hattan	-2262
▁India	-2263
▁Sumat	-2264
▁Wurst	-2265
alonien	-2266
geboren	-2267
▁Tirstr	-2268
▁Widodo	-2269
▁Monocacy	-2270
▁befinden	-2271
▁Katalonien	-2272
gg	-2273
mus	-2274
odi	-2275
ahrt	-2276
usam	-2277
▁ACM	-2278
▁Egg	-2279
▁Ist	-2280
▁pen	-2281
anzen	-2282
fahrt	-2283
gradu	-2284
idmet	-2285
▁Joko	-2286
▁stud	-2287
▁Alkma	-2288
▁Peter	-2289
▁Zivil	-2290
usammen	-2291
▁Rasmus	-2292
▁Zitron	-2293
▁diesem	-2294
▁Tirstrup	-2295
▁Brasilien	-2296
▁Kartoffel	-2297
▁Variation	-2298
▁Quadratmeter	-2299
kke	-2300
rom	-2301
▁30	-2302
▁Bä	-2303
ions	-2304
luft	-2305
oger	-2306
▁ihre	-2307
▁Magde	-2308
▁Print	-2309
▁Richard	-2310
luftfahrt	-2311
▁Hochschul	-2312
▁Manhattan	-2313
▁Rasmussen	-2314
▁Zivilluftfahrt	-2315
▁vorausgegangen	-2316
",	-2317
-20	-2318
wer	-2319
▁Pu	-2320
erra	-2321
▁AEK	-2322
▁Alex	-2323
▁Foot	-2324
▁Bäder	-2325
▁Mario	-2326
▁Solan	-2327
▁Mutter	-2328
▁Sumatra	-2329
▁Football	-2330
▁Pflanzen	-2331
▁Williams	-2332
▁Magdeburg	-2333
▁englische	-2334
▁türkische	-2335
▁Italienisch	-2336
ado	-2337
ato	-2338
olle	-2339
▁700	-2340
▁reg	-2341
▁Dist	-2342
inguis	-2343
▁Admin	-2344
▁Botta	-2345
▁angef	-2346
▁Borman	-2347
▁2014-15	-2348
inguished	-2349
▁Polonica	-2350
▁öffentlich	-2351
▁Gemeinschaft	-2352
yr	-2353
▁Lu	-2354
anac	-2355
arem	-2356
okos	-2357
▁III	-2358
▁Jar	-2359
▁get	-2360
acuel	-2361
▁Deut	-2362
▁Jens	-2363
▁Lock	-2364
▁Paul	-2365
anzler	-2366
▁Kokos	-2367
kürzung	-2368
ologica	-2369
▁Jarama	-2370
▁Siomay	-2371
acuellos	-2372
▁Herausge	-2373
▁Ursprung	-2374
▁pakistan	-2375
▁Agremiação	-2376
▁Paracuellos	-2377
▁Distinguished	-2378
▁Palaeontologica	-2379
53	-2380
74	-2381
án	-2382
fas	-2383
sis	-2384
▁Ma	-2385
alen	-2386
heed	-2387
outh	-2388
▁Car	-2389
ocado	-2390
ublik	-2391
weiht	-2392
▁Ober	-2393
▁eines	-2394
▁Saranac	-2395
Explosion	-2396
▁Bevölker	-2397
▁Lockheed	-2398
▁Neuseeland	-2399
98	-2400
bai	-2401
hol	-2402
tei	-2403
ague	-2404
alla	-2405
cott	-2406
esse	-2407
usuf	-2408
▁Pin	-2409
▁for	-2410
▁Soho	-2411
▁Halim	-2412
▁Jusuf	-2413
▁Kalla	-2414
▁Lippin	-2415
▁Morgan	-2416
▁penyet	-2417
▁Avocado	-2418
▁Spanier	-2419
▁Hospital	-2420
▁November	-2421
▁Lippincott	-2422
nen	-2423
utt	-2424
esch	-2425
hais	-2426
rieg	-2427
▁Mum	-2428
▁akt	-2429
▁ACTA	-2430
▁trat	-2431
▁Mumbai	-2432
▁Pinhais	-2433
▁Wilkins	-2434
▁italien	-2435
▁zusammen	-2436
▁eingeweiht	-2437
AO	-2438
CAO	-2439
pur	-2440
▁17.	-2441
▁18.	-2442
▁Aur	-2443
▁Mat	-2444
▁Sus	-2445
▁man	-2446
▁van	-2447
attar	-2448
ungar	-2449
▁Kutt	-2450
▁Serg	-2451
▁Julia	-2452
▁waren	-2453
teilung	-2454
▁League	-2455
▁Mattar	-2456
▁Februar	-2457
▁Schlacht	-2458
▁Luftwaffen	-2459
▁Mattarella	-2460
▁geschaffen	-2461
▁Herausgeber	-2462
18	-2463
jo	-2464
uk	-2465
eir	-2466
eon	-2467
oor	-2468
yes	-2469
eiro	-2470
elen	-2471
idro	-2472
owys	-2473
▁20.	-2474
▁Ber	-2475
▁dos	-2476
ichte	-2477
▁Euro	-2478
▁ICAO	-2479
attoor	-2480
eonato	-2481
▁Baked	-2482
▁Plack	-2483
▁Powys	-2484
▁Reyes	-2485
▁Scott	-2486
▁Isidro	-2487
▁Nudeln	-2488
▁Sergio	-2489
▁Susana	-2490
▁Regierung	-2491
▁Brasileiro	-2492
▁Campeonato	-2493
öt	-2494
ock	-2495
▁Aw	-2496
▁at	-2497
bast	-2498
eyin	-2499
ilmi	-2500
kara	-2501
▁Cow	-2502
▁Leg	-2503
▁Rep	-2504
▁los	-2505
▁AFIT	-2506
lament	-2507
▁Hilmi	-2508
▁Ankara	-2509
▁Hungar	-2510
▁Kuttik	-2511
▁Sebast	-2512
▁Zitrone	-2513
▁besteht	-2514
▁komische	-2515
▁verbrach	-2516
▁Associazione	-2517
imo	-2518
uge	-2519
-12-	-2520
agle	-2521
ende	-2522
▁737	-2523
▁Eis	-2524
▁vie	-2525
▁histor	-2526
▁Kuttikk	-2527
▁Abkürzung	-2528
▁Americans	-2529
▁Parlament	-2530
▁Transport	-2531
cht	-2532
ies	-2533
ämp	-2534
entr	-2535
oglu	-2536
▁Pan	-2537
lines	-2538
▁Valls	-2539
▁sowohl	-2540
▁Alkmaar	-2541
graduierte	-2542
▁Davutoglu	-2543
▁Kuttikkattoor	-2544
364	-2545
-439	-2546
Crew	-2547
denk	-2548
ific	-2549
liga	-2550
▁Lau	-2551
▁Mah	-2552
▁Nar	-2553
▁Ran	-2554
▁beg	-2555
fasst	-2556
▁1983	-2557
▁Bohn	-2558
▁Dead	-2559
▁Bengo	-2560
▁Ampara	-2561
▁Bundesk	-2562
▁Republik	-2563
mp	-2564
arf	-2565
ini	-2566
▁39	-2567
-130	-2568
colo	-2569
fügt	-2570
weit	-2571
▁Dun	-2572
▁Hop	-2573
▁Nav	-2574
▁are	-2575
inghe	-2576
▁Modi	-2577
▁Wick	-2578
▁Wolf	-2579
▁2014.	-2580
▁Ranil	-2581
▁Narend	-2582
▁Brüssel	-2583
▁Wickrem	-2584
▁entwarf	-2585
▁studierte	-2586
▁ausgezeichnet	-2587
uv	-2588
äd	-2589
-41	-2590
ayl	-2591
har	-2592
aput	-2593
tyle	-2594
▁Sep	-2595
-4165	-2596
aylor	-2597
iphol	-2598
ständ	-2599
▁1966	-2600
▁Haput	-2601
▁führt	-2602
esinghe	-2603
▁Marcol	-2604
▁Shumai	-2605
▁Denkmal	-2606
▁Larcher	-2607
▁Michele	-2608
▁Airlines	-2609
▁Narendra	-2610
▁Personal	-2611
▁blühenden	-2612
▁verbrachte	-2613
▁Bundeskanzler	-2614
▁Quadratmetern	-2615
▁Wickremesinghe	-2616
üt	-2617
ove	-2618
unk	-2619
▁25	-2620
dene	-2621
einh	-2622
▁Kir	-2623
hakur	-2624
▁Brom	-2625
▁from	-2626
halten	-2627
tember	-2628
▁viele	-2629
▁Stadio	-2630
ormation	-2631
▁Sandesh	-2632
▁Systems	-2633
▁schloss	-2634
▁Schiphol	-2635
▁gewidmet	-2636
denkstätte	-2637
▁Marcolini	-2638
▁Schweizer	-2639
▁September	-2640
▁Südafrika	-2641
1.	-2642
òs	-2643
▁os	-2644
park	-2645
▁Aug	-2646
▁Cur	-2647
▁1907	-2648
▁Navy	-2649
▁süße	-2650
▁0-439	-2651
▁Hafen	-2652
▁Javan	-2653
▁Platz	-2654
▁August	-2655
▁Cowper	-2656
▁Native	-2657
▁Thakur	-2658
▁seinem	-2659
flugzeug	-2660
▁beliebtes	-2661
▁asiatischen	-2662
▁akademischen	-2663
48	-2664
Un	-2665
ca	-2666
-17	-2667
ero	-2668
jas	-2669
yan	-2670
▁0-	-2671
▁AZ	-2672
▁Ei	-2673
erie	-2674
halb	-2675
pril	-2676
unst	-2677
▁Ryan	-2678
▁Tenn	-2679
▁Weiß	-2680
▁part	-2681
ateure	-2682
isiert	-2683
▁April	-2684
▁Kunst	-2685
▁osman	-2686
sprache	-2687
tellung	-2688
▁Carrol	-2689
▁Hopkins	-2690
▁Metapan	-2691
▁Einwohner	-2692
▁vollständ	-2693
▁osmanischen	-2694
2.	-2695
IV	-2696
hor	-2697
▁38	-2698
lymp	-2699
▁HIV	-2700
▁Pac	-2701
▁2009	-2702
▁lead	-2703
▁Grove	-2704
▁Olymp	-2705
▁altern	-2706
▁560090.	-2707
▁Pacific	-2708
▁indones	-2709
▁Arabisch	-2710
▁Arrabbiata	-2711
▁Hafenbehörde	-2712
DE	-2713
äl	-2714
DEN	-2715
don	-2716
que	-2717
ròs	-2718
vas	-2719
▁CO	-2720
abad	-2721
arth	-2722
bank	-2723
bhuk	-2724
spie	-2725
umar	-2726
▁Can	-2727
▁Chr	-2728
▁Nix	-2729
▁Vor	-2730
▁off	-2731
dnuss	-2732
ellen	-2733
▁Bill	-2734
▁East	-2735
▁Tony	-2736
edabad	-2737
rabhuk	-2738
▁Arros	-2739
▁Arròs	-2740
▁CODEN	-2741
▁Garth	-2742
▁Stock	-2743
zösisch	-2744
▁Erdnuss	-2745
rabhukumar	-2746
▁Erdnusssoße	-2747
AG	-2748
ku	-2749
ym	-2750
kar	-2751
zig	-2752
▁Aus	-2753
▁Blo	-2754
▁Kap	-2755
▁Tan	-2756
▁Arme	-2757
vasion	-2758
▁where	-2759
▁Burbank	-2760
▁Prabhukumar	-2761
▁Gedenkstätte	-2762
As	-2763
eip	-2764
enz	-2765
ras	-2766
▁Id	-2767
inen	-2768
ymne	-2769
▁28.	-2770
▁Rol	-2771
▁dar	-2772
entif	-2773
iziel	-2774
▁Bolt	-2775
▁Film	-2776
▁Gold	-2777
▁Leip	-2778
▁Sold	-2779
▁Armee	-2780
▁Brook	-2781
▁Franc	-2782
▁Identif	-2783
▁Leipzig	-2784
▁gewählt	-2785
▁Canonica	-2786
▁Chinesen	-2787
▁location	-2788
▁Ahmedabad	-2789
▁Palaeontol	-2790
▁Französisch	-2791
Co	-2792
gor	-2793
ids	-2794
kop	-2795
▁hö	-2796
eten	-2797
hand	-2798
▁kat	-2799
dnung	-2800
elade	-2801
gessen	-2802
▁Austr	-2803
▁durch	-2804
▁chines	-2805
▁Gazette	-2806
▁Schrift	-2807
▁Haputale	-2808
▁binignit	-2809
▁gegessen	-2810
60	-2811
62	-2812
bul	-2813
etz	-2814
▁33	-2815
▁45	-2816
▁Jr	-2817
avlo	-2818
ällt	-2819
▁Alf	-2820
▁Juv	-2821
entus	-2822
kopis	-2823
oulos	-2824
quare	-2825
▁Brot	-2826
▁Cook	-2827
▁tart	-2828
arbeit	-2829
▁Georg	-2830
▁Klaus	-2831
▁Mason	-2832
▁Paris	-2833
▁Pavlo	-2834
▁fällt	-2835
▁Harrie	-2836
▁Tennis	-2837
▁archit	-2838
Amateure	-2839
National	-2840
amerikan	-2841
▁Bananen	-2842
▁Belgaum	-2843
▁Kategor	-2844
▁Juventus	-2845
▁Prokopis	-2846
▁indischen	-2847
▁Identifier	-2848
dem	-2849
▁Th	-2850
Zahl	-2851
part	-2852
▁Cyr	-2853
▁Dra	-2854
▁Ihr	-2855
▁was	-2856
anbul	-2857
esamt	-2858
iking	-2859
▁Höhe	-2860
westen	-2861
▁leben	-2862
▁Alfred	-2863
▁Bohnen	-2864
▁Gesamt	-2865
▁Halimah	-2866
▁Invasion	-2867
▁Südosten	-2868
▁Marmelade	-2869
▁östlichen	-2870
▁italienische	-2871
07	-2872
94	-2873
FK	-2874
gh	-2875
aro	-2876
ars	-2877
chi	-2878
ejo	-2879
ide	-2880
tst	-2881
▁03	-2882
amer	-2883
ames	-2884
oles	-2885
uper	-2886
vano	-2887
▁320	-2888
▁PFK	-2889
▁Sil	-2890
geben	-2891
igung	-2892
kocht	-2893
uster	-2894
▁Aure	-2895
▁Fort	-2896
▁Wien	-2897
▁city	-2898
▁China	-2899
▁Sachb	-2900
▁Yacob	-2901
▁Conejo	-2902
▁Viking	-2903
▁Granola	-2904
▁Silvano	-2905
▁Verwalt	-2906
präsident	-2907
▁Aureoles	-2908
▁offiziel	-2909
▁Charakter	-2910
▁enthalten	-2911
▁amerikanischen	-2912
bem	-2913
sip	-2914
Code	-2915
▁Glo	-2916
▁Här	-2917
▁Jun	-2918
▁Kom	-2919
▁ben	-2920
aster	-2921
namen	-2922
richt	-2923
▁Crew	-2924
▁Eier	-2925
▁Isab	-2926
▁Jose	-2927
▁Tsip	-2928
▁post	-2929
eschäd	-2930
karest	-2931
tstown	-2932
▁Asher	-2933
▁Essen	-2934
▁Milch	-2935
▁höher	-2936
▁Alexis	-2937
▁Butter	-2938
▁Depart	-2939
▁Globem	-2940
▁Granit	-2941
▁Härtel	-2942
▁ampara	-2943
▁gekocht	-2944
▁kategor	-2945
istrative	-2946
▁Bukarest	-2947
▁Führungs	-2948
▁Isabelle	-2949
▁Kategorie	-2950
eschädigung	-2951
▁Department	-2952
▁Gebackenes	-2953
▁Globemaster	-2954
▁kategorisiert	-2955
17	-2956
da	-2957
act	-2958
add	-2959
ley	-2960
ajan	-2961
eing	-2962
ikos	-2963
▁210	-2964
▁610	-2965
▁Bas	-2966
▁Bau	-2967
▁Sao	-2968
▁kon	-2969
addum	-2970
blatt	-2971
issen	-2972
▁1862	-2973
▁Alma	-2974
▁Juni	-2975
▁Lira	-2976
▁Vout	-2977
▁beim	-2978
▁Laura	-2979
▁Nikos	-2980
▁erste	-2981
▁verst	-2982
gestuft	-2983
▁Square	-2984
▁leader	-2985
minister	-2986
schaften	-2987
▁Mahajan	-2988
▁Tsipras	-2989
▁Richardson	-2990
▁eingestuft	-2991
▁Harrietstown	-2992
23	-2993
aq	-2994
ith	-2995
ück	-2996
flus	-2997
irek	-2998
mand	-2999
▁But	-3000
basis	-3001
itiba	-3002
▁2001	-3003
flusst	-3004
hority	-3005
▁17000	-3006
▁Izmir	-3007
▁Johns	-3008
▁Roule	-3009
▁Wiley	-3010
▁malai	-3011
▁negre	-3012
actions	-3013
aqaddum	-3014
irektor	-3015
▁Duncan	-3016
▁schwar	-3017
▁Sumitra	-3018
▁regiert	-3019
einflusst	-3020
Neuseeland	-3021
▁Authority	-3022
▁Mathematik	-3023
▁Information	-3024
▁Gesamtfläche	-3025
hl	-3026
bin	-3027
ddy	-3028
ean	-3029
ese	-3030
hens	-3031
ität	-3032
omas	-3033
▁Hus	-3034
annis	-3035
izade	-3036
resse	-3037
ungsd	-3038
ungsw	-3039
▁1959	-3040
▁1974	-3041
▁erst	-3042
▁span	-3043
andeln	-3044
binsel	-3045
▁Artur	-3046
▁Guner	-3047
▁Lokke	-3048
▁Reddy	-3049
▁getöt	-3050
gericht	-3051
▁Athens	-3052
▁Boeing	-3053
▁Thomas	-3054
▁Butuner	-3055
▁Huseyin	-3056
▁Voutsis	-3057
▁Curitiba	-3058
▁Direktor	-3059
▁Rasizade	-3060
▁Buchfigur	-3061
▁Halbinsel	-3062
▁Copenhagen	-3063
▁Bananenblatt	-3064
▁Transactions	-3065
52	-3066
ef	-3067
yn	-3068
air	-3069
ckb	-3070
▁31	-3071
▁AS	-3072
▁Cl	-3073
▁sé	-3074
aths	-3075
▁Ioh	-3076
dicht	-3077
ished	-3078
▁Baths	-3079
▁Chich	-3080
▁Chute	-3081
▁Deuts	-3082
▁Sucht	-3083
▁série	-3084
▁Banane	-3085
▁Blockb	-3086
▁Norden	-3087
▁begann	-3088
▁Rouleau	-3089
Universit	-3090
▁Iohannis	-3091
▁Istanbul	-3092
▁Minister	-3093
▁Soldaten	-3094
▁Blockbuster	-3095
Reg	-3096
ael	-3097
▁Ph	-3098
pura	-3099
üngl	-3100
▁MIT	-3101
▁gem	-3102
phalt	-3103
raero	-3104
▁Bund	-3105
▁Graf	-3106
▁Hein	-3107
▁Jaya	-3108
▁Stan	-3109
▁arem	-3110
poulos	-3111
▁Rupie	-3112
ünglich	-3113
▁dieser	-3114
denepura	-3115
onferenz	-3116
▁Massimo	-3117
▁Ordnung	-3118
▁Rolando	-3119
Abteilung	-3120
abgekürzt	-3121
▁Franklin	-3122
▁Infraero	-3123
mannschaft	-3124
ungswissen	-3125
▁Pavlopoulos	-3126
▁Präsidenten	-3127
▁afrikanischen	-3128
ungswissenschaft	-3129
8-	-3130
ez	-3131
▁X	-3132
ila	-3133
lag	-3134
lud	-3135
nie	-3136
▁22	-3137
▁ur	-3138
Teil	-3139
asse	-3140
▁12.	-3141
▁Gen	-3142
▁Kol	-3143
ommen	-3144
▁Bron	-3145
▁bede	-3146
▁Heinl	-3147
▁Jorge	-3148
▁Sojas	-3149
▁Stern	-3150
▁urspr	-3151
▁George	-3152
▁Marmor	-3153
▁Asphalt	-3154
▁Jayawar	-3155
▁Mandeln	-3156
▁Rosinen	-3157
▁Location	-3158
▁indische	-3159
▁Sojasauce	-3160
▁Heimstätte	-3161
▁ursprünglich	-3162
▁Jayawardenepura	-3163
12	-3164
33	-3165
90	-3166
one	-3167
set	-3168
äse	-3169
▁"1	-3170
▁88	-3171
▁Du	-3172
anda	-3173
igen	-3174
pielt	-3175
▁Cast	-3176
▁Cent	-3177
▁publ	-3178
ission	-3179
▁Höhen	-3180
▁Jones	-3181
▁Maran	-3182
agement	-3183
▁Bundel	-3184
▁Luanda	-3185
▁Manuel	-3186
▁Wasser	-3187
▁beteil	-3188
genommen	-3189
uperliga	-3190
▁Adresse	-3191
▁Georgia	-3192
▁erricht	-3193
▁schrieb	-3194
▁European	-3195
▁erstellt	-3196
▁gespielt	-3197
▁Bestellung	-3198
▁Management	-3199
▁Variationen	-3200
▁philippinische	-3201
▁Premierminister	-3202
uz	-3203
305	-3204
Lou	-3205
rag	-3206
yah	-3207
▁Ap	-3208
▁MA	-3209
▁SV	-3210
▁fo	-3211
ador	-3212
ated	-3213
ison	-3214
otte	-3215
ulia	-3216
▁Fal	-3217
▁lok	-3218
▁sam	-3219
khand	-3220
▁Drago	-3221
▁Iulia	-3222
▁Kotte	-3223
▁Zentr	-3224
spieler	-3225
ürgerme	-3226
▁Bronze	-3227
▁German	-3228
▁sambal	-3229
▁weißer	-3230
Denkmals	-3231
▁Madison	-3232
▁Tomaten	-3233
▁Heinlein	-3234
▁Solanales	-3235
▁beteiligt	-3236
▁errichtet	-3237
▁Bundelkhand	-3238
▁malaiischen	-3239
▁postgraduierte	-3240
922	-3241
bar	-3242
fol	-3243
ome	-3244
arta	-3245
elig	-3246
scha	-3247
▁Süß	-3248
▁Weg	-3249
▁lat	-3250
erson	-3251
ghlin	-3252
orent	-3253
▁2015	-3254
▁Garn	-3255
▁Stil	-3256
▁Gramm	-3257
▁rotem	-3258
eligion	-3259
ludscha	-3260
nerhalb	-3261
▁Center	-3262
▁Kirche	-3263
▁Nation	-3264
▁Partei	-3265
▁Placid	-3266
▁Führers	-3267
▁bedeuten	-3268
▁Francisco	-3269
▁Gebackene	-3270
▁Falludscha	-3271
▁Grafschaft	-3272
ürgermeister	-3273
▁Amerikanerin	-3274
▁kolumbianischen	-3275
44	-3276
adh	-3277
ash	-3278
bol	-3279
eym	-3280
kab	-3281
ürt	-3282
▁6,	-3283
▁Ex	-3284
▁Fi	-3285
-176	-3286
buch	-3287
mals	-3288
omot	-3289
tain	-3290
tenf	-3291
▁Gel	-3292
▁Ilo	-3293
▁Sal	-3294
▁frü	-3295
▁Herr	-3296
ologie	-3297
▁Awadh	-3298
▁Sands	-3299
▁volle	-3300
eymouth	-3301
▁100305	-3302
▁Berlin	-3303
▁Christ	-3304
▁Tomate	-3305
▁Westen	-3306
▁geheim	-3307
dichtete	-3308
▁Fiorent	-3309
▁Tintenf	-3310
▁Garnelen	-3311
▁Veilchen	-3312
▁Technical	-3313
▁Amsterdamer	-3314
.)	-3315
ano	-3316
inn	-3317
rüm	-3318
zir	-3319
▁29	-3320
▁Bl	-3321
-11-	-3322
cano	-3323
iste	-3324
▁159	-3325
▁ACF	-3326
▁Edu	-3327
▁Sau	-3328
merce	-3329
▁1500	-3330
Region	-3331
ertrüm	-3332
▁denen	-3333
▁zuvor	-3334
Luftwaf	-3335
▁Leiter	-3336
▁bundes	-3337
▁stammen	-3338
ertrümmer	-3339
▁Commerce	-3340
▁erstmals	-3341
▁herausge	-3342
▁Education	-3343
▁Superliga	-3344
▁bundesweit	-3345
▁Indonesisch	-3346
▁aufgenommen	-3347
▁beeinflusst	-3348
▁herausgegeben	-3349
uc	-3350
urs	-3351
▁FK	-3352
burn	-3353
▁Lim	-3354
▁Län	-3355
alenc	-3356
burts	-3357
▁Jack	-3358
▁Kore	-3359
▁Sell	-3360
▁Stev	-3361
▁Taro	-3362
▁USAF	-3363
▁eben	-3364
ademie	-3365
eitung	-3366
errahm	-3367
hitler	-3368
ierung	-3369
onserv	-3370
▁Bezir	-3371
▁State	-3372
▁ersch	-3373
▁560090	-3374
▁Gerard	-3375
▁Wilson	-3376
▁weißem	-3377
▁Sellerie	-3378
▁Standard	-3379
▁Italiener	-3380
▁Sauerrahm	-3381
▁published	-3382
▁Fiorentina	-3383
▁Mathematica	-3384
67	-3385
97	-3386
zp	-3387
hef	-3388
mel	-3389
tes	-3390
▁ad	-3391
Asso	-3392
chup	-3393
▁Ast	-3394
▁Dou	-3395
▁Jak	-3396
▁Tel	-3397
logen	-3398
milch	-3399
▁1976	-3400
▁Patr	-3401
esamöl	-3402
etchup	-3403
nummer	-3404
▁Cyril	-3405
▁Ramap	-3406
▁Stars	-3407
▁bevor	-3408
hitleri	-3409
▁Verlag	-3410
▁valenc	-3411
Memorial	-3412
sitzende	-3413
▁Geburts	-3414
▁Michael	-3415
▁Sesamöl	-3416
▁Memorial	-3417
▁Hungarica	-3418
▁Nordosten	-3419
▁Kokosmilch	-3420
▁angeflogen	-3421
▁offizielle	-3422
ferenznummer	-3423
▁Architektur	-3424
▁Südafrikaner	-3425
▁malaysischen	-3426
▁pakistanischen	-3427
bü	-3428
do	-3429
▁Í	-3430
aca	-3431
hem	-3432
hos	-3433
oco	-3434
urr	-3435
äch	-3436
ambo	-3437
ayas	-3438
hosa	-3439
▁Akt	-3440
▁Arb	-3441
▁Hel	-3442
▁Tud	-3443
melin	-3444
▁3500	-3445
▁Live	-3446
▁Mehl	-3447
▁Post	-3448
ameron	-3449
apital	-3450
torben	-3451
▁Diese	-3452
▁McLou	-3453
▁Zambo	-3454
▁beinh	-3455
▁mater	-3456
▁Ícolo	-3457
angehör	-3458
gremium	-3459
ocotyle	-3460
▁Seagle	-3461
▁Stoger	-3462
▁arbeit	-3463
▁ground	-3464
▁Cameron	-3465
▁Charles	-3466
▁Ketchup	-3467
▁Visayas	-3468
▁Zentral	-3469
▁getötet	-3470
▁umfasst	-3471
▁Akademie	-3472
▁Zamboang	-3473
ocotyledon	-3474
▁0-439-176	-3475
▁Ramaphosa	-3476
▁flämische	-3477
▁gebratene	-3478
▁innerhalb	-3479
▁McLoughlin	-3480
▁beinhaltet	-3481
▁Führungsgremium	-3482
▁valencianischen	-3483
59	-3484
fts	-3485
izo	-3486
kas	-3487
och	-3488
ste	-3489
berg	-3490
doza	-3491
iter	-3492
lins	-3493
utzt	-3494
▁Bal	-3495
▁Bis	-3496
▁Cul	-3497
▁Jal	-3498
▁Ort	-3499
orino	-3500
orizo	-3501
vador	-3502
▁1904	-3503
▁Base	-3504
▁Chil	-3505
▁Pain	-3506
▁kalt	-3507
genden	-3508
▁Enter	-3509
▁Malay	-3510
▁einst	-3511
estlich	-3512
▁Worden	-3513
lugzeuge	-3514
tainment	-3515
▁Cullins	-3516
▁Jakarta	-3517
▁Mendoza	-3518
▁Patrick	-3519
▁Stadion	-3520
▁alternat	-3521
▁Auszeichn	-3522
▁gestorben	-3523
▁Infanterie	-3524
▁flämischen	-3525
▁Entertainment	-3526
▁Referenznummer	-3527
-5	-3528
ec	-3529
ict	-3530
ilt	-3531
oga	-3532
our	-3533
uth	-3534
▁8.	-3535
▁Cu	-3536
▁te	-3537
adal	-3538
apán	-3539
uage	-3540
ucci	-3541
äter	-3542
▁108	-3543
▁911	-3544
▁Gan	-3545
▁Tim	-3546
▁but	-3547
ansas	-3548
ichen	-3549
onnen	-3550
rafts	-3551
İzmir	-3552
▁Dave	-3553
▁Luft	-3554
▁Nach	-3555
▁Puig	-3556
▁aktu	-3557
yahoga	-3558
▁Grand	-3559
▁Grund	-3560
▁Kochi	-3561
▁South	-3562
▁Ganges	-3563
▁Guadal	-3564
▁Kansas	-3565
▁latein	-3566
Dänemark	-3567
▁Chichar	-3568
▁Indiens	-3569
▁Jalisco	-3570
▁Metapán	-3571
▁Panucci	-3572
▁Seminar	-3573
▁Cuyahoga	-3574
▁Gazetten	-3575
▁Christian	-3576
▁Zamboangans	-3577
▁Luftwaffenbasis	-3578
6.	-3579
Ver	-3580
gri	-3581
hav	-3582
vel	-3583
win	-3584
▁co	-3585
bany	-3586
enre	-3587
ethe	-3588
well	-3589
üner	-3590
▁12,	-3591
▁Arm	-3592
▁Dem	-3593
adion	-3594
arnie	-3595
erton	-3596
essin	-3597
griff	-3598
iesel	-3599
▁Zwei	-3600
kuchen	-3601
▁Above	-3602
▁Aniti	-3603
▁Auron	-3604
▁Edwin	-3605
▁Jacob	-3606
umberto	-3607
▁Albany	-3608
▁Crafts	-3609
▁Rinder	-3610
▁Taylor	-3611
▁Tessin	-3612
▁gebürt	-3613
melinids	-3614
▁Lufthav	-3615
▁Ländern	-3616
▁capital	-3617
▁Aktiesel	-3618
▁Asherton	-3619
▁Guadalaj	-3620
▁Humberto	-3621
▁Weymouth	-3622
ungsdichte	-3623
▁Sehitleri	-3624
▁arbeitete	-3625
▁englischen	-3626
▁Indonesiens	-3627
▁Tintenfisch	-3628
▁vollständige	-3629
▁Monocotyledon	-3630
▁Administrative	-3631
-7	-3632
isl	-3633
▁".	-3634
▁Fr	-3635
▁Ha	-3636
club	-3637
ekom	-3638
iast	-3639
kurr	-3640
stüt	-3641
vard	-3642
▁211	-3643
▁Est	-3644
▁Kar	-3645
▁Mot	-3646
▁Wei	-3647
▁gle	-3648
oller	-3649
▁1987	-3650
▁Auft	-3651
▁Käse	-3652
▁warm	-3653
ekomst	-3654
grethe	-3655
region	-3656
ritten	-3657
▁16000	-3658
▁Arena	-3659
▁Roger	-3660
▁schuf	-3661
▁weiße	-3662
setzung	-3663
▁Brooke	-3664
▁Kolumb	-3665
▁Wissen	-3666
▁Harvard	-3667
▁geheime	-3668
alifornia	-3669
iastadion	-3670
▁Anderson	-3671
▁toekomst	-3672
▁Kolumbien	-3673
▁Margrethe	-3674
▁Rumäniens	-3675
▁Sportpark	-3676
▁kolumbian	-3677
angehöriger	-3678
▁California	-3679
▁Bestandteil	-3680
▁Fortsetzung	-3681
▁Guadalajara	-3682
amerikanischer	-3683
▁Olympiastadion	-3684
▁Wissenschaften	-3685
-07	-3686
ada	-3687
mts	-3688
sex	-3689
uez	-3690
uma	-3691
▁07	-3692
0000	-3693
kuit	-3694
lage	-3695
ters	-3696
▁546	-3697
▁Erd	-3698
▁Ham	-3699
▁Sci	-3700
▁Von	-3701
▁len	-3702
▁nun	-3703
anger	-3704
orges	-3705
▁1913	-3706
▁1980	-3707
▁Amts	-3708
▁Manu	-3709
▁Rodr	-3710
▁Zuma	-3711
▁zwei	-3712
treten	-3713
▁Druck	-3714
▁Piste	-3715
▁Weiße	-3716
▁sowie	-3717
▁steht	-3718
wischen	-3719
▁Balder	-3720
▁Poales	-3721
▁Sanger	-3722
▁dieses	-3723
▁sarnie	-3724
▁Georges	-3725
▁Hamburg	-3726
▁language	-3727
kuitkuchen	-3728
▁Schlüssel	-3729
▁Chinesisch	-3730
▁verdichtete	-3731
▁Bodenfleisch	-3732
▁Mathematischen	-3733
AC	-3734
-0.	-3735
253	-3736
aik	-3737
alo	-3738
cao	-3739
ilo	-3740
ián	-3741
▁Ne	-3742
.000	-3743
esen	-3744
hmen	-3745
ieto	-3746
▁Lab	-3747
▁ras	-3748
arese	-3749
ekton	-3750
ffalo	-3751
rique	-3752
▁3180	-3753
▁Dies	-3754
▁Gebr	-3755
▁Hack	-3756
▁Igor	-3757
▁Mech	-3758
▁Naik	-3759
▁Oreg	-3760
attung	-3761
errace	-3762
▁10000	-3763
▁Anbar	-3764
▁Essex	-3765
▁Krieg	-3766
▁Nieto	-3767
▁butty	-3768
Mission	-3769
lantain	-3770
mandeln	-3771
▁Araber	-3772
▁Dieser	-3773
▁Labour	-3774
▁Legisl	-3775
▁Solent	-3776
▁rasher	-3777
▁später	-3778
▁Buffalo	-3779
▁Enrique	-3780
▁Roberts	-3781
▁Terrace	-3782
▁verfügt	-3783
▁Gebraten	-3784
▁Italiens	-3785
▁Religion	-3786
▁Schüssel	-3787
▁Stockwer	-3788
▁spielten	-3789
▁Sebastian	-3790
▁Sebastián	-3791
▁aktuellen	-3792
▁angeführt	-3793
▁Commelinids	-3794
▁Hackfleisch	-3795
▁architekton	-3796
▁Biskuitkuchen	-3797
32	-3798
Ge	-3799
Sp	-3800
352	-3801
adi	-3802
ahm	-3803
pat	-3804
yst	-3805
▁70	-3806
▁IN	-3807
▁aj	-3808
634:	-3809
aber	-3810
anst	-3811
dete	-3812
ford	-3813
glia	-3814
inor	-3815
ling	-3816
olgt	-3817
wald	-3818
äten	-3819
▁Dez	-3820
▁Rev	-3821
-2060	-3822
aldor	-3823
ciale	-3824
enada	-3825
uelle	-3826
uffin	-3827
zpunk	-3828
▁1986	-3829
▁Fute	-3830
▁Süßk	-3831
▁Vila	-3832
▁Boris	-3833
▁Chall	-3834
▁Clube	-3835
▁Ernie	-3836
▁Paisa	-3837
▁found	-3838
anciale	-3839
eringue	-3840
▁1-4165	-3841
▁Anglia	-3842
▁Castle	-3843
▁Ealdor	-3844
▁Igorot	-3845
▁Kokosn	-3846
▁Lankas	-3847
westlich	-3848
▁Grenada	-3849
▁Teilung	-3850
▁gefolgt	-3851
▁konkurr	-3852
stützpunk	-3853
▁Dezember	-3854
▁Lufthavn	-3855
▁Meringue	-3856
▁Stanford	-3857
▁Challinor	-3858
▁Ealdorman	-3859
▁Agremiacao	-3860
▁Erdmandeln	-3861
▁1-4165-2060	-3862
▁Fußballclub	-3863
▁Kampfpilotin	-3864
▁Süßkartoffel	-3865
▁pakistanische	-3866
▁traditionelle	-3867
87	-3868
4-2	-3869
407	-3870
550	-3871
die	-3872
ere	-3873
mob	-3874
▁53	-3875
▁Au	-3876
Char	-3877
apio	-3878
etts	-3879
ival	-3880
ogao	-3881
▁Auf	-3882
▁INF	-3883
▁Lat	-3884
▁Mer	-3885
▁ans	-3886
40714	-3887
Sauce	-3888
Stand	-3889
achus	-3890
akles	-3891
erick	-3892
ollar	-3893
▁1931	-3894
▁4000	-3895
▁Code	-3896
▁Fern	-3897
▁Holl	-3898
▁Nova	-3899
▁Pall	-3900
▁Syst	-3901
▁VIAG	-3902
▁nach	-3903
achtsp	-3904
apioca	-3905
elwald	-3906
▁Immob	-3907
▁Metro	-3908
▁Steve	-3909
▁Weihn	-3910
▁hatte	-3911
▁Astron	-3912
▁Auburn	-3913
▁Mandel	-3914
▁Muffin	-3915
▁gebaut	-3916
Standort	-3917
▁Futebol	-3918
▁Revival	-3919
▁written	-3920
Charakter	-3921
achusetts	-3922
▁60040714	-3923
▁Fernando	-3924
▁Hollande	-3925
▁Kapstadt	-3926
▁Limerick	-3927
stützpunkt	-3928
▁Deutschen	-3929
▁Ellington	-3930
▁Hauptgang	-3931
▁Kokosnuss	-3932
▁Gebratenes	-3933
achtspudding	-3934
▁Legislative	-3935
▁historischen	-3936
▁Bürgermeister	-3937
▁Massachusetts	-3938
▁Süßkartoffeln	-3939
..	-3940
20	-3941
85	-3942
ea	-3943
pa	-3944
270	-3945
alm	-3946
arm	-3947
atu	-3948
duz	-3949
egn	-3950
fte	-3951
une	-3952
äss	-3953
haca	-3954
kham	-3955
prim	-3956
▁000	-3957
▁280	-3958
▁978	-3959
▁Odd	-3960
▁Stö	-3961
▁kön	-3962
ailem	-3963
alegn	-3964
falls	-3965
hymne	-3966
räger	-3967
▁2008	-3968
▁8000	-3969
▁Diaz	-3970
▁Koln	-3971
▁Mahe	-3972
▁Tesh	-3973
▁Whit	-3974
▁barm	-3975
▁spez	-3976
achbar	-3977
lungen	-3978
redder	-3979
▁70634	-3980
▁Texan	-3981
duziert	-3982
mandant	-3983
▁16.000	-3984
▁Hailem	-3985
▁Steven	-3986
▁ansäss	-3987
▁können	-3988
▁voller	-3989
▁voraus	-3990
▁8000270	-3991
▁Auftrag	-3992
▁Teshome	-3993
▁Tinkham	-3994
▁Desalegn	-3995
▁Pallesen	-3996
▁Salvador	-3997
▁aktuelle	-3998
▁schwarze	-3999
▁Guanciale	-4000
▁Grundfläche	-4001
▁geschredder	-4002
▁indonesische	-4003
Te	-4004
gan	-4005
▁13	-4006
▁60	-4007
▁AK	-4008
▁Ps	-4009
▁re	-4010
3528	-4011
adio	-4012
alil	-4013
etti	-4014
hack	-4015
▁973	-4016
▁Gar	-4017
▁rom	-4018
-4253	-4019
Black	-4020
aille	-4021
ariam	-4022
bergt	-4023
▁hinz	-4024
ämpfer	-4025
▁James	-4026
▁Oddie	-4027
▁Psalm	-4028
▁Urich	-4029
▁beher	-4030
-1-4165	-4031
istrict	-4032
▁"1634:	-4033
▁Ithaca	-4034
▁Latium	-4035
▁Mexico	-4036
▁geback	-4037
▁gewann	-4038
enreiter	-4039
▁560090,	-4040
▁Atlanta	-4041
▁Verband	-4042
▁Aurakles	-4043
▁gleichen	-4044
ganisation	-4045
▁Besatzung	-4046
▁gebürtige	-4047
▁Geburtsort	-4048
▁beherbergt	-4049
▁produziert	-4050
-1-4165-4253	-4051
▁Bevölkerung	-4052
▁Hailemariam	-4053
▁Griechenlands	-4054
▁Nationalhymne	-4055
▁Spitzenreiter	-4056
34	-4057
Sta	-4058
ats	-4059
azu	-4060
typ	-4061
yum	-4062
▁2.	-4063
▁SK	-4064
arry	-4065
asan	-4066
rüch	-4067
ston	-4068
▁Afr	-4069
▁Ana	-4070
▁Pap	-4071
▁bis	-4072
haric	-4073
leitz	-4074
orben	-4075
▁Asam	-4076
▁Beef	-4077
▁Falc	-4078
▁Shir	-4079
▁Walt	-4080
▁kämp	-4081
chisch	-4082
ierten	-4083
▁Tudor	-4084
yumasan	-4085
▁Boston	-4086
▁weiter	-4087
Taqaddum	-4088
leitzahl	-4089
▁Amharic	-4090
▁Anaheim	-4091
Konferenz	-4092
▁Gerichts	-4093
▁ansässig	-4094
▁Immobilie	-4095
▁Landesvor	-4096
▁ajoblanco	-4097
▁Banyumasan	-4098
▁Vereinigte	-4099
▁Amtssprache	-4100
▁malaysische	-4101
▁akademisches	-4102
▁gesprochenen	-4103
-9	-4104
AA	-4105
iu	-4106
vd	-4107
-9.	-4108
1-8	-4109
rat	-4110
rog	-4111
zen	-4112
▁"0	-4113
▁41	-4114
chie	-4115
cian	-4116
eral	-4117
höhe	-4118
mond	-4119
ynam	-4120
▁497	-4121
▁Aff	-4122
▁Klu	-4123
▁Pic	-4124
▁Qiu	-4125
▁Rut	-4126
▁bra	-4127
▁typ	-4128
ademy	-4129
autet	-4130
trenn	-4131
waren	-4132
ächen	-4133
▁Blvd	-4134
▁Marv	-4135
▁Phil	-4136
▁abge	-4137
▁with	-4138
Verona	-4139
▁Dynam	-4140
▁Fisch	-4141
▁arros	-4142
▁ihrer	-4143
ugefügt	-4144
▁Garden	-4145
▁Panama	-4146
▁Stöger	-4147
▁Telang	-4148
▁beitra	-4149
▁lautet	-4150
▁Academy	-4151
▁General	-4152
▁Leitung	-4153
▁Shirley	-4154
▁Tapioca	-4155
▁Whitman	-4156
▁komprim	-4157
Blackwell	-4158
polregion	-4159
▁Dynamics	-4160
▁Flugzeug	-4161
▁gebacken	-4162
▁Höhenlage	-4163
▁Kommandant	-4164
▁hinzugefügt	-4165
▁geschredderte	-4166
Nationalspieler	-4167
▁Metropolregion	-4168
1,	-4169
cr	-4170
eo	-4171
ón	-4172
-01	-4173
Ger	-4174
eme	-4175
sit	-4176
▁bu	-4177
▁da	-4178
ambg	-4179
gium	-4180
iber	-4181
nete	-4182
▁11,	-4183
▁277	-4184
▁Fil	-4185
▁Mol	-4186
▁Pat	-4187
▁Tas	-4188
▁Wol	-4189
▁bat	-4190
▁dav	-4191
▁sau	-4192
00.0.	-4193
andid	-4194
aracy	-4195
artei	-4196
auten	-4197
ciano	-4198
ionen	-4199
tonio	-4200
▁Bart	-4201
▁Chef	-4202
▁Mata	-4203
▁Phys	-4204
▁Verb	-4205
alileo	-4206
griffs	-4207
hackte	-4208
ilding	-4209
lichen	-4210
person	-4211
▁Beach	-4212
▁Clubs	-4213
▁Eagle	-4214
▁Fight	-4215
▁Fluss	-4216
▁Kolle	-4217
▁Spall	-4218
▁darin	-4219
▁hogao	-4220
▁Affair	-4221
▁Falcon	-4222
▁Graeme	-4223
▁Kluwer	-4224
▁Maiden	-4225
▁Parana	-4226
▁Rivers	-4227
chenbuch	-4228
enkandid	-4229
▁Coaracy	-4230
▁Galileo	-4231
▁Javaner	-4232
▁Luciano	-4233
▁Wolters	-4234
▁kämpfte	-4235
Luftwaffe	-4236
▁Fighting	-4237
▁Seminary	-4238
Sandwiches	-4239
▁Chicharon	-4240
▁Dänemarks	-4241
▁Kollegium	-4242
▁Riverside	-4243
▁Spitzname	-4244
▁Südwesten	-4245
▁Telangana	-4246
▁ebenfalls	-4247
▁Taschenbuch	-4248
▁chinesische	-4249
▁ChievoVerona	-4250
▁Fahrbahnnamen	-4251
▁Spitzenkandid	-4252
▁kolumbianische	-4253
▁Schlüsselperson	-4254
6-	-4255
-16	-4256
3,8	-4257
8-2	-4258
Don	-4259
wie	-4260
5978	-4261
akes	-4262
amin	-4263
anze	-4264
esel	-4265
glas	-4266
iaol	-4267
iben	-4268
icip	-4269
itik	-4270
ivis	-4271
länd	-4272
nell	-4273
oder	-4274
onse	-4275
schl	-4276
økke	-4277
▁-3.	-4278
▁896	-4279
▁Mor	-4280
▁Mun	-4281
▁Vic	-4282
▁mex	-4283
▁pol	-4284
asiat	-4285
uting	-4286
▁2777	-4287
▁9364	-4288
▁Kenn	-4289
▁Lega	-4290
▁Mols	-4291
▁Spie	-4292
▁grie	-4293
acones	-4294
icipal	-4295
onseca	-4296
▁Früch	-4297
▁Kesel	-4298
▁davon	-4299
Gericht	-4300
iaolong	-4301
verwalt	-4302
▁Columb	-4303
▁Dollar	-4304
▁Klasse	-4305
▁früher	-4306
▁südost	-4307
▁Douglas	-4308
▁Fonseca	-4309
▁Gattung	-4310
▁Pflanze	-4311
▁Seehöhe	-4312
▁Texaner	-4313
▁93645978	-4314
verwaltung	-4315
▁Millionen	-4316
▁Spalletti	-4317
▁abgetrenn	-4318
Universitas	-4319
▁Nordwesten	-4320
▁Stockwerke	-4321
▁südostasiat	-4322
▁beitragenden	-4323
▁öffentlichen	-4324
▁Universitäten	-4325
▁Spitzenkandidat	-4326
95	-4327
Ch	-4328
GR	-4329
QU	-4330
pl	-4331
▁Ü	-4332
▁ä	-4333
-8-	-4334
QUE	-4335
apt	-4336
ine	-4337
mic	-4338
ook	-4339
orc	-4340
orr	-4341
vin	-4342
zer	-4343
▁05	-4344
▁09	-4345
▁87	-4346
▁Fu	-4347
▁km	-4348
▁ne	-4349
aple	-4350
edom	-4351
elli	-4352
illa	-4353
illi	-4354
iver	-4355
jano	-4356
kürz	-4357
onym	-4358
skab	-4359
uban	-4360
▁21.	-4361
▁AGR	-4362
▁Adv	-4363
▁Neu	-4364
▁Pot	-4365
▁its	-4366
843,8	-4367
Bauch	-4368
Izmir	-4369
Techn	-4370
drini	-4371
druck	-4372
ensis	-4373
teapt	-4374
▁2776	-4375
▁Balt	-4376
▁Dane	-4377
▁Eman	-4378
▁Horr	-4379
▁Karl	-4380
▁Lage	-4381
▁Moro	-4382
▁Rahm	-4383
▁Sach	-4384
▁teil	-4385
▁währ	-4386
▁Über	-4387
Chines	-4388
Taylor	-4389
ighter	-4390
▁1957.	-4391
▁Cakes	-4392
▁Colon	-4393
▁Count	-4394
▁Løkke	-4395
▁Maple	-4396
▁McDon	-4397
▁arepa	-4398
ernsoße	-4399
micelli	-4400
orcilla	-4401
schluss	-4402
▁Davuto	-4403
▁Status	-4404
▁Wiener	-4405
anischen	-4406
peration	-4407
ubanelle	-4408
▁-3.3528	-4409
▁Desmond	-4410
▁Emanuel	-4411
▁Estadio	-4412
▁Freedom	-4413
▁Ilocano	-4414
▁während	-4415
Technical	-4416
flugzeuge	-4417
▁Boldrini	-4418
▁Horrigan	-4419
▁Xiaolong	-4420
▁kaliforn	-4421
▁verstarb	-4422
Chinesisch	-4423
▁Lauraceae	-4424
▁Oberfläche	-4425
▁verstorben	-4426
ertrümmertes	-4427
▁Astronauten	-4428
▁Austernsoße	-4429
▁Regierungschefs	-4430
13	-4431
7,	-4432
At	-4433
Or	-4434
pi	-4435
ül	-4436
ahn	-4437
amt	-4438
cos	-4439
dur	-4440
kre	-4441
lot	-4442
ows	-4443
ula	-4444
ğlu	-4445
▁52	-4446
▁KV	-4447
▁ay	-4448
▁pr	-4449
0008	-4450
Amer	-4451
haus	-4452
wall	-4453
wohl	-4454
üler	-4455
üßer	-4456
▁448	-4457
▁Adm	-4458
▁Dok	-4459
▁Exc	-4460
▁Put	-4461
▁Val	-4462
▁däm	-4463
▁ähn	-4464
Athen	-4465
ement	-4466
essen	-4467
ester	-4468
risch	-4469
urtur	-4470
▁1985	-4471
▁Apul	-4472
▁Asch	-4473
▁Brit	-4474
▁Drog	-4475
▁Poln	-4476
▁alma	-4477
▁sago	-4478
during	-4479
funden	-4480
itiker	-4481
▁1955.	-4482
▁Award	-4483
▁Filip	-4484
▁Hymne	-4485
▁Kenny	-4486
▁Stück	-4487
▁built	-4488
edaille	-4489
ellence	-4490
▁Dieses	-4491
▁Meride	-4492
▁Tejano	-4493
▁blanco	-4494
▁kommen	-4495
▁siegte	-4496
urturing	-4497
▁30843,8	-4498
▁Deutsch	-4499
▁Spieler	-4500
▁mexikan	-4501
▁ähnlich	-4502
ungsreich	-4503
▁Building	-4504
▁Enduring	-4505
▁Mechelen	-4506
▁darunter	-4507
▁gegangen	-4508
▁Apulensis	-4509
▁Aschgabat	-4510
▁Davutoğlu	-4511
▁McDonnell	-4512
▁Stockport	-4513
▁Excellence	-4514
▁bedeutende	-4515
▁Bodenfläche	-4516
▁Aktieselskab	-4517
▁Nationalpark	-4518
Qu	-4519
XN	-4520
wn	-4521
11.	-4522
371	-4523
468	-4524
Die	-4525
Man	-4526
raj	-4527
rov	-4528
ugt	-4529
urz	-4530
usa	-4531
amil	-4532
arif	-4533
baut	-4534
enza	-4535
rock	-4536
uert	-4537
ände	-4538
▁Als	-4539
▁Gus	-4540
▁Mel	-4541
46863	-4542
ienst	-4543
ieren	-4544
unkle	-4545
▁1998	-4546
▁Chin	-4547
▁Enda	-4548
▁Gene	-4549
▁Pale	-4550
▁Rand	-4551
▁Sago	-4552
▁Ster	-4553
▁ayam	-4554
▁fran	-4555
amsche	-4556
gesamt	-4557
▁19238	-4558
▁39371	-4559
▁Adsit	-4560
▁Arion	-4561
▁Faber	-4562
▁Icolo	-4563
▁Paulo	-4564
▁Poyet	-4565
▁Sousa	-4566
▁Union	-4567
▁group	-4568
▁style	-4569
Fußball	-4570
Quadrat	-4571
kämpfer	-4572
omotive	-4573
▁Bright	-4574
▁Chilli	-4575
▁Melaka	-4576
▁Oregon	-4577
▁Putraj	-4578
▁Sharif	-4579
▁dunkle	-4580
▁ethnic	-4581
lugzeugt	-4582
rocknete	-4583
▁Austria	-4584
▁Chester	-4585
▁Fighter	-4586
▁Olympia	-4587
▁Staates	-4588
▁Verbind	-4589
▁Vicenza	-4590
▁chorizo	-4591
▁schufen	-4592
auptstadt	-4593
patacones	-4594
▁89646863	-4595
▁gewonnen	-4596
▁Carrarese	-4597
Association	-4598
▁lokomotive	-4599
▁spanischen	-4600
▁getrocknete	-4601
▁öffentliche	-4602
lugzeugträger	-4603
▁Chesterfield	-4604
▁Organisation	-4605
▁öffentlicher	-4606
▁Auszeichnungen	-4607
5,	-4608
IS	-4609
th	-4610
-11	-4611
002	-4612
ATA	-4613
ded	-4614
els	-4615
gku	-4616
res	-4617
ühn	-4618
▁08	-4619
▁SC	-4620
▁TV	-4621
Buch	-4622
aude	-4623
egen	-4624
ipol	-4625
▁Ajo	-4626
▁Bab	-4627
▁Kon	-4628
▁inz	-4629
araba	-4630
atown	-4631
büros	-4632
chnit	-4633
drück	-4634
gkuas	-4635
gramm	-4636
▁Auch	-4637
▁Dazu	-4638
▁Hühn	-4639
▁IATA	-4640
▁West	-4641
einhin	-4642
ension	-4643
heuert	-4644
iensis	-4645
ierter	-4646
▁Bhaji	-4647
▁Chili	-4648
▁Colan	-4649
▁Motto	-4650
▁added	-4651
elsberg	-4652
▁Claude	-4653
▁Qaraba	-4654
▁Torino	-4655
chnitten	-4656
üllungen	-4657
▁Alexand	-4658
▁Bezirke	-4659
▁Carroll	-4660
▁Flächen	-4661
▁Früchte	-4662
▁Jackson	-4663
▁Schipol	-4664
▁gedruck	-4665
▁verkürz	-4666
Fußballer	-4667
gegründet	-4668
▁Berliner	-4669
▁Neustadt	-4670
▁lengkuas	-4671
▁plantain	-4672
▁Baltische	-4673
▁Chinatown	-4674
▁Putrajaya	-4675
▁gemeinhin	-4676
▁spanische	-4677
▁Australien	-4678
▁Babelsberg	-4679
▁Spitznamen	-4680
▁angeheuert	-4681
▁inzwischen	-4682
▁Äthiopiens	-4683
▁Frankreichs	-4684
▁Mitgliedern	-4685
▁geschnitten	-4686
▁Aarhusiensis	-4687
▁Hauptsprache	-4688
▁alternativen	-4689
griffsflugzeug	-4690
▁amerikanische	-4691
▁vollständiger	-4692
TV	-4693
yp	-4694
-92	-4695
349	-4696
670	-4697
705	-4698
73.	-4699
932	-4700
ehr	-4701
ibe	-4702
▁Ku	-4703
▁ob	-4704
▁zw	-4705
-033	-4706
80-4	-4707
ajji	-4708
ance	-4709
cema	-4710
eich	-4711
erth	-4712
gory	-4713
keit	-4714
▁573	-4715
▁Fox	-4716
▁Mac	-4717
▁Rei	-4718
▁STV	-4719
▁Tra	-4720
▁air	-4721
▁met	-4722
▁one	-4723
92246	-4724
ailan	-4725
ectur	-4726
ehmen	-4727
hajji	-4728
ieder	-4729
igent	-4730
iguez	-4731
olone	-4732
▁1174	-4733
▁3800	-4734
▁5705	-4735
▁Alab	-4736
▁Bach	-4737
▁Grün	-4738
▁lebt	-4739
▁nord	-4740
▁oper	-4741
▁rote	-4742
-92550	-4743
drückt	-4744
sterix	-4745
▁0-670	-4746
▁Kuala	-4747
▁Mater	-4748
▁Mathe	-4749
▁Perth	-4750
▁sauer	-4751
▁140000	-4752
▁Hühner	-4753
▁Kailan	-4754
▁Lumpur	-4755
▁Rovers	-4756
▁besitz	-4757
▁bhajji	-4758
▁vollen	-4759
-03380-4	-4760
▁5705922	-4761
▁Asterix	-4762
▁Buscema	-4763
▁Gelände	-4764
▁Gregory	-4765
▁Located	-4766
▁Schüler	-4767
▁französ	-4768
ternehmen	-4769
▁Rosaceae	-4770
Amerikaner	-4771
kilometern	-4772
▁Bartolone	-4773
▁Flächenco	-4774
▁Operation	-4775
▁Pakistans	-4776
▁insgesamt	-4777
▁0-439-92550	-4778
▁0-670-03380-4	-4779
▁Hühnergericht	-4780
▁Tennisverband	-4781
▁1-4165-2060-0.	-4782
▁978-1-4165-4253	-4783
▁Flugzeugkämpfer	-4784
▁veröffentlichte	-4785
86	-4786
no	-4787
ér	-4788
392	-4789
abi	-4790
ibb	-4791
ikt	-4792
imm	-4793
kin	-4794
lyn	-4795
9618	-4796
amno	-4797
antw	-4798
asha	-4799
best	-4800
elor	-4801
iane	-4802
ließ	-4803
ritt	-4804
tell	-4805
▁292	-4806
▁900	-4807
▁Abg	-4808
▁Gér	-4809
▁Jos	-4810
▁Kop	-4811
▁Lin	-4812
▁Run	-4813
▁cob	-4814
▁sel	-4815
-2015	-4816
2-932	-4817
hemal	-4818
stein	-4819
▁1988	-4820
▁2215	-4821
▁4349	-4822
▁Arms	-4823
▁Bari	-4824
▁Dick	-4825
▁Dill	-4826
▁Gard	-4827
▁Huss	-4828
▁Univ	-4829
000823	-4830
1-8392	-4831
ambien	-4832
amnoon	-4833
frisch	-4834
immung	-4835
▁69618	-4836
▁Diane	-4837
▁Youth	-4838
▁gesal	-4839
▁nutzt	-4840
antwort	-4841
konserv	-4842
▁Carles	-4843
▁Cookie	-4844
▁Gérard	-4845
▁Hartel	-4846
▁Manual	-4847
▁ehemal	-4848
▁erbaut	-4849
▁spezif	-4850
▁Abgänge	-4851
▁Alabama	-4852
▁Antioch	-4853
▁Antonio	-4854
▁Barajas	-4855
▁Führung	-4856
▁Gardner	-4857
▁Hussain	-4858
▁Mamnoon	-4859
▁Menasha	-4860
▁Mission	-4861
▁Rutland	-4862
▁Sachsen	-4863
▁Wolfman	-4864
iederländ	-4865
konserven	-4866
▁57392246	-4867
▁Airports	-4868
▁Bachelor	-4869
▁Brooklyn	-4870
▁Taqaddum	-4871
▁verfasst	-4872
bestimmung	-4873
▁2014-2015	-4874
▁Rodriguez	-4875
▁Olympiacos	-4876
▁arrabbiata	-4877
▁erschaffen	-4878
▁vermicelli	-4879
▁0-439-17685	-4880
▁Unternehmen	-4881
▁alternative	-4882
▁architectur	-4883
▁Nationalität	-4884
▁abgetrennter	-4885
▁historischer	-4886
GP	-4887
kl	-4888
zo	-4889
2-2	-4890
573	-4891
900	-4892
983	-4893
PGP	-4894
Tin	-4895
eal	-4896
iah	-4897
lez	-4898
obi	-4899
▁26	-4900
▁50	-4901
▁Ly	-4902
▁sh	-4903
6315	-4904
aret	-4905
cash	-4906
menz	-4907
▁130	-4908
▁767	-4909
▁Hat	-4910
▁Sim	-4911
▁São	-4912
▁sea	-4913
▁tex	-4914
PGPAC	-4915
Tinte	-4916
delez	-4917
führt	-4918
ucker	-4919
zenes	-4920
▁2744	-4921
▁8364	-4922
▁José	-4923
▁Kämp	-4924
▁dass	-4925
▁gest	-4926
▁made	-4927
▁soll	-4928
anzahl	-4929
ffüßer	-4930
iation	-4931
ournal	-4932
▁23900	-4933
▁Carpi	-4934
▁Duane	-4935
▁Hambg	-4936
▁Phill	-4937
▁Pugin	-4938
▁Urein	-4939
anstalt	-4940
cashire	-4941
▁767983	-4942
▁Fläche	-4943
▁Knight	-4944
▁bisher	-4945
▁Paleobi	-4946
▁Palmenz	-4947
▁gemacht	-4948
achbarten	-4949
ontologie	-4950
▁83646315	-4951
▁Augustus	-4952
▁Mondelez	-4953
▁Spaniens	-4954
▁bevölker	-4955
▁gehackte	-4956
▁Abteilung	-4957
▁Kopffüßer	-4958
▁britische	-4959
▁Kollegiums	-4960
▁Lancashire	-4961
▁Veranstalt	-4962
▁gesalzenes	-4963
▁südöstlich	-4964
▁Bodenanzahl	-4965
▁Europäische	-4966
▁Universitas	-4967
▁Ureinwohner	-4968
▁Zeitschrift	-4969
▁Palmenzucker	-4970
▁benachbarten	-4971
▁chinesischen	-4972
▁Paleobiologie	-4973
-8	-4974
4.	-4975
72	-4976
bu	-4977
gu	-4978
711	-4979
90.	-4980
Bes	-4981
Ein	-4982
ace	-4983
brü	-4984
des	-4985
kro	-4986
reh	-4987
teo	-4988
öln	-4989
▁6.	-4990
▁AD	-4991
▁AM	-4992
0025	-4993
amie	-4994
bhai	-4995
cois	-4996
crem	-4997
enzi	-4998
guin	-4999
krop	-5000
reaz	-5001
▁512	-5002
▁787	-5003
▁Arn	-5004
▁Los	-5005
▁Vit	-5006
Serie	-5007
acker	-5008
andes	-5009
brühe	-5010
creme	-5011
eldon	-5012
enzie	-5013
folge	-5014
stral	-5015
uston	-5016
▁1981	-5017
▁4150	-5018
▁Alph	-5019
▁Bibb	-5020
▁Bord	-5021
▁Dale	-5022
▁Dreh	-5023
▁Fuad	-5024
▁Köln	-5025
▁Lyle	-5026
▁Mold	-5027
▁Tart	-5028
▁Wall	-5029
▁Ximo	-5030
▁book	-5031
▁mehr	-5032
▁vers	-5033
Staats	-5034
aretta	-5035
folger	-5036
igkeit	-5037
▁497,0	-5038
▁Renzi	-5039
▁Steyr	-5040
▁Ukrop	-5041
▁Valer	-5042
▁above	-5043
▁level	-5044
▁print	-5045
▁İzmir	-5046
berater	-5047
▁787711	-5048
▁Admira	-5049
▁Daniel	-5050
▁Fenves	-5051
▁Haider	-5052
▁Herren	-5053
▁Matteo	-5054
▁Oberfl	-5055
▁Promot	-5056
▁Random	-5057
▁Reihen	-5058
▁Wacker	-5059
▁Weißen	-5060
▁landes	-5061
▁region	-5062
thelwald	-5063
▁Bereich	-5064
▁English	-5065
▁Houston	-5066
▁Penguin	-5067
▁Sheldon	-5068
▁austral	-5069
▁dämonym	-5070
▁80002709	-5071
▁Columbia	-5072
▁District	-5073
▁Eiscreme	-5074
▁Francois	-5075
▁blühende	-5076
▁Fußballer	-5077
▁gestaltet	-5078
▁vertreten	-5079
ionsberater	-5080
▁Alpharetta	-5081
▁Nachfolger	-5082
▁landesweit	-5083
▁Reihenfolge	-5084
▁Rinderbrühe	-5085
zertrümmertes	-5086
▁französische	-5087
AM	-5088
AS	-5089
An	-5090
bä	-5091
ki	-5092
517	-5093
715	-5094
Rom	-5095
Süß	-5096
abl	-5097
bst	-5098
ema	-5099
ken	-5100
mut	-5101
ähe	-5102
ärö	-5103
▁Uj	-5104
▁Vi	-5105
▁po	-5106
-792	-5107
Gebä	-5108
Post	-5109
afft	-5110
ahar	-5111
ajub	-5112
ates	-5113
awaz	-5114
baan	-5115
beef	-5116
hard	-5117
ietn	-5118
ring	-5119
▁464	-5120
▁Abu	-5121
▁Büt	-5122
▁Hüs	-5123
▁Lee	-5124
▁Paz	-5125
▁Wel	-5126
▁Wiz	-5127
▁bas	-5128
▁kam	-5129
6-364	-5130
Abadi	-5131
Krieg	-5132
atins	-5133
geles	-5134
▁5300	-5135
▁Cohn	-5136
▁Garr	-5137
▁Gary	-5138
▁Into	-5139
▁Nähe	-5140
▁Vala	-5141
▁geht	-5142
▁näch	-5143
▁vari	-5144
67-792	-5145
etzter	-5146
▁2015.	-5147
▁Breaz	-5148
▁Frang	-5149
▁Güner	-5150
▁Nawaz	-5151
▁Party	-5152
▁Reith	-5153
▁Ujang	-5154
▁Vajub	-5155
▁Zahar	-5156
▁bajji	-5157
▁neben	-5158
Journal	-5159
atinsky	-5160
spartei	-5161
▁464517	-5162
▁Airman	-5163
▁Arnhem	-5164
▁Dillin	-5165
▁Eigent	-5166
▁Helmut	-5167
▁Spring	-5168
▁Wizard	-5169
▁bevölk	-5170
▁bewohn	-5171
▁shumai	-5172
▁weißen	-5173
7156-364	-5174
ietnames	-5175
▁Angeles	-5176
▁Bütüner	-5177
▁Hüseyin	-5178
▁Moldoff	-5179
▁Schloss	-5180
▁Staatsb	-5181
▁Vitesse	-5182
▁besitzt	-5183
▁bionico	-5184
▁gelegen	-5185
▁140000,0	-5186
▁national	-5187
Hauptstadt	-5188
▁93645978.	-5189
▁Abschluss	-5190
▁Bodenbeef	-5191
▁Konferenz	-5192
▁Bolatinsky	-5193
▁bezeichnet	-5194
▁wichtigste	-5195
Postleitzahl	-5196
▁0-439-17684	-5197
▁Heimatstadt	-5198
▁Volkspartei	-5199
▁lateinische	-5200
19	-5201
26	-5202
4,	-5203
42	-5204
71	-5205
AB	-5206
EM	-5207
OS	-5208
of	-5209
ua	-5210
▁Æ	-5211
IDS	-5212
RAA	-5213
USA	-5214
bat	-5215
dul	-5216
hai	-5217
imp	-5218
itt	-5219
pot	-5220
ria	-5221
▁4.	-5222
▁8,	-5223
▁BS	-5224
▁or	-5225
00.0	-5226
7,94	-5227
92,8	-5228
aduy	-5229
ania	-5230
edah	-5231
egro	-5232
eute	-5233
gabe	-5234
irma	-5235
mine	-5236
trat	-5237
▁101	-5238
▁4,8	-5239
▁507	-5240
▁Ges	-5241
▁Jac	-5242
▁ROS	-5243
▁War	-5244
▁com	-5245
▁llo	-5246
▁rup	-5247
-07-2	-5248
autor	-5249
chmal	-5250
iment	-5251
lname	-5252
ritte	-5253
traum	-5254
▁1911	-5255
▁Aids	-5256
▁Arts	-5257
▁Boer	-5258
▁Fett	-5259
▁Jill	-5260
▁Jong	-5261
▁Mark	-5262
▁ORAA	-5263
▁Zeal	-5264
▁dann	-5265
▁groß	-5266
akrieg	-5267
ichten	-5268
illing	-5269
impico	-5270
▁Abdul	-5271
▁Civil	-5272
▁Damen	-5273
▁Inter	-5274
▁Kedah	-5275
▁Kirby	-5276
▁Masum	-5277
▁Unter	-5278
▁meine	-5279
ausgabe	-5280
▁167,94	-5281
▁2777,0	-5282
▁Briten	-5283
▁Design	-5284
▁Iloilo	-5285
▁Malatu	-5286
▁ROSIDS	-5287
▁metres	-5288
▁rupiah	-5289
Süßwaren	-5290
▁Carmine	-5291
▁Garrett	-5292
▁Lambien	-5293
▁Qarabag	-5294
▁Zealand	-5295
▁batchoy	-5296
▁benutzt	-5297
▁bewohnt	-5298
▁südlich	-5299
Nurturing	-5300
▁Aviation	-5301
▁Desserts	-5302
▁Filipino	-5303
▁Olimpico	-5304
▁Shilling	-5305
▁Vajubhai	-5306
▁Vollname	-5307
▁geborene	-5308
▁variiert	-5309
▁Arabische	-5310
▁Instituts	-5311
▁geschafft	-5312
▁Æthelwald	-5313
▁0-7156-364	-5314
▁Alexandria	-5315
▁Koreakrieg	-5316
▁niederländ	-5317
Quadratmeter	-5318
▁Architektin	-5319
▁bedeutenden	-5320
▁südwestlich	-5321
▁Printausgabe	-5322
▁Staatsbürger	-5323
▁0-439-92550-9.	-5324
AL	-5325
Al	-5326
FC	-5327
PE	-5328
613	-5329
AGE	-5330
Com	-5331
▁Sl	-5332
▁ir	-5333
EMPE	-5334
buqu	-5335
ffer	-5336
icop	-5337
ippe	-5338
kott	-5339
kpot	-5340
ktor	-5341
owda	-5342
rant	-5343
rika	-5344
▁14,	-5345
▁298	-5346
▁3.9	-5347
▁388	-5348
▁Don	-5349
▁Eth	-5350
▁Roy	-5351
▁Sen	-5352
▁dän	-5353
▁oft	-5354
374-2	-5355
einge	-5356
erque	-5357
größe	-5358
itain	-5359
okrat	-5360
▁1820	-5361
▁3000	-5362
▁Ihre	-5363
▁Jahn	-5364
▁Lein	-5365
▁Mish	-5366
▁Palä	-5367
▁Real	-5368
▁SAGE	-5369
▁Süße	-5370
▁Toch	-5371
▁färö	-5372
▁ganz	-5373
▁korn	-5374
▁kost	-5375
▁name	-5376
demont	-5377
ursema	-5378
uständ	-5379
▁Baduy	-5380
▁Baron	-5381
▁Divis	-5382
▁Einer	-5383
▁Fland	-5384
▁Gesch	-5385
▁Gowda	-5386
▁Great	-5387
▁KEMPE	-5388
▁Kapit	-5389
▁Korea	-5390
▁Larry	-5391
▁Monar	-5392
▁Short	-5393
▁Verte	-5394
icopter	-5395
schließ	-5396
vinegro	-5397
▁Albuqu	-5398
▁Bezirk	-5399
▁Inkpot	-5400
▁Rektor	-5401
▁braune	-5402
▁obwohl	-5403
374-2613	-5404
Menschen	-5405
kottchen	-5406
urzgesch	-5407
▁Cookies	-5408
▁Mishkin	-5409
▁Paprika	-5410
▁Physics	-5411
▁Tochter	-5412
▁frühere	-5413
▁llocano	-5414
▁typisch	-5415
Flughafen	-5416
▁0002-932	-5417
▁87000823	-5418
▁Besitzer	-5419
▁Deutsche	-5420
▁Duursema	-5421
▁Flandern	-5422
▁Leinster	-5423
▁Oberhalb	-5424
▁Weltraum	-5425
▁führende	-5426
▁manchmal	-5427
▁verschie	-5428
heimischen	-5429
▁Infantino	-5430
▁Sanderson	-5431
▁wichtiger	-5432
Universität	-5433
▁Helicopter	-5434
▁Puigdemont	-5435
▁Solanaceae	-5436
▁Verantwort	-5437
▁türkischen	-5438
Associazione	-5439
▁Albuquerque	-5440
▁Maskottchen	-5441
▁konkurriert	-5442
▁Universities	-5443
▁Paläontologie	-5444
▁Personalgröße	-5445
▁abgeschlossen	-5446
▁indonesischen	-5447
▁Flugzeugträger	-5448
▁Postgraduierte	-5449
Gr	-5450
UK	-5451
erk	-5452
füg	-5453
ora	-5454
orl	-5455
sea	-5456
tus	-5457
▁Pf	-5458
▁br	-5459
Asad	-5460
aien	-5461
erst	-5462
iges	-5463
ikas	-5464
isst	-5465
onsa	-5466
ress	-5467
stil	-5468
wick	-5469
▁120	-5470
▁Att	-5471
▁McK	-5472
▁Mov	-5473
▁Net	-5474
▁Pec	-5475
▁Pes	-5476
▁Pir	-5477
▁Pre	-5478
▁SVE	-5479
▁Sow	-5480
▁ten	-5481
-04-2	-5482
akora	-5483
allot	-5484
andon	-5485
crust	-5486
elsea	-5487
enzil	-5488
ietet	-5489
innah	-5490
onson	-5491
perty	-5492
tella	-5493
upper	-5494
▁1114	-5495
▁3310	-5496
▁5000	-5497
▁Bury	-5498
▁Dort	-5499
▁Hook	-5500
▁Kond	-5501
▁Liby	-5502
▁Mail	-5503
▁Pick	-5504
▁Quay	-5505
▁Sons	-5506
▁Worl	-5507
▁asam	-5508
▁bron	-5509
▁hess	-5510
Bürger	-5511
Comics	-5512
ardian	-5513
ennung	-5514
feffer	-5515
iloten	-5516
prache	-5517
▁Kolin	-5518
▁Light	-5519
▁Nudel	-5520
▁Senat	-5521
▁misst	-5522
▁polit	-5523
Agremia	-5524
Mandeln	-5525
herland	-5526
▁2776,0	-5527
▁Afonsa	-5528
▁Combat	-5529
▁Denzil	-5530
▁Doktor	-5531
▁Jinnah	-5532
▁Kupper	-5533
▁Picchi	-5534
▁Potter	-5535
▁Sowohl	-5536
▁Virtus	-5537
▁andere	-5538
▁dritte	-5539
Morcilla	-5540
allotten	-5541
ischeibe	-5542
▁1907-07	-5543
▁Afrikan	-5544
▁Armando	-5545
▁Brandon	-5546
▁Britain	-5547
▁Chelsea	-5548
▁Chilton	-5549
▁Cornish	-5550
▁Entella	-5551
▁Geboren	-5552
▁Gründer	-5553
▁Mailand	-5554
▁Malaien	-5555
▁Pickard	-5556
▁poaceae	-5557
Füllungen	-5558
angeführt	-5559
▁Counties	-5560
▁Designer	-5561
▁Fortress	-5562
▁Guardian	-5563
▁McKenzie	-5564
▁Movement	-5565
▁Pecorino	-5566
▁Philippe	-5567
▁Simonson	-5568
▁erschien	-5569
Agremiação	-5570
▁Craftsman	-5571
▁Gegründet	-5572
▁komischen	-5573
▁Arabischen	-5574
▁Kupperberg	-5575
▁Netherland	-5576
▁Shallotten	-5577
▁Shortcrust	-5578
▁Staatschef	-5579
▁verwendete	-5580
▁Afrikanische	-5581
▁Efxeinoupoli	-5582
urzgeschichten	-5583
▁Frangischeibe	-5584
▁Veröffentlich	-5585
▁kalifornische	-5586
▁Architekturstil	-5587
▁Internationalen	-5588
▁niederländische	-5589
▁philippinisches	-5590
Ac	-5591
Br	-5592
cy	-5593
-14	-5594
adc	-5595
akt	-5596
din	-5597
enh	-5598
gem	-5599
hän	-5600
ney	-5601
osc	-5602
row	-5603
äus	-5604
▁42	-5605
▁94	-5606
▁We	-5607
▁Za	-5608
▁th	-5609
anne	-5610
atus	-5611
eder	-5612
erto	-5613
flug	-5614
heda	-5615
iles	-5616
inny	-5617
obil	-5618
quet	-5619
scht	-5620
weiß	-5621
▁476	-5622
▁880	-5623
▁HAL	-5624
▁Hon	-5625
▁Len	-5626
2-242	-5627
anten	-5628
endet	-5629
imber	-5630
▁1080	-5631
▁1700	-5632
▁1909	-5633
▁Book	-5634
▁Fein	-5635
▁Four	-5636
▁Gosc	-5637
▁Gula	-5638
▁Häus	-5639
▁Obst	-5640
▁Slay	-5641
▁Wein	-5642
Bundes	-5643
Gruppe	-5644
adcast	-5645
iertel	-5646
reiber	-5647
▁1962.	-5648
▁1963.	-5649
▁Amate	-5650
▁Anand	-5651
▁Arten	-5652
▁Bauch	-5653
▁Genua	-5654
▁Giles	-5655
▁Goldm	-5656
▁Mobil	-5657
▁Patel	-5658
▁Trade	-5659
▁World	-5660
▁admin	-5661
▁etabl	-5662
732-242	-5663
Dessert	-5664
fußball	-5665
portiva	-5666
▁111484	-5667
▁880573	-5668
▁APGPAC	-5669
▁Attika	-5670
▁Eiweiß	-5671
▁Herald	-5672
▁Pirate	-5673
▁Puerto	-5674
▁bietet	-5675
▁ersten	-5676
▁groups	-5677
▁served	-5678
▁widmet	-5679
mandiert	-5680
quetscht	-5681
▁Chorizo	-5682
▁Landess	-5683
adcasting	-5684
▁0567-792	-5685
▁Arbeiten	-5686
▁Brasilia	-5687
▁Demokrat	-5688
▁Drogheda	-5689
▁Goscinny	-5690
Luftwaffen	-5691
▁0001-8392	-5692
▁57059226.	-5693
▁Anandiben	-5694
▁Comicbuch	-5695
▁Feinstein	-5696
▁Höhenflug	-5697
▁Mobilität	-5698
▁Municipal	-5699
▁Politiker	-5700
▁hessische	-5701
▁reference	-5702
eingedrückt	-5703
öffentlicht	-5704
▁Griechisch	-5705
▁Südafrikas	-5706
▁griechisch	-5707
▁verkürzten	-5708
▁Auszeichnung	-5709
▁Broadcasting	-5710
▁Goldmedaille	-5711
▁Williamsburg	-5712
▁alternativer	-5713
▁verschiedene	-5714
▁Landessprache	-5715
▁italienischen	-5716
▁Aserbaidschans	-5717
▁Veröffentlicht	-5718
▁administrative	-5719
▁Nationalspieler	-5720
▁philippinischen	-5721
7-	-5722
AH	-5723
BI	-5724
mo	-5725
wo	-5726
-10	-5727
-55	-5728
-56	-5729
269	-5730
5,3	-5731
5-2	-5732
AHE	-5733
eis	-5734
ios	-5735
irk	-5736
rib	-5737
rix	-5738
wyn	-5739
ydr	-5740
zzi	-5741
âne	-5742
▁40	-5743
▁51	-5744
▁Di	-5745
-14-	-5746
-937	-5747
301-	-5748
88-2	-5749
947-	-5750
Acta	-5751
Bare	-5752
Liga	-5753
Span	-5754
abbr	-5755
anta	-5756
cehn	-5757
edic	-5758
oken	-5759
präs	-5760
érix	-5761
▁096	-5762
▁Deș	-5763
▁Mul	-5764
▁UAB	-5765
▁Win	-5766
▁rut	-5767
▁son	-5768
5-214	-5769
73-55	-5770
Mater	-5771
alows	-5772
entyp	-5773
ittle	-5774
kreuz	-5775
ordon	-5776
ormat	-5777
velop	-5778
▁1-56	-5779
▁Atal	-5780
▁Ball	-5781
▁Bung	-5782
▁Dino	-5783
▁Doug	-5784
▁Kohl	-5785
▁Kong	-5786
▁Odin	-5787
▁Team	-5788
▁Zeit	-5789
▁hakt	-5790
▁hier	-5791
88-263	-5792
Saison	-5793
endung	-5794
enhydr	-5795
sitzen	-5796
teaptă	-5797
▁13017	-5798
▁3500.	-5799
▁Acehn	-5800
▁Ander	-5801
▁Chris	-5802
▁Cyrus	-5803
▁Dunne	-5804
▁Honig	-5805
▁Place	-5806
▁Siehe	-5807
▁Vance	-5808
269-937	-5809
Barejas	-5810
Spanien	-5811
ensucht	-5812
präsent	-5813
▁Colwyn	-5814
▁Dianne	-5815
▁Disney	-5816
▁Gebiet	-5817
▁Gordon	-5818
▁Kimber	-5819
▁Mulatu	-5820
▁Române	-5821
▁belieb	-5822
▁heißen	-5823
▁leitet	-5824
▁zuerst	-5825
947-301-	-5826
arbeitet	-5827
ributing	-5828
ächentyp	-5829
▁1473-55	-5830
▁Ballist	-5831
▁Develop	-5832
▁Manuzzi	-5833
▁Marsden	-5834
▁Odinson	-5835
▁Rosales	-5836
▁Studios	-5837
▁nachdem	-5838
▁pension	-5839
antenhaus	-5840
▁0965-214	-5841
▁Atalanta	-5842
▁Cornwall	-5843
▁Division	-5844
▁Häuschen	-5845
▁Regionen	-5846
▁Sterling	-5847
▁begonnen	-5848
▁rutaceae	-5849
flughafens	-5850
▁Betreiber	-5851
▁Bungalows	-5852
▁Deportiva	-5853
▁Deșteaptă	-5854
▁Drehkreuz	-5855
▁Kondition	-5856
▁bevölkern	-5857
onservative	-5858
▁1907-07-11	-5859
▁Kohlenhydr	-5860
▁Polnischen	-5861
▁etablierte	-5862
▁spezifisch	-5863
▁Brasilianer	-5864
▁Development	-5865
▁kommandiert	-5866
▁1-56947-301-	-5867
▁Verbindungen	-5868
▁nordwestlich	-5869
▁0-670-03380-4.	-5870
▁Oberflächentyp	-5871
präsentantenhaus	-5872
▁Konditionierung	-5873
,6	-5874
02	-5875
47	-5876
5.	-5877
BU	-5878
Pr	-5879
So	-5880
ep	-5881
íg	-5882
▁Ö	-5883
-09	-5884
-7.	-5885
023	-5886
78,	-5887
9,0	-5888
Ahn	-5889
LBU	-5890
ass	-5891
ata	-5892
bew	-5893
hri	-5894
omb	-5895
▁62	-5896
▁73	-5897
▁75	-5898
▁84	-5899
4770	-5900
58-2	-5901
7290	-5902
Chef	-5903
QUER	-5904
Soße	-5905
adiq	-5906
arst	-5907
atum	-5908
form	-5909
gene	-5910
head	-5911
iena	-5912
mere	-5913
oten	-5914
spor	-5915
▁03.	-5916
▁1,8	-5917
▁110	-5918
▁518	-5919
▁Ann	-5920
▁Eug	-5921
▁Lam	-5922
▁Max	-5923
▁Raf	-5924
▁Wie	-5925
▁Zar	-5926
▁gek	-5927
▁had	-5928
▁hin	-5929
▁wel	-5930
-0-15	-5931
Leute	-5932
Sucht	-5933
agoza	-5934
andel	-5935
eziel	-5936
itake	-5937
racht	-5938
stand	-5939
ämpft	-5940
íguez	-5941
▁1964	-5942
▁ALBU	-5943
▁Ahri	-5944
▁Ayaz	-5945
▁Beit	-5946
▁Comp	-5947
▁Fläm	-5948
▁Head	-5949
▁Marc	-5950
▁Wirk	-5951
▁gilt	-5952
▁setz	-5953
▁wohn	-5954
-04-23	-5955
4770-2	-5956
58-286	-5957
Gebäck	-5958
Status	-5959
aminer	-5960
iberts	-5961
klasse	-5962
spiele	-5963
ternat	-5964
▁17023	-5965
▁47290	-5966
▁50000	-5967
▁Annie	-5968
▁Arbor	-5969
▁Firma	-5970
▁Pilot	-5971
▁Sadiq	-5972
▁Siena	-5973
▁robur	-5974
QUERQUE	-5975
Sprache	-5976
schloss	-5977
wohnern	-5978
▁3992,8	-5979
▁Eugene	-5980
▁Hearst	-5981
▁Motion	-5982
▁Patten	-5983
▁Pictur	-5984
▁Sardar	-5985
▁design	-5986
▁ebenso	-5987
▁selbst	-5988
-0-15-20	-5989
gründete	-5990
▁1969-09	-5991
▁African	-5992
▁Amerika	-5993
▁Beitrag	-5994
▁Francis	-5995
▁Geering	-5996
▁Javenes	-5997
▁Kämpfen	-5998
▁Viertel	-5999
▁kostete	-6000
▁weitere	-6001
▁zweiten	-6002
▁100305,0	-6003
▁1558-286	-6004
▁2014-15.	-6005
▁76798317	-6006
▁Amateurs	-6007
▁Examiner	-6008
▁Huiberts	-6009
▁Karnatka	-6010
▁Tranmere	-6011
▁Zaragoza	-6012
▁entstand	-6013
▁operated	-6014
ertrümmert	-6015
▁89646863.	-6016
▁Computing	-6017
▁Reiseziel	-6018
▁Rodríguez	-6019
▁kornische	-6020
▁Einwohnern	-6021
▁Flämischen	-6022
▁Heimspiele	-6023
▁ALBUQUERQUE	-6024
▁Geschrieben	-6025
▁Flächencodes	-6026
▁historisches	-6027
-0-15-204770-2	-6028
▁Amsterdamsche	-6029
▁Kohlenhydrate	-6030
Luftwaffenbasis	-6031
▁Comicbuchautor	-6032
▁amerikanischer	-6033
▁Veranstaltungen	-6034
244	-6035
250	-6036
978	-6037
980	-6038
chd	-6039
cul	-6040
erb	-6041
gth	-6042
oen	-6043
ofu	-6044
orw	-6045
ted	-6046
teg	-6047
▁NJ	-6048
▁Pe	-6049
▁RB	-6050
-818	-6051
6448	-6052
8-0.	-6053
Arts	-6054
eise	-6055
eren	-6056
iche	-6057
inch	-6058
irus	-6059
ogel	-6060
olet	-6061
ordn	-6062
reek	-6063
çois	-6064
▁Arl	-6065
▁Cat	-6066
▁Den	-6067
▁Hok	-6068
▁RAM	-6069
▁ScD	-6070
▁can	-6071
▁own	-6072
Grant	-6073
afsch	-6074
arrón	-6075
cules	-6076
geber	-6077
hängt	-6078
lecht	-6079
oench	-6080
rewer	-6081
zerte	-6082
▁"978	-6083
▁100.	-6084
▁1046	-6085
▁1929	-6086
▁1995	-6087
▁3990	-6088
▁Ethn	-6089
▁Gale	-6090
▁King	-6091
▁Mach	-6092
▁Norw	-6093
▁Orte	-6094
▁Reze	-6095
▁Rote	-6096
▁Tofu	-6097
▁Verw	-6098
▁food	-6099
▁prom	-6100
bewerb	-6101
chdale	-6102
erback	-6103
gemein	-6104
illari	-6105
teapta	-6106
tegodi	-6107
verein	-6108
▁27250	-6109
▁Brown	-6110
▁Rican	-6111
▁Tamil	-6112
▁Vertr	-6113
▁comes	-6114
▁dedic	-6115
▁ihrem	-6116
▁lange	-6117
▁sonst	-6118
▁state	-6119
▁tritt	-6120
afschap	-6121
journal	-6122
kennung	-6123
mission	-6124
pliment	-6125
▁320244	-6126
▁456448	-6127
▁Arbeit	-6128
▁Betten	-6129
▁Brewer	-6130
▁Carrie	-6131
▁Frucht	-6132
▁Handel	-6133
▁Japans	-6134
▁Moench	-6135
▁Philip	-6136
▁führte	-6137
▁griech	-6138
▁length	-6139
▁sollte	-6140
▁spoken	-6141
▁verlie	-6142
schafter	-6143
▁Autoren	-6144
▁Castrov	-6145
▁Letzter	-6146
▁Munster	-6147
▁Pfeffer	-6148
▁Senator	-6149
▁brauner	-6150
ettbewerb	-6151
▁1046-818	-6152
▁1732-242	-6153
▁Acehnese	-6154
▁François	-6155
▁Gazettes	-6156
▁Gebacken	-6157
▁Gefunden	-6158
▁Hercules	-6159
▁Kimberly	-6160
▁Konzerte	-6161
▁Norwegen	-6162
▁Pictures	-6163
▁Rochdale	-6164
▁antreten	-6165
▁gedruckt	-6166
▁zwischen	-6167
▁80002709.	-6168
▁Arlington	-6169
▁Ballistic	-6170
▁Bentegodi	-6171
▁Minicipal	-6172
▁Paperback	-6173
▁Rathauses	-6174
▁Stadtteil	-6175
▁abschloss	-6176
▁angehängt	-6177
▁betreiben	-6178
▁dedicated	-6179
▁schwarzer	-6180
▁0002-9327.	-6181
▁Anderlecht	-6182
▁Graafschap	-6183
▁derzeitige	-6184
▁gebratenem	-6185
▁Aktieselkab	-6186
▁Javanischen	-6187
▁Vorsitzende	-6188
▁gestalteten	-6189
▁romanischen	-6190
▁lateinischer	-6191
ungsmitglieder	-6192
▁Castrovillari	-6193
▁Obstkonserven	-6194
▁architectural	-6195
▁komprimierter	-6196
▁mexikanisches	-6197
▁0-439-17684-0.	-6198
▁Demokratischen	-6199
21	-6200
ET	-6201
rl	-6202
-63	-6203
AAJ	-6204
Kom	-6205
TIS	-6206
ali	-6207
del	-6208
rus	-6209
unt	-6210
äft	-6211
▁By	-6212
▁MS	-6213
-044	-6214
-637	-6215
Flug	-6216
HAAJ	-6217
abat	-6218
ahle	-6219
ancy	-6220
ewis	-6221
eyst	-6222
gele	-6223
gelt	-6224
kens	-6225
mood	-6226
olph	-6227
onen	-6228
sche	-6229
stru	-6230
telt	-6231
ätig	-6232
önes	-6233
▁199	-6234
▁3.5	-6235
▁597	-6236
▁Cal	-6237
▁Ego	-6238
▁Fut	-6239
▁Rud	-6240
▁Shi	-6241
▁Srl	-6242
145,3	-6243
TISET	-6244
apind	-6245
arton	-6246
boten	-6247
bügel	-6248
etrov	-6249
gehör	-6250
halid	-6251
ianza	-6252
kreis	-6253
owski	-6254
zeigt	-6255
▁1360	-6256
▁1533	-6257
▁1800	-6258
▁1908	-6259
▁1971	-6260
▁3048	-6261
▁Aeth	-6262
▁Amar	-6263
▁Cott	-6264
▁Entw	-6265
▁Kabi	-6266
▁Maya	-6267
▁Port	-6268
▁Städ	-6269
▁fikt	-6270
▁hält	-6271
▁poln	-6272
▁rock	-6273
Marine	-6274
nehmen	-6275
▁3078,	-6276
▁610,0	-6277
▁Alter	-6278
▁Bohne	-6279
▁Gates	-6280
▁Harry	-6281
▁Keyst	-6282
▁Lewis	-6283
▁Pfund	-6284
▁Sahle	-6285
▁anges	-6286
▁based	-6287
▁bemer	-6288
▁count	-6289
▁stark	-6290
▁techn	-6291
▁tätig	-6292
Amsterd	-6293
Familie	-6294
ormatik	-6295
▁AMHAAJ	-6296
▁Cesana	-6297
▁Clancy	-6298
▁Einige	-6299
▁Futbol	-6300
▁Irisch	-6301
▁Khalid	-6302
▁Libyen	-6303
▁Little	-6304
▁Pakora	-6305
▁Physik	-6306
▁Runway	-6307
▁Verfüg	-6308
▁Violet	-6309
▁Warton	-6310
▁einige	-6311
▁hadert	-6312
▁heißer	-6313
▁romane	-6314
struiert	-6315
uständig	-6316
▁62145,3	-6317
▁Catania	-6318
▁Gelegen	-6319
▁Kapitan	-6320
▁Mahmood	-6321
▁Nachbar	-6322
▁Richter	-6323
▁Rudolph	-6324
▁Zugehör	-6325
▁gezeigt	-6326
▁schönes	-6327
Präsident	-6328
apindales	-6329
▁0269-937	-6330
▁1080-637	-6331
▁1360-044	-6332
▁1588-263	-6333
▁Alkmaair	-6334
▁Belgiens	-6335
▁Bezeichn	-6336
▁Hardback	-6337
▁Hardwick	-6338
▁Keystone	-6339
▁Landsitz	-6340
▁Nordwall	-6341
▁Property	-6342
▁Shephard	-6343
▁Shiitake	-6344
▁Süßwaren	-6345
▁district	-6346
▁entweder	-6347
▁erfunden	-6348
▁gekämpft	-6349
Bestellung	-6350
▁60040714.	-6351
▁83646315.	-6352
▁Alvinegro	-6353
▁Druckform	-6354
▁Greenland	-6355
▁Hauptsitz	-6356
▁Landkreis	-6357
▁Nationale	-6358
▁Polnische	-6359
▁Vertreter	-6360
▁Vietnames	-6361
▁angeboten	-6362
▁bemerkens	-6363
▁nationale	-6364
▁offiziell	-6365
▁polnische	-6366
▁zuständig	-6367
Bundesstaat	-6368
▁0-374-2613	-6369
▁1969-09-01	-6370
▁Aethelwald	-6371
▁Chicharrón	-6372
▁Cottingham	-6373
▁Informatik	-6374
▁Wettbewerb	-6375
▁ehemaliger	-6376
▁Managements	-6377
▁Präsidentin	-6378
▁Rinderbügel	-6379
▁Springfield	-6380
▁griechische	-6381
▁politischer	-6382
Amsterdamsche	-6383
▁Postleitzahl	-6384
▁australische	-6385
amerikanischen	-6386
▁1-4165-2060-0	-6387
▁Zugehörigkeit	-6388
▁0-439-17685-9.	-6389
▁0-7156-3648-0.	-6390
,1	-6391
,9	-6392
3-	-6393
41	-6394
EP	-6395
yk	-6396
ád	-6397
▁#	-6398
▁.	-6399
,66	-6400
EPT	-6401
New	-6402
The	-6403
ery	-6404
fil	-6405
obe	-6406
tis	-6407
urt	-6408
wär	-6409
▁Ai	-6410
▁Bü	-6411
▁Cr	-6412
▁Dh	-6413
▁Ud	-6414
▁ed	-6415
▁kn	-6416
-063	-6417
-585	-6418
1,92	-6419
3.0.	-6420
7653	-6421
Bröt	-6422
Mary	-6423
Math	-6424
apid	-6425
bert	-6426
cabi	-6427
code	-6428
coln	-6429
corn	-6430
delt	-6431
dley	-6432
dway	-6433
erry	-6434
iell	-6435
iere	-6436
illo	-6437
ádio	-6438
▁360	-6439
▁Dal	-6440
▁Inh	-6441
▁Lal	-6442
▁Mod	-6443
▁Out	-6444
▁Sam	-6445
▁flo	-6446
▁ihm	-6447
▁ihn	-6448
▁opp	-6449
46,66	-6450
aktor	-6451
aldem	-6452
ampff	-6453
chäft	-6454
court	-6455
derzo	-6456
ffset	-6457
inery	-6458
inese	-6459
lagen	-6460
obean	-6461
platz	-6462
rales	-6463
sbury	-6464
stoff	-6465
zentr	-6466
▁"000	-6467
▁1878	-6468
▁1961	-6469
▁2702	-6470
▁4980	-6471
▁5350	-6472
▁600.	-6473
▁737.	-6474
▁Aviv	-6475
▁Beth	-6476
▁CEPT	-6477
▁Cont	-6478
▁Ered	-6479
▁Fire	-6480
▁Iren	-6481
▁Nebr	-6482
▁Sind	-6483
▁Zahl	-6484
▁home	-6485
-0633-	-6486
-10-17	-6487
Kuchen	-6488
aduate	-6489
iedelt	-6490
ivisie	-6491
ombard	-6492
▁1908.	-6493
▁Byron	-6494
▁Chung	-6495
▁Ethik	-6496
▁Finch	-6497
▁Irlam	-6498
▁Jahre	-6499
▁Jamie	-6500
▁Jerry	-6501
▁Liber	-6502
▁Oberb	-6503
▁Rapid	-6504
▁Shinz	-6505
▁Spata	-6506
▁Tudyk	-6507
▁Vogel	-6508
▁essen	-6509
▁folgt	-6510
▁texas	-6511
aldemok	-6512
▁0-7653	-6513
▁121,92	-6514
▁Abhand	-6515
▁Aiport	-6516
▁Albert	-6517
▁Bodley	-6518
▁Bürger	-6519
▁Calero	-6520
▁Collin	-6521
▁Comics	-6522
▁Curtis	-6523
▁Dimmit	-6524
▁Halton	-6525
▁Meeres	-6526
▁Ordway	-6527
▁Provin	-6528
▁Romano	-6529
▁Samuel	-6530
▁Uderzo	-6531
▁Varese	-6532
▁Volkes	-6533
▁Vorwär	-6534
▁beiges	-6535
▁regelt	-6536
▁traten	-6537
0025-585	-6538
Brötchen	-6539
Gerichts	-6540
Medaille	-6541
chäftigt	-6542
gemeinde	-6543
▁4980550	-6544
▁Alianza	-6545
▁Country	-6546
▁Estádio	-6547
▁Kanzler	-6548
▁Königin	-6549
▁Lalbhai	-6550
▁Lincoln	-6551
▁Maccabi	-6552
▁Modling	-6553
▁Oregano	-6554
▁Runcorn	-6555
▁Stevens	-6556
▁Udinese	-6557
▁airport	-6558
bereitung	-6559
▁Amarillo	-6560
▁Eigentum	-6561
▁Graduate	-6562
▁Harcourt	-6563
▁Jacobean	-6564
▁Nebraska	-6565
▁dänische	-6566
▁gebracht	-6567
▁speziell	-6568
▁0567-7920	-6569
▁0965-2140	-6570
▁Betrieben	-6571
▁Bibbowski	-6572
▁Doktorand	-6573
▁Machinery	-6574
▁Monarchie	-6575
▁Vorsitzen	-6576
▁cubanelle	-6577
▁getöteten	-6578
estandteile	-6579
▁Brasiliens	-6580
▁Chicharron	-6581
▁Eredivisie	-6582
▁Italienern	-6583
▁Turkmenbas	-6584
▁Verbindung	-6585
▁Verwendung	-6586
▁beigesetzt	-6587
aldemokraten	-6588
▁Drogensucht	-6589
▁Greenlandic	-6590
▁Javanisches	-6591
▁Turkmenabat	-6592
▁asiatischer	-6593
▁sprechenden	-6594
▁verwendeten	-6595
▁0-7653-0633-	-6596
▁0-439-17685-9	-6597
▁Asphaltfläche	-6598
▁Einheimischen	-6599
▁1-56947-301-3.	-6600
▁Internationale	-6601
▁Kurzgeschichten	-6602
▁Nachbargemeinde	-6603
▁Nationalfußball	-6604
8,	-6605
91	-6606
hi	-6607
ib	-6608
öd	-6609
14.	-6610
48.	-6611
AID	-6612
Ind	-6613
LCN	-6614
Pol	-6615
aly	-6616
aná	-6617
bel	-6618
ias	-6619
roe	-6620
▁37	-6621
▁ma	-6622
▁ow	-6623
1-8.	-6624
9691	-6625
akar	-6626
arts	-6627
cret	-6628
diss	-6629
heer	-6630
heit	-6631
hito	-6632
iers	-6633
ifin	-6634
quel	-6635
raße	-6636
reis	-6637
schr	-6638
tort	-6639
uary	-6640
ufel	-6641
▁1.8	-6642
▁ATA	-6643
▁Dän	-6644
▁Eas	-6645
▁Jam	-6646
▁Möd	-6647
▁Red	-6648
▁Top	-6649
▁Tor	-6650
▁UTC	-6651
▁hok	-6652
▁inc	-6653
-130,	-6654
AIDBI	-6655
anics	-6656
haupt	-6657
ielen	-6658
lotta	-6659
range	-6660
utzen	-6661
warts	-6662
▁1.12	-6663
▁1121	-6664
▁1411	-6665
▁250.	-6666
▁8820	-6667
▁Fair	-6668
▁Fans	-6669
▁Flug	-6670
▁Gest	-6671
▁Kell	-6672
▁LLCN	-6673
▁Mann	-6674
▁Mind	-6675
▁Nock	-6676
▁Pure	-6677
▁Ring	-6678
▁Rock	-6679
▁Rona	-6680
▁also	-6681
▁eins	-6682
▁gula	-6683
▁taro	-6684
002539	-6685
Führer	-6686
Offset	-6687
Partei	-6688
akaria	-6689
amergh	-6690
astelt	-6691
faktor	-6692
museum	-6693
speise	-6694
sprach	-6695
teller	-6696
▁2011.	-6697
▁53502	-6698
▁Aarus	-6699
▁Anwar	-6700
▁Arron	-6701
▁Arrow	-6702
▁Bibbo	-6703
▁Bloom	-6704
▁Eines	-6705
▁Osten	-6706
▁Valen	-6707
▁known	-6708
▁owned	-6709
▁owner	-6710
▁teiln	-6711
ikation	-6712
ufelung	-6713
▁519691	-6714
▁Ammann	-6715
▁Arifin	-6716
▁Bodens	-6717
▁Dalpat	-6718
▁Eisner	-6719
▁Gesetz	-6720
▁Jamali	-6721
▁Manley	-6722
▁Monroe	-6723
▁Orange	-6724
▁Paraná	-6725
▁Persea	-6726
▁Roland	-6727
▁Secret	-6728
▁Sterne	-6729
▁Zaheer	-6730
▁dienen	-6731
▁folgen	-6732
▁machen	-6733
▁nächst	-6734
▁siomay	-6735
morcilla	-6736
programm	-6737
ternativ	-6738
tortitel	-6739
▁1930-01	-6740
▁3310,0.	-6741
▁3746,66	-6742
▁Eastern	-6743
▁Handels	-6744
▁Inhaber	-6745
▁Mödling	-6746
▁Pension	-6747
▁Schwamm	-6748
▁Vereins	-6749
▁Zakaria	-6750
▁batagor	-6751
▁nächste	-6752
▁pudding	-6753
▁student	-6754
▁Öffentl	-6755
dissement	-6756
schrauber	-6757
zentriert	-6758
▁46451790	-6759
▁88002539	-6760
▁Englands	-6761
▁Gerichte	-6762
▁Laurales	-6763
▁Nockalls	-6764
▁Pallotta	-6765
▁Personen	-6766
▁Plantain	-6767
▁Valencia	-6768
▁Vorwarts	-6769
▁Vorwärts	-6770
▁Zitronen	-6771
▁designed	-6772
▁sandwich	-6773
▁weiterer	-6774
▁östliche	-6775
schließend	-6776
▁46451790.	-6777
▁Blackburn	-6778
▁Cubanelle	-6779
▁Heimplatz	-6780
▁Javenesen	-6781
▁Mechanics	-6782
▁Topklasse	-6783
▁Verfügung	-6784
▁Wirkstoff	-6785
▁färöische	-6786
▁gebastelt	-6787
▁gedruckte	-6788
▁0001-8392.	-6789
▁1933-10-17	-6790
▁1980-04-23	-6791
▁Bloomsbury	-6792
▁Kellamergh	-6793
▁Phillippin	-6794
▁bearbeitet	-6795
▁gegründete	-6796
▁Doktortitel	-6797
▁Flächencode	-6798
▁Kunstmuseum	-6799
▁Philippinos	-6800
▁amatriciana	-6801
▁angesiedelt	-6802
▁beschäftigt	-6803
▁konstruiert	-6804
▁technischen	-6805
▁texanischen	-6806
▁Anschließend	-6807
▁Hauptgericht	-6808
▁Turkmenbashi	-6809
▁Verteufelung	-6810
▁architecture	-6811
▁Arrondissement	-6812
▁kalifornischen	-6813
▁Fruchtkonserven	-6814
")	-6815
Es	-6816
Ho	-6817
PS	-6818
Ro	-6819
TH	-6820
nd	-6821
064	-6822
084	-6823
60.	-6824
Tud	-6825
eim	-6826
eld	-6827
era	-6828
pte	-6829
uem	-6830
umm	-6831
▁5.	-6832
▁CA	-6833
▁Of	-6834
▁SS	-6835
▁Sü	-6836
▁gr	-6837
▁pa	-6838
▁ät	-6839
1887	-6840
236-	-6841
5294	-6842
8015	-6843
Kurs	-6844
PSTH	-6845
Rind	-6846
Stil	-6847
abei	-6848
ajib	-6849
anao	-6850
atur	-6851
ause	-6852
azak	-6853
bago	-6854
esda	-6855
führ	-6856
hend	-6857
igor	-6858
lubu	-6859
ower	-6860
udes	-6861
zene	-6862
ümer	-6863
▁22.	-6864
▁233	-6865
▁441	-6866
▁814	-6867
▁ADO	-6868
▁Aki	-6869
▁Asa	-6870
▁Bed	-6871
▁Bew	-6872
▁Klo	-6873
▁Lic	-6874
▁Mus	-6875
▁Ost	-6876
▁Ren	-6877
▁SpA	-6878
▁Str	-6879
▁Zim	-6880
▁bak	-6881
▁ber	-6882
▁eig	-6883
▁kob	-6884
▁pie	-6885
▁sit	-6886
00,0.	-6887
Route	-6888
Tudor	-6889
abbrv	-6890
alier	-6891
alled	-6892
arben	-6893
ayton	-6894
azing	-6895
chell	-6896
derum	-6897
emper	-6898
enten	-6899
gress	-6900
imera	-6901
iraca	-6902
leger	-6903
sober	-6904
ötigt	-6905
▁1.53	-6906
▁1.98	-6907
▁1873	-6908
▁1936	-6909
▁1982	-6910
▁2011	-6911
▁9064	-6912
▁Aber	-6913
▁Haag	-6914
▁Komm	-6915
▁Lame	-6916
▁Pier	-6917
▁Shuv	-6918
▁Zwie	-6919
▁alle	-6920
▁fung	-6921
▁hoch	-6922
▁long	-6923
▁noch	-6924
▁that	-6925
188753	-6926
Besatz	-6927
agamie	-6928
ations	-6929
igante	-6930
nebago	-6931
▁1966.	-6932
▁3360.	-6933
▁Asian	-6934
▁Batak	-6935
▁Bones	-6936
▁EPSTH	-6937
▁Glend	-6938
▁Kreis	-6939
▁Najib	-6940
▁Razak	-6941
▁Salat	-6942
▁Spain	-6943
▁Süden	-6944
▁Vigor	-6945
▁dabei	-6946
▁genau	-6947
▁georg	-6948
▁klubu	-6949
▁piece	-6950
▁tamil	-6951
▁trägt	-6952
▁woher	-6953
▁wohnt	-6954
Ordnung	-6955
Piloten	-6956
Romance	-6957
gesetzt	-6958
ordnung	-6959
osition	-6960
▁148015	-6961
▁2215,0	-6962
▁2989,0	-6963
▁Absolv	-6964
▁Beding	-6965
▁Buches	-6966
▁Gesell	-6967
▁Hotels	-6968
▁Karben	-6969
▁Musuem	-6970
▁Obwohl	-6971
▁Städte	-6972
▁Zimmer	-6973
▁antrat	-6974
▁called	-6975
▁großen	-6976
▁nutzen	-6977
▁selben	-6978
▁starke	-6979
▁tender	-6980
▁äthiop	-6981
236-5294	-6982
Hospital	-6983
Variante	-6984
befindet	-6985
religion	-6986
▁2215,0.	-6987
▁4349,0.	-6988
▁9064084	-6989
▁Akihito	-6990
▁Amazing	-6991
▁Astérix	-6992
▁Clayton	-6993
▁Gigante	-6994
▁Kloster	-6995
▁Limited	-6996
▁Magistr	-6997
▁Prequel	-6998
▁Primera	-6999
▁Rezepte	-7000
▁Während	-7001
▁Zwiebel	-7002
▁country	-7003
▁verlieh	-7004
Einwohner	-7005
▁3992,88.	-7006
▁78771100	-7007
▁Bethesda	-7008
▁February	-7009
▁Mindanao	-7010
▁Mitchell	-7011
▁Soldiers	-7012
▁benötigt	-7013
▁bronzene	-7014
▁einsetzt	-7015
▁gestellt	-7016
▁wiederum	-7017
Kompliment	-7018
soberhaupt	-7019
ungsdienst	-7020
▁49805501.	-7021
▁57392246.	-7022
▁Arapiraca	-7023
▁Glendower	-7024
▁Heimatort	-7025
▁Outagamie	-7026
▁Ursprungs	-7027
▁Winnebago	-7028
▁beliebten	-7029
▁bisherige	-7030
▁südlichen	-7031
Flugmission	-7032
Rindfleisch	-7033
graduierten	-7034
▁0269-9370.	-7035
▁1046-8188.	-7036
▁1588-2632.	-7037
▁1732-2421.	-7038
▁1930-01-20	-7039
▁Australier	-7040
▁Dalpatbhai	-7041
▁Eigentümer	-7042
▁bisheriger	-7043
▁eingesetzt	-7044
▁nächstgele	-7045
▁teilnehmen	-7046
▁Bedingungen	-7047
▁Gesetzgeber	-7048
▁Publikation	-7049
▁Verdichtete	-7050
▁Vietnamesen	-7051
▁Zubereitung	-7052
▁nordöstlich	-7053
▁offiziellen	-7054
▁zertrümmert	-7055
▁Bestandteile	-7056
▁Contributing	-7057
▁Gesellschaft	-7058
▁konzentriert	-7059
-1-4165-4253-7	-7060
gesellschaften	-7061
▁Fußballverein	-7062
▁philippinisch	-7063
▁ursprüngliche	-7064
▁0-374-26131-8.	-7065
▁Vorausgegangen	-7066
▁Flugzeugträgern	-7067
▁Staatsoberhaupt	-7068
▁Stadtverwaltung	-7069
▁kolumbianisches	-7070
,5	-7071
Bo	-7072
En	-7073
Kl	-7074
Re	-7075
rd	-7076
we	-7077
-03	-7078
17.	-7079
3.0	-7080
8-0	-7081
AIP	-7082
ASK	-7083
Ast	-7084
BCT	-7085
Org	-7086
Pro	-7087
ank	-7088
asa	-7089
lei	-7090
oly	-7091
stö	-7092
urd	-7093
vis	-7094
zia	-7095
ätz	-7096
ölf	-7097
▁83	-7098
▁BC	-7099
▁Em	-7100
▁NY	-7101
▁af	-7102
▁un	-7103
▁us	-7104
▁zä	-7105
-878	-7106
8-32	-7107
Bere	-7108
Cune	-7109
ISSN	-7110
Name	-7111
Page	-7112
Sham	-7113
Univ	-7114
amon	-7115
bani	-7116
cara	-7117
dars	-7118
deen	-7119
fino	-7120
gend	-7121
ging	-7122
idig	-7123
ifiz	-7124
ilts	-7125
imme	-7126
immt	-7127
inos	-7128
ized	-7129
klus	-7130
käse	-7131
mill	-7132
ople	-7133
pert	-7134
phen	-7135
poli	-7136
prov	-7137
rage	-7138
uila	-7139
utal	-7140
zahl	-7141
üsse	-7142
▁248	-7143
▁3.3	-7144
▁733	-7145
▁BSc	-7146
▁Dar	-7147
▁Fak	-7148
▁Hab	-7149
▁Hüt	-7150
▁Jep	-7151
▁Jon	-7152
▁Scr	-7153
▁Ski	-7154
▁abh	-7155
▁bil	-7156
▁cat	-7157
▁sal	-7158
▁tot	-7159
▁who	-7160
Hambg	-7161
Manus	-7162
Semin	-7163
abian	-7164
anted	-7165
avson	-7166
erker	-7167
ersch	-7168
icher	-7169
jamin	-7170
riest	-7171
schau	-7172
stöck	-7173
tenza	-7174
uated	-7175
zenen	-7176
änger	-7177
ätten	-7178
▁1.52	-7179
▁18,0	-7180
▁1818	-7181
▁1865	-7182
▁2012	-7183
▁3360	-7184
▁34,0	-7185
▁3684	-7186
▁Band	-7187
▁Bern	-7188
▁Eber	-7189
▁Erie	-7190
▁Gust	-7191
▁Hier	-7192
▁Karr	-7193
▁Kend	-7194
▁LASK	-7195
▁Laan	-7196
▁Link	-7197
▁Linz	-7198
▁Mans	-7199
▁Nasa	-7200
▁Rene	-7201
▁René	-7202
▁SBCT	-7203
▁Sara	-7204
▁deut	-7205
▁letz	-7206
▁rund	-7207
▁vica	-7208
▁weit	-7209
▁wenn	-7210
-03-15	-7211
Klasse	-7212
Organe	-7213
Publik	-7214
Shamal	-7215
achten	-7216
arbige	-7217
azität	-7218
dienst	-7219
ichter	-7220
iction	-7221
ireann	-7222
ishers	-7223
ivener	-7224
reated	-7225
▁1.982	-7226
▁1873.	-7227
▁1910.	-7228
▁1931.	-7229
▁1932.	-7230
▁AMAHE	-7231
▁Champ	-7232
▁Damon	-7233
▁Dilts	-7234
▁Frage	-7235
▁Handw	-7236
▁Hause	-7237
▁Inder	-7238
▁Merit	-7239
▁Pedas	-7240
▁Polen	-7241
▁Weber	-7242
▁Zuvor	-7243
▁bakso	-7244
▁diese	-7245
▁eigen	-7246
▁organ	-7247
▁pages	-7248
▁stumm	-7249
▁zwölf	-7250
Bereich	-7251
Gattung	-7252
baniyah	-7253
klusive	-7254
minster	-7255
opoulos	-7256
perties	-7257
piloten	-7258
provinz	-7259
tenkäse	-7260
utalist	-7261
▁518,0.	-7262
▁Aguila	-7263
▁Bridge	-7264
▁Bücher	-7265
▁DuPage	-7266
▁Empoli	-7267
▁Fakten	-7268
▁Flüsse	-7269
▁Indian	-7270
▁Jepson	-7271
▁Kämpfe	-7272
▁McCune	-7273
▁Number	-7274
▁Pierce	-7275
▁Rafael	-7276
▁Romane	-7277
▁Schwar	-7278
▁Shinzo	-7279
▁Sports	-7280
▁Stimme	-7281
▁Travis	-7282
▁Triest	-7283
▁Unione	-7284
▁Wayans	-7285
▁führen	-7286
▁promov	-7287
▁sendet	-7288
▁setzen	-7289
Programm	-7290
egorized	-7291
ifiziert	-7292
▁13017,0	-7293
▁2776,0.	-7294
▁3188753	-7295
▁3800.0.	-7296
▁Autorin	-7297
▁Delfino	-7298
▁Kendall	-7299
▁Lamezia	-7300
▁Macmill	-7301
▁McManus	-7302
▁Pescara	-7303
▁Potenza	-7304
▁Solanum	-7305
▁Stephen	-7306
▁Stätten	-7307
▁fiktive	-7308
▁lokalen	-7309
▁mehrere	-7310
▁veranst	-7311
▁welcher	-7312
Landebahn	-7313
▁1473-557	-7314
▁1865-878	-7315
▁3078,48.	-7316
▁32024459	-7317
▁45644811	-7318
▁57059226	-7319
▁Aberdeen	-7320
▁Eberhard	-7321
▁Fairhead	-7322
▁Gebäudes	-7323
▁Gehackte	-7324
▁Karriere	-7325
▁Leiterin	-7326
▁Metapans	-7327
▁Springer	-7328
▁Verleger	-7329
▁Warschau	-7330
▁englisch	-7331
▁färöisch	-7332
▁geheimen	-7333
▁salvador	-7334
▁situated	-7335
▁tenanted	-7336
Gequetscht	-7337
darsteller	-7338
sprachigen	-7339
▁1998-07-2	-7340
▁76798317.	-7341
▁Columbian	-7342
▁Desteapta	-7343
▁Entworfen	-7344
▁Filipinos	-7345
▁Füllungen	-7346
▁Gustavson	-7347
▁Kapazität	-7348
▁Nurturing	-7349
▁Reference	-7350
▁Scrivener	-7351
▁Senatorin	-7352
▁Triestina	-7353
▁Verteidig	-7354
▁bronzenen	-7355
▁folgenden	-7356
▁vietnames	-7357
Publikation	-7358
geschrieben	-7359
▁1080-6377.	-7360
▁1932-03-15	-7361
▁Bundesliga	-7362
▁Habbaniyah	-7363
▁Handwerker	-7364
▁Hochschule	-7365
▁Hüttenkäse	-7366
▁Landesliga	-7367
▁Mannschaft	-7368
▁Properties	-7369
▁Publishers	-7370
▁Sapindales	-7371
▁akademisch	-7372
▁tamilische	-7373
▁vorausging	-7374
▁Beeinflusst	-7375
▁Botschafter	-7376
▁Universitat	-7377
▁Westminster	-7378
▁categorized	-7379
▁eingedrückt	-7380
▁eingestellt	-7381
▁Abhandlungen	-7382
▁Pavloopoulos	-7383
▁Publications	-7384
▁Ursprungsort	-7385
▁komprimierte	-7386
▁konkurrierte	-7387
▁konservative	-7388
▁lateinischen	-7389
▁spezifischer	-7390
▁veranstaltet	-7391
▁Öffentlicher	-7392
Flugzeugträger	-7393
▁Pensionierung	-7394
▁indonesisches	-7395
▁komprimierten	-7396
▁pensionierter	-7397
-0-15-204770-2.	-7398
-1-4165-4253-7"	-7399
▁0-7653-0633-6.	-7400
▁Transportation	-7401
▁traditionellen	-7402
▁Nationalsprache	-7403
▁Technologischen	-7404
▁veröffentlichen	-7405
.8	-7406
Bl	-7407
DL	-7408
Pa	-7409
,12	-7410
-18	-7411
02.	-7412
10.	-7413
65.	-7414
95.	-7415
ACM	-7416
Aso	-7417
Sch	-7418
Typ	-7419
aft	-7420
asy	-7421
baz	-7422
bro	-7423
eak	-7424
ekt	-7425
ito	-7426
its	-7427
kom	-7428
lem	-7429
mun	-7430
von	-7431
wen	-7432
▁7.	-7433
▁Gi	-7434
▁Oy	-7435
▁UK	-7436
▁ft	-7437
▁pe	-7438
92.8	-7439
Book	-7440
Heim	-7441
OCLC	-7442
Roma	-7443
Vern	-7444
alan	-7445
alot	-7446
atot	-7447
auen	-7448
avor	-7449
cion	-7450
ción	-7451
dert	-7452
fest	-7453
hale	-7454
hbaz	-7455
herd	-7456
ique	-7457
itur	-7458
kanz	-7459
lang	-7460
lton	-7461
ocia	-7462
oord	-7463
pher	-7464
piel	-7465
team	-7466
ußer	-7467
weih	-7468
wert	-7469
▁142	-7470
▁153	-7471
▁26.	-7472
▁29.	-7473
▁672	-7474
▁ABl	-7475
▁AKA	-7476
▁Are	-7477
▁Aso	-7478
▁Bav	-7479
▁Bra	-7480
▁Fol	-7481
▁Hub	-7482
▁Kel	-7483
▁Mao	-7484
▁Nak	-7485
▁PDL	-7486
▁Rat	-7487
▁SSD	-7488
▁Wer	-7489
▁abH	-7490
▁arb	-7491
▁eth	-7492
▁hav	-7493
▁nur	-7494
19,0.	-7495
AMAHE	-7496
Above	-7497
Genre	-7498
Super	-7499
adori	-7500
edikt	-7501
itoit	-7502
orgos	-7503
ostel	-7504
ragen	-7505
risis	-7506
ändes	-7507
üssen	-7508
▁1510	-7509
▁2194	-7510
▁25,0	-7511
▁2900	-7512
▁Beis	-7513
▁Bryn	-7514
▁Edel	-7515
▁Form	-7516
▁Hays	-7517
▁Lane	-7518
▁Owen	-7519
▁Rund	-7520
▁Supp	-7521
▁arab	-7522
▁area	-7523
▁dazu	-7524
▁used	-7525
Asocia	-7526
Superh	-7527
aminis	-7528
andelt	-7529
andeur	-7530
ativen	-7531
atotes	-7532
avorit	-7533
dessen	-7534
gehend	-7535
schlag	-7536
▁1909.	-7537
▁900,0	-7538
▁Basko	-7539
▁Books	-7540
▁Colón	-7541
▁Drake	-7542
▁Halle	-7543
▁Leute	-7544
▁Teams	-7545
▁Teile	-7546
▁affil	-7547
▁floor	-7548
▁gesam	-7549
▁latin	-7550
▁nicht	-7551
▁north	-7552
▁speak	-7553
Antonio	-7554
alotten	-7555
etrovir	-7556
kanzlei	-7557
oneiche	-7558
▁1974-0	-7559
▁4000,0	-7560
▁44114.	-7561
▁ATISET	-7562
▁Abitur	-7563
▁Asocia	-7564
▁Braune	-7565
▁Crisis	-7566
▁Dessen	-7567
▁Fische	-7568
▁Fulton	-7569
▁Kampff	-7570
▁Kelvin	-7571
▁Korean	-7572
▁LaVern	-7573
▁Lemper	-7574
▁Marine	-7575
▁Oyster	-7576
▁bilden	-7577
▁brasil	-7578
▁diesen	-7579
▁german	-7580
▁hinter	-7581
▁letzte	-7582
▁lokale	-7583
▁people	-7584
▁vielen	-7585
Alcatraz	-7586
Weymouth	-7587
istersch	-7588
iteratur	-7589
▁3360,12	-7590
▁3500.0.	-7591
▁3800,0.	-7592
▁3990,0.	-7593
▁8805735	-7594
▁Apostel	-7595
▁Cowpher	-7596
▁Einweih	-7597
▁Favorit	-7598
▁Giorgos	-7599
▁Irlands	-7600
▁Kaminis	-7601
▁Konserv	-7602
▁Nummern	-7603
▁Phillip	-7604
▁Shehbaz	-7605
▁airbase	-7606
▁anderen	-7607
▁beendet	-7608
▁created	-7609
▁handelt	-7610
▁letzter	-7611
▁station	-7612
▁verteil	-7613
Abkürzung	-7614
Abschluss	-7615
Politiker	-7616
▁0025-585	-7617
▁Archarya	-7618
▁Bavarian	-7619
▁Benedikt	-7620
▁Germania	-7621
▁Jacabian	-7622
▁Nakadori	-7623
▁Programm	-7624
▁Province	-7625
▁Rutaceae	-7626
▁Shepherd	-7627
▁Shuvalan	-7628
▁arbeiten	-7629
▁gelegene	-7630
▁typische	-7631
▁weiteres	-7632
Grantville	-7633
▁1360-0443	-7634
▁1473-5571	-7635
▁1932-07-2	-7636
▁51969173.	-7637
▁78771100.	-7638
▁90640840.	-7639
▁Absolvent	-7640
▁AlmaMater	-7641
▁Appletone	-7642
▁Astronaut	-7643
▁Blackwell	-7644
▁Edelstein	-7645
▁Haputhale	-7646
▁Letzteres	-7647
▁Macmillan	-7648
▁Malaysian	-7649
▁Potatotes	-7650
▁almaMater	-7651
▁kubanelle	-7652
▁operative	-7653
▁schwarzen	-7654
▁teilnimmt	-7655
präsidenten	-7656
schließlich	-7657
▁1473-5571.	-7658
▁1558-2868.	-7659
▁Javanische	-7660
▁Kommandeur	-7661
▁Provinzrat	-7662
▁Schalotten	-7663
▁Schlachten	-7664
▁Schoneiche	-7665
▁weitgehend	-7666
Organisation	-7667
▁Amerikanern	-7668
▁Australiern	-7669
▁Stockwerken	-7670
▁Testpiloten	-7671
▁promovierte	-7672
▁äthiopische	-7673
▁Hubschrauber	-7674
▁Istanbulspor	-7675
▁Konservative	-7676
▁Phillippinen	-7677
▁Tintenfische	-7678
▁Vorsitzender	-7679
▁bemerkenswer	-7680
▁studentische	-7681
▁0-439-17684-0	-7682
▁0-7156-3648-0	-7683
▁Führungsorgan	-7684
▁Hauptreligion	-7685
▁Konservativen	-7686
▁Staatskanzlei	-7687
▁einheimischen	-7688
▁zertrümmertes	-7689
Flugzeugträgern	-7690
▁nächstgelegene	-7691
▁Hauptdarsteller	-7692
▁Standortkennung	-7693
Ay	-7694
ID	-7695
Me	-7696
PN	-7697
TW	-7698
VI	-7699
ee	-7700
ña	-7701
▁É	-7702
▁İ	-7703
12.	-7704
611	-7705
8,0	-7706
ACY	-7707
Tex	-7708
ajw	-7709
arō	-7710
cel	-7711
duk	-7712
ext	-7713
ffn	-7714
gle	-7715
ild	-7716
kon	-7717
lia	-7718
mad	-7719
ous	-7720
oux	-7721
ple	-7722
ulf	-7723
wan	-7724
áil	-7725
▁),	-7726
▁04	-7727
▁24	-7728
▁63	-7729
▁ID	-7730
▁Mu	-7731
▁NV	-7732
▁Ni	-7733
▁TS	-7734
▁Wo	-7735
▁so	-7736
8-01	-7737
Ayam	-7738
Cont	-7739
VIAG	-7740
able	-7741
adao	-7742
ahne	-7743
alas	-7744
andt	-7745
anka	-7746
funk	-7747
holt	-7748
ices	-7749
iety	-7750
igte	-7751
iona	-7752
irst	-7753
itor	-7754
lass	-7755
lena	-7756
olan	-7757
ontr	-7758
opod	-7759
raum	-7760
satz	-7761
ugal	-7762
währ	-7763
öffn	-7764
▁"0-	-7765
▁2,1	-7766
▁215	-7767
▁3.8	-7768
▁30.	-7769
▁560	-7770
▁8,0	-7771
▁ASD	-7772
▁Asō	-7773
▁CFC	-7774
▁Cap	-7775
▁Cep	-7776
▁Cit	-7777
▁Din	-7778
▁Däm	-7779
▁FAS	-7780
▁Gir	-7781
▁Peş	-7782
▁Pur	-7783
▁Soc	-7784
▁İst	-7785
-02-2	-7786
Boden	-7787
Louis	-7788
Staat	-7789
Texas	-7790
agoas	-7791
aiser	-7792
arrar	-7793
arten	-7794
blich	-7795
edoch	-7796
egung	-7797
enner	-7798
erste	-7799
gelie	-7800
iated	-7801
kabau	-7802
kommt	-7803
liche	-7804
ology	-7805
tehen	-7806
ugend	-7807
▁1978	-7808
▁1999	-7809
▁3090	-7810
▁52,0	-7811
▁8,0.	-7812
▁Aman	-7813
▁Ando	-7814
▁Birr	-7815
▁Blau	-7816
▁Bozo	-7817
▁Cant	-7818
▁Dáil	-7819
▁Ever	-7820
▁Fant	-7821
▁Iron	-7822
▁KACY	-7823
▁Kate	-7824
▁Klub	-7825
▁Linn	-7826
▁Mais	-7827
▁Nahr	-7828
▁Nola	-7829
▁Peso	-7830
▁Peña	-7831
▁Rajw	-7832
▁Wahr	-7833
▁Werk	-7834
▁char	-7835
▁erhö	-7836
▁grön	-7837
▁have	-7838
▁kurd	-7839
▁lila	-7840
▁next	-7841
▁were	-7842
-11-18	-7843
APGPAC	-7844
Dollar	-7845
Heimat	-7846
Indien	-7847
Mutter	-7848
alaigh	-7849
alliga	-7850
celona	-7851
ekannt	-7852
hammad	-7853
udefin	-7854
ürtige	-7855
▁1.533	-7856
▁1411.	-7857
▁14611	-7858
▁1963,	-7859
▁1981.	-7860
▁1987.	-7861
▁3.500	-7862
▁3800.	-7863
▁3990.	-7864
▁Asiat	-7865
▁Außer	-7866
▁Berry	-7867
▁Class	-7868
▁Creek	-7869
▁EISSN	-7870
▁Eiern	-7871
▁Italy	-7872
▁Laird	-7873
▁Malik	-7874
▁Markt	-7875
▁Media	-7876
▁Nachb	-7877
▁Nacht	-7878
▁Sahne	-7879
▁Salle	-7880
▁Schut	-7881
▁Suppe	-7882
▁Tadao	-7883
▁	-7884
e	-7885
n	-7886
i	-7887
a	-7888
r	-7889
t	-7890
s	-7891
d	-7892
o	-7893
l	-7894
u	-7895
h	-7896
c	-7897
g	-7898
m	-7899
.	-7900
A	-7901
b	-7902
,	-7903
S	-7904
p	-7905
f	-7906
v	-7907
w	-7908
k	-7909
D	-7910
B	-7911
M	-7912
y	-7913
C	-7914
1	-7915
0	-7916
F	-7917
ü	-7918
z	-7919
I	-7920
E	-7921
L	-7922
G	-7923
P	-7924
T	-7925
R	-7926
-	-7927
N	-7928
H	-7929
ä	-7930
2	-7931
3	-7932
9	-7933
U	-7934
K	-7935
V	-7936
J	-7937
W	-7938
6	-7939
8	-7940
4	-7941
ö	-7942
5	-7943
7	-7944
x	-7945
j	-7946
Z	-7947
O	-7948
ß	-7949
(	-7950
)	-7951
"	-7952
q	-7953
/	-7954
Y	-7955
:	-7956
'	-7957
Q	-7958
á	-7959
@	-7960
é	-7961
&	-7962
ã	-7963
ç	-7964
;	-7965
Ä	-7966
X	-7967
ò	-7968
İ	-7969
!	-7970
Í	-7971
ó	-7972
ğ	-7973
ø	-7974
Ü	-7975
í	-7976
Æ	-7977
â	-7978
ă	-7979
ō	-7980
ș	-7981
Ö	-7982
#	-7983
Ş	-7984
ñ	-7985
ı	-7986
?	-7987
É	-7988
ş	-7989
>	-7990
~	-7991
_	-7992
+	-7993
ú	-7994
*	-7995
|	-7996
