<unk>	0
<s>	0
</s>	0
▁в	-0
▁и	-1
ан	-2
ко	-3
на	-4
ро	-5
ет	-6
ст	-7
ер	-8
ен	-9
ра	-10
то	-11
▁с	-12
▁г	-13
ди	-14
▁п	-15
ли	-16
ся	-17
▁А	-18
▁"	-19
та	-20
▁-	-21
ль	-22
▁на	-23
▁A	-24
но	-25
▁б	-26
▁С	-27
ре	-28
▁ко	-29
ны	-30
▁а	-31
ля	-32
ло	-33
▁1	-34
ни	-35
▁о	-36
де	-37
ка	-38
по	-39
▁м	-40
ки	-41
▁го	-42
ру	-43
ла	-44
ри	-45
до	-46
го	-47
да	-48
вля	-49
▁кото	-50
▁я	-51
ва	-52
▁К	-53
▁М	-54
▁э	-55
вляет	-56
▁со	-57
хо	-58
▁бы	-59
те	-60
во	-61
ес	-62
▁по	-63
er	-64
▁О	-65
▁из	-66
ти	-67
on	-68
ар	-69
ме	-70
ани	-71
не	-72
ле	-73
▁ро	-74
an	-75
▁В	-76
▁к	-77
си	-78
▁Б	-79
▁Д	-80
зы	-81
▁C	-82
мер	-83
дит	-84
00	-85
ный	-86
он	-87
за	-88
ый	-89
▁ч	-90
вляется	-91
ar	-92
▁2	-93
▁П	-94
ско	-95
ор	-96
ци	-97
ходит	-98
▁име	-99
▁является	-100
▁у	-101
▁был	-102
▁И	-103
ША	-104
▁США	-105
▁имеет	-106
▁S	-107
ду	-108
▁ра	-109
ве	-110
са	-111
лу	-112
▁ст	-113
▁Р	-114
in	-115
чес	-116
▁котор	-117
▁19	-118
▁Т	-119
▁Н	-120
лся	-121
лен	-122
▁находит	-123
▁находится	-124
нг	-125
ей	-126
▁Г	-127
гра	-128
▁за	-129
▁ш	-130
ран	-131
дер	-132
ми	-133
▁B	-134
ма	-135
▁где	-136
▁M	-137
ви	-138
▁шта	-139
спо	-140
ски	-141
кан	-142
▁который	-143
сть	-144
ром	-145
же	-146
▁роди	-147
or	-148
руп	-149
зи	-150
ом	-151
жи	-152
en	-153
",	-154
▁Ф	-155
▁д	-156
▁игра	-157
ха	-158
ем	-159
ши	-160
▁ли	-161
at	-162
".	-163
▁во	-164
ста	-165
▁года	-166
▁R	-167
▁Ш	-168
▁ка	-169
ку	-170
ден	-171
al	-172
мери	-173
кон	-174
ба	-175
▁I	-176
узы	-177
▁это	-178
ана	-179
ной	-180
мерикан	-181
вер	-182
▁груп	-183
жен	-184
со	-185
би	-186
га	-187
▁родился	-188
▁Л	-189
▁P	-190
▁е	-191
es	-192
па	-193
лю	-194
род	-195
▁D	-196
▁(	-197
ча	-198
лан	-199
▁штат	-200
▁У	-201
▁бе	-202
споло	-203
▁Al	-204
сти	-205
се	-206
дин	-207
▁располо	-208
ест	-209
▁F	-210
▁Он	-211
▁году	-212
тни	-213
ке	-214
ца	-215
ров	-216
пи	-217
ги	-218
is	-219
ная	-220
▁3	-221
ic	-222
▁Ма	-223
пу	-224
el	-225
ский	-226
▁L	-227
▁Со	-228
▁пре	-229
ря	-230
бо	-231
▁Э	-232
▁T	-233
ью	-234
енны	-235
il	-236
▁бекон	-237
,0	-238
тничес	-239
ент	-240
пор	-241
цы	-242
▁этничес	-243
льный	-244
▁G	-245
пани	-246
▁Аль	-247
▁та	-248
ус	-249
▁Ин	-250
▁об	-251
▁Дж	-252
эро	-253
▁язы	-254
эропор	-255
st	-256
▁Ан	-257
▁американ	-258
▁H	-259
ou	-260
чи	-261
▁музы	-262
▁ком	-263
▁играет	-264
ции	-265
am	-266
кс	-267
ется	-268
▁ф	-269
она	-270
тов	-271
it	-272
ту	-273
▁соста	-274
▁вы	-275
лет	-276
▁Те	-277
дом	-278
ну	-279
един	-280
▁пер	-281
nt	-282
▁расположен	-283
ol	-284
ал	-285
▁Соедин	-286
▁Ко	-287
ют	-288
000	-289
▁V	-290
▁Х	-291
ra	-292
ac	-293
том	-294
▁как	-295
ам	-296
▁лидер	-297
▁про	-298
ком	-299
ion	-300
▁ча	-301
ской	-302
кая	-303
жа	-304
▁была	-305
сит	-306
▁так	-307
▁Шта	-308
▁W	-309
em	-310
et	-311
ия	-312
▁член	-313
▁которо	-314
ском	-315
▁ок	-316
▁Нью	-317
▁аэропор	-318
оли	-319
▁Е	-320
▁часть	-321
▁Ва	-322
▁Теха	-323
ут	-324
нивер	-325
ев	-326
▁Соединенны	-327
▁E	-328
▁Ка	-329
ситет	-330
ниверситет	-331
▁блю	-332
сто	-333
рая	-334
▁также	-335
▁которая	-336
ном	-337
ков	-338
▁столи	-339
▁де	-340
реди	-341
art	-342
om	-343
тель	-344
ек	-345
▁ре	-346
▁сво	-347
ты	-348
▁стран	-349
ил	-350
ного	-351
рон	-352
вани	-353
▁но	-354
▁до	-355
ена	-356
ща	-357
▁N	-358
мет	-359
▁10	-360
ур	-361
дером	-362
ec	-363
▁его	-364
▁окру	-365
▁Ба	-366
ir	-367
▁родом	-368
▁Инди	-369
▁горо	-370
▁от	-371
▁Ро	-372
рит	-373
ис	-374
ort	-375
нгреди	-376
▁воз	-377
ное	-378
злет	-379
доч	-380
поса	-381
злетно	-382
посадоч	-383
лос	-384
▁200	-385
▁ингреди	-386
▁групп	-387
луб	-388
▁при	-389
di	-390
▁4	-391
ri	-392
дж	-393
ers	-394
▁Cou	-395
▁составляет	-396
анг	-397
▁гра	-398
ай	-399
ня	-400
▁Аб	-401
ным	-402
63	-403
▁5	-404
нгто	-405
тер	-406
▁гово	-407
▁умер	-408
▁компани	-409
лий	-410
ин	-411
сон	-412
▁взлетно	-413
лекс	-414
▁город	-415
▁пери	-416
анд	-417
▁Соединенных	-418
лужи	-419
01	-420
вает	-421
▁под	-422
ие	-423
ов	-424
▁играл	-425
le	-426
ad	-427
he	-428
ший	-429
▁J	-430
▁мет	-431
▁З	-432
▁мо	-433
зд	-434
▁пло	-435
тор	-436
▁группа	-437
-1	-438
▁для	-439
хи	-440
port	-441
▁ж	-442
▁он	-443
▁университет	-444
руется	-445
▁столица	-446
ing	-447
бер	-448
▁/	-449
нов	-450
ред	-451
▁членом	-452
пра	-453
ur	-454
шингто	-455
ia	-456
ании	-457
▁говоря	-458
чески	-459
ную	-460
▁пред	-461
▁км	-462
▁городе	-463
▁Count	-464
▁американцы	-465
ot	-466
Аль	-467
ds	-468
англий	-469
ат	-470
мен	-471
▁Вашингто	-472
ch	-473
ell	-474
бли	-475
вал	-476
▁язык	-477
жно	-478
▁клуб	-479
ation	-480
ссо	-481
▁Ли	-482
щад	-483
ел	-484
зии	-485
▁ма	-486
▁говорят	-487
▁По	-488
▁се	-489
фор	-490
dr	-491
▁т	-492
▁Алекс	-493
▁най	-494
бря	-495
iv	-496
арти	-497
▁Ра	-498
ель	-499
us	-500
жден	-501
▁од	-502
▁лидером	-503
гла	-504
▁«	-505
▁мест	-506
▁ки	-507
▁ор	-508
жена	-509
щи	-510
▁этнически	-511
фи	-512
▁County	-513
ные	-514
теле	-515
▁испо	-516
▁Техас	-517
ского	-518
су	-519
▁этническая	-520
звани	-521
ство	-522
▁дли	-523
циа	-524
▁уров	-525
пол	-526
вя	-527
вет	-528
▁англий	-529
утбо	-530
нем	-531
ера	-532
▁полос	-533
▁пост	-534
нии	-535
дуна	-536
▁которого	-537
лифор	-538
ые	-539
▁0	-540
▁частью	-541
еж	-542
▁возгла	-543
рем	-544
▁ингредиент	-545
пис	-546
еждуна	-547
еждународ	-548
▁соус	-549
ew	-550
▁аэропорт	-551
▁те	-552
▁музыка	-553
ay	-554
▁11	-555
▁Калифор	-556
ческо	-557
▁Штатов	-558
ху	-559
▁U	-560
лии	-561
вой	-562
▁K	-563
▁жан	-564
▁Си	-565
▁площад	-566
as	-567
лья	-568
ед	-569
▁Ис	-570
снов	-571
▁з	-572
▁201	-573
▁Аа	-574
ели	-575
▁Ар	-576
▁In	-577
▁Па	-578
ных	-579
▁Александ	-580
од	-581
чест	-582
тив	-583
▁ар	-584
доне	-585
▁этнических	-586
▁O	-587
жд	-588
▁номер	-589
пе	-590
▁ФК	-591
▁Ви	-592
▁входит	-593
▁6	-594
▁St	-595
ются	-596
▁Вашингтон	-597
▁мор	-598
▁названи	-599
бор	-600
зиден	-601
лас	-602
▁футбо	-603
от	-604
▁нача	-605
музы	-606
▁созд	-607
▁компанией	-608
▁есть	-609
из	-610
▁Ч	-611
▁18	-612
ig	-613
anc	-614
un	-615
▁моря	-616
▁На	-617
▁Ри	-618
000,0	-619
▁кило	-620
коб	-621
and	-622
ub	-623
ston	-624
вест	-625
лли	-626
гу	-627
▁извест	-628
▁упра	-629
ed	-630
ant	-631
ман	-632
▁рабо	-633
▁Аарон	-634
▁Испани	-635
арта	-636
▁явля	-637
▁блюдо	-638
▁Андер	-639
▁ба	-640
служи	-641
влен	-642
или	-643
ьер	-644
▁Са	-645
▁Ac	-646
▁Air	-647
um	-648
мо	-649
дри	-650
▁парти	-651
▁II	-652
▁обслужи	-653
▁Ми	-654
публи	-655
io	-656
вший	-657
евый	-658
▁возглавляет	-659
▁соевый	-660
посадочной	-661
жит	-662
▁Альф	-663
ip	-664
ro	-665
▁Джон	-666
▁коман	-667
▁полосы	-668
▁Ad	-669
стве	-670
▁расположена	-671
▁199	-672
▁реги	-673
честве	-674
лес	-675
вига	-676
▁качестве	-677
ent	-678
▁ав	-679
▁округ	-680
ть	-681
Йор	-682
▁километ	-683
▁двига	-684
▁Ав	-685
▁врем	-686
дам	-687
▁ис	-688
▁вой	-689
▁198	-690
▁период	-691
▁языке	-692
американ	-693
▁Алан	-694
▁пи	-695
ность	-696
▁штате	-697
ill	-698
▁над	-699
▁то	-700
Апол	-701
▁Mart	-702
Аполло	-703
▁Martin	-704
фро	-705
дни	-706
▁эпо	-707
▁Ch	-708
▁страны	-709
▁уровнем	-710
фроамерикан	-711
зу	-712
ры	-713
▁195	-714
▁пе	-715
дя	-716
▁округа	-717
▁ию	-718
ow	-719
▁Ита	-720
▁работа	-721
ческий	-722
▁время	-723
ерси	-724
ук	-725
▁состав	-726
▁являются	-727
▁жи	-728
▁граф	-729
рес	-730
ори	-731
ым	-732
▁Ab	-733
ния	-734
ково	-735
▁Его	-736
▁7	-737
ern	-738
▁ассо	-739
▁16	-740
фе	-741
еликоб	-742
еликобрит	-743
▁Абду	-744
бе	-745
дис	-746
ее	-747
зо	-748
ские	-749
ол	-750
лай	-751
еждународный	-752
▁Испании	-753
▁одна	-754
дился	-755
ge	-756
над	-757
▁свя	-758
тором	-759
▁постро	-760
of	-761
йо	-762
ней	-763
▁предста	-764
▁Адам	-765
ta	-766
дра	-767
oc	-768
▁Великобрит	-769
ября	-770
▁Aston	-771
нес	-772
бита	-773
ник	-774
▁Rom	-775
▁ассоции	-776
▁связ	-777
ational	-778
ит	-779
ity	-780
),	-781
▁25	-782
av	-783
щен	-784
екси	-785
ke	-786
Дж	-787
ело	-788
▁жанр	-789
ати	-790
ств	-791
▁сп	-792
).	-793
надле	-794
▁раз	-795
▁президен	-796
чил	-797
▁стране	-798
ональ	-799
оз	-800
ксп	-801
▁Бу	-802
ксплу	-803
еп	-804
▁принадле	-805
виа	-806
▁найден	-807
▁опубли	-808
▁17	-809
▁di	-810
▁ру	-811
▁апо	-812
▁Великобритании	-813
писан	-814
Джерси	-815
▁Мэ	-816
▁ассоциируется	-817
теля	-818
▁ин	-819
битальный	-820
Ан	-821
▁За	-822
▁которой	-823
телем	-824
вар	-825
▁эксплу	-826
рии	-827
феоз	-828
▁рок	-829
▁t	-830
ша	-831
▁Абдул	-832
▁гражд	-833
▁не	-834
зиат	-835
ган	-836
илья	-837
▁афроамерикан	-838
ция	-839
ab	-840
уд	-841
ecor	-842
▁обслуживает	-843
Ал	-844
▁AC	-845
▁Уилья	-846
сле	-847
▁кар	-848
нару	-849
▁Int	-850
▁of	-851
00,0	-852
▁партии	-853
▁эксплуати	-854
пан	-855
▁длину	-856
▁сред	-857
▁опубликов	-858
лав	-859
▁Un	-860
ey	-861
▁ва	-862
ником	-863
эропорт	-864
▁Аэропорт	-865
ше	-866
634	-867
all	-868
▁Recor	-869
ую	-870
▁As	-871
▁кв	-872
▁основ	-873
ut	-874
▁Sp	-875
▁Ни	-876
▁котором	-877
ag	-878
▁Ar	-879
енные	-880
▁метра	-881
▁Intern	-882
▁Фран	-883
▁создан	-884
ess	-885
ton	-886
ak	-887
▁Она	-888
▁Airport	-889
▁графстве	-890
клю	-891
keem	-892
▁Индоне	-893
ге	-894
фф	-895
ери	-896
льзу	-897
▁апофеоз	-898
▁запу	-899
пой	-900
▁12	-901
▁IS	-902
▁орбитальный	-903
▁International	-904
▁ку	-905
▁обнару	-906
ace	-907
ард	-908
счи	-909
сона	-910
▁Мар	-911
▁группой	-912
ская	-913
ходя	-914
▁An	-915
кипа	-916
▁Италии	-917
▁9	-918
рей	-919
▁экипа	-920
зыва	-921
▁Кон	-922
▁193	-923
Ба	-924
▁8	-925
роле	-926
▁Ости	-927
▁'	-928
▁тран	-929
считы	-930
▁Индиана	-931
▁называ	-932
▁насчиты	-933
раб	-934
▁смен	-935
▁Андерс	-936
нист	-937
▁пило	-938
▁руково	-939
АС	-940
▁Я	-941
▁название	-942
ce	-943
сту	-944
елове	-945
ack	-946
▁192	-947
60	-948
▁Калифорнии	-949
сис	-950
▁челове	-951
▁испол	-952
рх	-953
▁Международный	-954
ee	-955
ум	-956
илип	-957
▁экипажа	-958
▁дол	-959
оль	-960
▁Университет	-961
рд	-962
ерн	-963
▁Gr	-964
ства	-965
▁Akeem	-966
лоса	-967
▁произ	-968
▁Records	-969
логи	-970
ерм	-971
илли	-972
▁Лон	-973
ura	-974
лия	-975
▁Индонезии	-976
кой	-977
▁27	-978
▁штата	-979
▁Александр	-980
▁английском	-981
▁p	-982
▁31	-983
▁Лидером	-984
-0	-985
щий	-986
▁Ст	-987
рхус	-988
▁Анг	-989
hn	-990
лица	-991
▁Уильям	-992
▁Am	-993
▁1634	-994
▁служи	-995
▁опубликован	-996
мар	-997
енси	-998
коро	-999
ых	-1000
▁один	-1001
ап	-1002
▁Кар	-1003
▁можно	-1004
▁марта	-1005
ья	-1006
▁круп	-1007
os	-1008
ry	-1009
▁проис	-1010
бур	-1011
▁ди	-1012
▁вклю	-1013
▁июля	-1014
ене	-1015
▁Су	-1016
бран	-1017
▁вое	-1018
хожден	-1019
10	-1020
zz	-1021
мп	-1022
лин	-1023
лум	-1024
▁окон	-1025
рани	-1026
корость	-1027
тек	-1028
худо	-1029
▁ингредиен	-1030
▁кор	-1031
кую	-1032
хитек	-1033
▁завер	-1034
илиппи	-1035
▁азиат	-1036
▁свое	-1037
пер	-1038
ролев	-1039
▁Bl	-1040
-3	-1041
ie	-1042
og	-1043
сер	-1044
▁худо	-1045
est	-1046
вая	-1047
кет	-1048
тлан	-1049
▁Сто	-1050
▁дека	-1051
АСА	-1052
▁15	-1053
▁Alan	-1054
▁НАСА	-1055
▁Малай	-1056
,8	-1057
-2	-1058
ане	-1059
▁Mar	-1060
▁должно	-1061
▁двигатель	-1062
▁да	-1063
посадочная	-1064
вро	-1065
кра	-1066
▁использу	-1067
ой	-1068
цев	-1069
▁14	-1070
▁AI	-1071
лумби	-1072
▁включа	-1073
der	-1074
▁Ю	-1075
циаль	-1076
▁Королев	-1077
▁полоса	-1078
роек	-1079
вания	-1080
▁Штаты	-1081
▁сменил	-1082
лась	-1083
▁ц	-1084
▁музыки	-1085
лена	-1086
▁периап	-1087
▁площадь	-1088
▁ингредиенты	-1089
еро	-1090
син	-1091
▁At	-1092
▁103	-1093
▁Mat	-1094
ivers	-1095
▁высо	-1096
▁скорость	-1097
▁Aj	-1098
▁насчитывает	-1099
чен	-1100
▁196	-1101
oy	-1102
eg	-1103
ир	-1104
ита	-1105
▁стал	-1106
▁худож	-1107
de	-1108
хно	-1109
▁группы	-1110
▁ее	-1111
ским	-1112
▁The	-1113
▁Это	-1114
▁местом	-1115
▁принадлежит	-1116
▁Альфред	-1117
▁пилотом	-1118
апу	-1119
▁работал	-1120
▁английский	-1121
▁2006	-1122
92	-1123
pl	-1124
дон	-1125
берт	-1126
▁Мадри	-1127
▁свою	-1128
ональный	-1129
кти	-1130
кант	-1131
роекти	-1132
▁членов	-1133
анской	-1134
▁связан	-1135
op	-1136
▁произво	-1137
▁происхожден	-1138
ane	-1139
▁FC	-1140
▁Бан	-1141
▁Соединенные	-1142
ИД	-1143
DA	-1144
▁которые	-1145
рую	-1146
▁23	-1147
▁Ах	-1148
▁километров	-1149
ru	-1150
▁Ж	-1151
вец	-1152
▁си	-1153
стре	-1154
▁спроекти	-1155
пен	-1156
▁AF	-1157
гайо	-1158
▁Гру	-1159
рован	-1160
▁войне	-1161
▁музыку	-1162
▁испан	-1163
▁Огайо	-1164
▁аэропорта	-1165
▁Индии	-1166
▁музыкаль	-1167
fa	-1168
▁аль	-1169
vil	-1170
тан	-1171
уз	-1172
▁the	-1173
▁столиц	-1174
LC	-1175
ания	-1176
▁Гре	-1177
▁рай	-1178
▁возник	-1179
тах	-1180
хнологи	-1181
рудни	-1182
вшийся	-1183
▁эпоха	-1184
▁La	-1185
▁Сан	-1186
▁декабря	-1187
ib	-1188
▁ква	-1189
готов	-1190
телей	-1191
рия	-1192
лле	-1193
▁Ал	-1194
▁Авра	-1195
▁Кана	-1196
ческого	-1197
крон	-1198
драт	-1199
▁Эр	-1200
алла	-1201
ланди	-1202
зер	-1203
хай	-1204
бико	-1205
▁содер	-1206
▁карьер	-1207
▁Столица	-1208
▁квадрат	-1209
ала	-1210
▁2014	-1211
ерб	-1212
▁начал	-1213
55	-1214
▁Ман	-1215
▁Рибико	-1216
▁афроамериканцы	-1217
▁Wil	-1218
ень	-1219
ды	-1220
▁Au	-1221
▁пу	-1222
стер	-1223
▁1963	-1224
▁должности	-1225
шел	-1226
▁ми	-1227
SA	-1228
ber	-1229
ock	-1230
Мекси	-1231
▁входя	-1232
рак	-1233
▁Bu	-1234
кита	-1235
0000	-1236
▁архитек	-1237
стоя	-1238
▁кон	-1239
▁певец	-1240
▁Штатах	-1241
Лу	-1242
скон	-1243
90	-1244
эй	-1245
няет	-1246
▁сбор	-1247
▁Мен	-1248
▁место	-1249
▁Рибикофф	-1250
▁периапсис	-1251
▁университете	-1252
▁карьеру	-1253
▁команди	-1254
▁происхождение	-1255
ох	-1256
эн	-1257
Мексико	-1258
▁рожден	-1259
▁насе	-1260
▁окончил	-1261
дар	-1262
drin	-1263
▁Вискон	-1264
▁написан	-1265
ПИД	-1266
▁Эн	-1267
▁Aldrin	-1268
▁Техаса	-1269
▁сам	-1270
нгапу	-1271
71	-1272
йца	-1273
▁персона	-1274
ВС	-1275
ard	-1276
кола	-1277
▁ВВС	-1278
▁найти	-1279
▁воевал	-1280
▁Оба	-1281
жером	-1282
68	-1283
alc	-1284
▁Бе	-1285
дерлан	-1286
минист	-1287
od	-1288
▁прем	-1289
ска	-1290
▁Техасе	-1291
▁служил	-1292
▁премьер	-1293
ано	-1294
▁бо	-1295
▁Гра	-1296
▁человек	-1297
Ай	-1298
▁рождения	-1299
рай	-1300
▁Колумби	-1301
▁построен	-1302
▁Калифорния	-1303
lin	-1304
▁Bat	-1305
▁десер	-1306
▁Сингапу	-1307
▁блюз	-1308
лл	-1309
гда	-1310
зия	-1311
це	-1312
ong	-1313
нге	-1314
▁мас	-1315
▁там	-1316
▁крупней	-1317
▁Нидерлан	-1318
iss	-1319
ue	-1320
ams	-1321
▁21	-1322
даль	-1323
джи	-1324
некти	-1325
ческой	-1326
нектику	-1327
нис	-1328
рю	-1329
ант	-1330
▁Atl	-1331
▁Американ	-1332
▁Acc	-1333
▁Шеп	-1334
▁населен	-1335
▁граждани	-1336
▁или	-1337
▁Анго	-1338
▁метров	-1339
▁коренные	-1340
▁Висконсин	-1341
рудников	-1342
▁Филиппи	-1343
olog	-1344
цион	-1345
▁2009	-1346
еджером	-1347
ang	-1348
ond	-1349
▁представи	-1350
▁Коннектику	-1351
isa	-1352
▁сде	-1353
циональ	-1354
цией	-1355
енсиль	-1356
ica	-1357
щая	-1358
став	-1359
▁Col	-1360
▁Дании	-1361
готовлен	-1362
ген	-1363
▁полу	-1364
▁Пенсиль	-1365
▁Терн	-1366
хм	-1367
ena	-1368
нан	-1369
емори	-1370
bur	-1371
▁Чи	-1372
tion	-1373
▁Шепард	-1374
▁City	-1375
▁Основ	-1376
Аполлон	-1377
▁Univers	-1378
ститу	-1379
ett	-1380
▁Го	-1381
деми	-1382
▁Шри	-1383
кадеми	-1384
риа	-1385
▁Баку	-1386
▁района	-1387
▁Пенсильвания	-1388
▁Buzz	-1389
шен	-1390
▁Во	-1391
▁наук	-1392
сад	-1393
▁сту	-1394
▁университета	-1395
фо	-1396
▁рит	-1397
▁Джонс	-1398
▁Соединен	-1399
▁расположения	-1400
итве	-1401
▁Де	-1402
▁Альб	-1403
ul	-1404
▁Мо	-1405
nell	-1406
▁авиа	-1407
▁музыкальный	-1408
▁американской	-1409
ner	-1410
пре	-1411
▁Ду	-1412
70	-1413
har	-1414
▁Тернер	-1415
ya	-1416
зе	-1417
щее	-1418
▁Cl	-1419
▁Ос	-1420
Йорке	-1421
▁нахо	-1422
ington	-1423
чар	-1424
ella	-1425
▁Клуб	-1426
▁народ	-1427
▁отстав	-1428
▁До	-1429
▁Hall	-1430
▁бази	-1431
▁Шве	-1432
▁чем	-1433
▁студен	-1434
▁которую	-1435
▁28	-1436
спор	-1437
укер	-1438
тность	-1439
▁эксплуатируется	-1440
ap	-1441
уан	-1442
▁кос	-1443
▁Малайзии	-1444
▁азиатские	-1445
▁исполняет	-1446
BN	-1447
▁Та	-1448
зда	-1449
рова	-1450
▁Джо	-1451
ссоциа	-1452
▁после	-1453
99	-1454
рас	-1455
щена	-1456
▁Евро	-1457
▁Мичи	-1458
бя	-1459
▁Не	-1460
▁Индия	-1461
▁Гу	-1462
▁2000	-1463
▁уча	-1464
▁Space	-1465
лек	-1466
▁Бар	-1467
льная	-1468
ham	-1469
▁Men	-1470
▁Пре	-1471
▁ISBN	-1472
щест	-1473
▁AFC	-1474
eo	-1475
эмп	-1476
шест	-1477
терна	-1478
64	-1479
доль	-1480
▁ран	-1481
▁Мэди	-1482
▁высоте	-1483
▁социаль	-1484
ax	-1485
дов	-1486
▁Джей	-1487
▁Сент	-1488
▁Авраам	-1489
▁Франции	-1490
▁находился	-1491
ire	-1492
dris	-1493
▁Музы	-1494
▁Стран	-1495
▁Mendris	-1496
▁содержит	-1497
▁Колумбия	-1498
им	-1499
сио	-1500
тат	-1501
тра	-1502
Акрон	-1503
судар	-1504
▁Орхус	-1505
тернатив	-1506
▁названием	-1507
▁командиром	-1508
▁родившийся	-1509
ubl	-1510
лем	-1511
щей	-1512
▁Ку	-1513
arth	-1514
▁Адамс	-1515
▁представителей	-1516
▁m	-1517
сте	-1518
▁Тур	-1519
▁академи	-1520
▁транспор	-1521
▁Mendrisio	-1522
гало	-1523
нахай	-1524
▁сольный	-1525
43	-1526
Ам	-1527
▁13	-1528
кист	-1529
ect	-1530
▁20	-1531
▁Ap	-1532
▁De	-1533
ских	-1534
Лан	-1535
4,	-1536
re	-1537
вы	-1538
три	-1539
Йорк	-1540
льян	-1541
урна	-1542
▁эта	-1543
вается	-1544
▁Te	-1545
▁ви	-1546
ublic	-1547
сом	-1548
▁оп	-1549
ское	-1550
▁Mon	-1551
▁футболь	-1552
▁Махм	-1553
▁себя	-1554
▁Пакист	-1555
▁Бангало	-1556
.,	-1557
ас	-1558
ute	-1559
лом	-1560
adem	-1561
шире	-1562
▁президент	-1563
сии	-1564
шим	-1565
▁AM	-1566
▁моло	-1567
▁Бел	-1568
▁Абель	-1569
▁Барак	-1570
▁Обама	-1571
▁крупнейший	-1572
▁этнической	-1573
ine	-1574
char	-1575
енда	-1576
▁населения	-1577
ana	-1578
они	-1579
▁Ре	-1580
ленд	-1581
charya	-1582
сь	-1583
айт	-1584
бург	-1585
▁Гон	-1586
▁Ком	-1587
▁Школа	-1588
▁региона	-1589
▁X	-1590
▁Тай	-1591
▁Acharya	-1592
▁создана	-1593
▁University	-1594
ubur	-1595
ерии	-1596
▁Ari	-1597
▁мен	-1598
▁Ассоциа	-1599
нва	-1600
влял	-1601
▁ранее	-1602
▁менеджером	-1603
,2	-1604
ец	-1605
Нью	-1606
руг	-1607
▁Ex	-1608
вета	-1609
alcio	-1610
▁Sport	-1611
▁высту	-1612
▁милли	-1613
▁Мичиган	-1614
78	-1615
ob	-1616
odge	-1617
antic	-1618
sh	-1619
умы	-1620
▁выступа	-1621
▁компания	-1622
91	-1623
▁ю	-1624
▁Long	-1625
▁Public	-1626
13	-1627
▁Аф	-1628
ater	-1629
▁дома	-1630
ence	-1631
ствен	-1632
▁Румы	-1633
▁битве	-1634
are	-1635
кар	-1636
ации	-1637
бина	-1638
▁Tec	-1639
нахайм	-1640
▁Греции	-1641
▁Швейца	-1642
ву	-1643
лад	-1644
рро	-1645
тели	-1646
▁AMC	-1647
йский	-1648
ademia	-1649
ott	-1650
рует	-1651
▁Ajax	-1652
бай	-1653
ксо	-1654
цем	-1655
Атлан	-1656
▁Авст	-1657
▁запущена	-1658
ваку	-1659
ющий	-1660
▁Del	-1661
▁Афи	-1662
▁зем	-1663
▁валю	-1664
▁янва	-1665
▁эваку	-1666
▁Остине	-1667
▁аэропорту	-1668
▁эвакуации	-1669
ием	-1670
лам	-1671
▁Ачар	-1672
▁были	-1673
▁него	-1674
▁Европ	-1675
▁руководит	-1676
,3	-1677
вин	-1678
▁Кова	-1679
▁Romeo	-1680
▁Акита	-1681
али	-1682
кры	-1683
▁Ад	-1684
конча	-1685
▁полет	-1686
▁Страна	-1687
▁сконча	-1688
▁известен	-1689
Луи	-1690
▁Но	-1691
Гэмп	-1692
дольфо	-1693
стоящее	-1694
73	-1695
Се	-1696
Абе	-1697
джа	-1698
▁ни	-1699
каго	-1700
пена	-1701
▁Con	-1702
байдж	-1703
генти	-1704
▁эпоху	-1705
▁Calcio	-1706
зербайдж	-1707
пания	-1708
ллиной	-1709
▁Ахмет	-1710
амя	-1711
eton	-1712
парта	-1713
ческом	-1714
▁награ	-1715
▁предшест	-1716
▁управляется	-1717
ipp	-1718
вай	-1719
▁NR	-1720
▁Ди	-1721
ными	-1722
▁Джа	-1723
▁Techn	-1724
▁миллимет	-1725
▁американцев	-1726
ev	-1727
era	-1728
рой	-1729
стон	-1730
▁вышел	-1731
▁Иллиной	-1732
▁настоящее	-1733
▁in	-1734
утерб	-1735
музыка	-1736
▁члена	-1737
-8	-1738
сточ	-1739
▁Рай	-1740
ристи	-1741
▁Accademia	-1742
▁Technolog	-1743
▁Технологи	-1744
Ма	-1745
мор	-1746
▁Аг	-1747
рест	-1748
▁Гар	-1749
▁она	-1750
▁коми	-1751
▁ноября	-1752
▁Родился	-1753
SN	-1754
ума	-1755
▁Co	-1756
▁Ла	-1757
СПИД	-1758
▁197	-1759
▁ита	-1760
ритан	-1761
▁Музыка	-1762
▁плотность	-1763
15	-1764
18	-1765
ein	-1766
▁Кор	-1767
,9	-1768
▁Ц	-1769
-11	-1770
аль	-1771
▁Суа	-1772
Алекс	-1773
ермон	-1774
po	-1775
корд	-1776
тник	-1777
▁вариа	-1778
-12	-1779
нах	-1780
▁Gl	-1781
ance	-1782
ната	-1783
▁Ass	-1784
▁Альфре	-1785
▁Bak	-1786
▁Анд	-1787
▁государ	-1788
▁персонаж	-1789
im	-1790
▁ISSN	-1791
▁которое	-1792
▁Андерсон	-1793
▁обнаружи	-1794
нди	-1795
рет	-1796
▁клу	-1797
▁чер	-1798
ison	-1799
▁Про	-1800
▁они	-1801
▁1955	-1802
▁свои	-1803
стреби	-1804
▁Джейм	-1805
▁Остин	-1806
▁города	-1807
▁включает	-1808
▁отставку	-1809
ск	-1810
оби	-1811
▁SC	-1812
▁пол	-1813
укерке	-1814
23	-1815
89	-1816
enn	-1817
rie	-1818
ador	-1819
bert	-1820
нига	-1821
урнал	-1822
Гэмпшире	-1823
▁социальных	-1824
▁&	-1825
тта	-1826
▁30	-1827
▁El	-1828
▁SV	-1829
▁Хол	-1830
▁Мест	-1831
▁кури	-1832
▁домаш	-1833
▁Мадрид	-1834
▁итальян	-1835
▁которым	-1836
ans	-1837
▁Sc	-1838
лиза	-1839
▁Боль	-1840
▁Мэри	-1841
▁Лондон	-1842
▁называют	-1843
▁столицей	-1844
об	-1845
,0.	-1846
ore	-1847
дже	-1848
хни	-1849
tura	-1850
лист	-1851
▁выбран	-1852
шая	-1853
▁им	-1854
▁международ	-1855
арен	-1856
▁Элли	-1857
▁Вермон	-1858
▁лидера	-1859
▁января	-1860
42	-1861
ляр	-1862
ктор	-1863
▁райо	-1864
▁свой	-1865
▁Black	-1866
▁Dodge	-1867
▁Гражд	-1868
▁собран	-1869
▁Карната	-1870
,7	-1871
any	-1872
iva	-1873
рога	-1874
▁Бер	-1875
ентра	-1876
▁ритм	-1877
▁Агнес	-1878
▁Европей	-1879
▁площадка	-1880
65	-1881
ще	-1882
ний	-1883
▁250	-1884
▁Мак	-1885
▁языком	-1886
▁футболу	-1887
циональный	-1888
▁Зе	-1889
ризи	-1890
▁Пло	-1891
00,0.	-1892
▁Гонко	-1893
▁войны	-1894
▁кризи	-1895
▁транс	-1896
▁британ	-1897
▁Spaceport	-1898
Al	-1899
▁Ло	-1900
▁Пе	-1901
▁Inf	-1902
▁Pro	-1903
▁AIDA	-1904
▁Andr	-1905
▁обла	-1906
▁Суарес	-1907
▁Matador	-1908
▁родилась	-1909
лы	-1910
▁Би	-1911
▁Фор	-1912
ровал	-1913
▁Анти	-1914
ливлен	-1915
▁AL	-1916
ding	-1917
дина	-1918
▁190	-1919
▁Car	-1920
▁бел	-1921
▁нем	-1922
▁колле	-1923
▁созда	-1924
▁Atlantic	-1925
▁Коннектикут	-1926
▁Дэ	-1927
твер	-1928
▁New	-1929
ument	-1930
▁десерт	-1931
▁президентом	-1932
24	-1933
оне	-1934
▁Да	-1935
▁All	-1936
▁пар	-1937
▁1634:	-1938
▁Лидер	-1939
▁Осбор	-1940
Анахайм	-1941
▁Andrew	-1942
▁Monument	-1943
▁Орхусском	-1944
▁изготовлен	-1945
cat	-1946
▁Cam	-1947
▁Эри	-1948
ством	-1949
▁2005	-1950
▁прожи	-1951
варский	-1952
▁кризис	-1953
▁институ	-1954
енни	-1955
зоне	-1956
▁орг	-1957
крати	-1958
пуляр	-1959
ландия	-1960
▁сезоне	-1961
▁ингредиентов	-1962
мии	-1963
▁истреби	-1964
нее	-1965
няя	-1966
стов	-1967
▁Wer	-1968
▁Лар	-1969
▁Флин	-1970
▁когда	-1971
▁Осборн	-1972
▁региональ	-1973
▁сы	-1974
дная	-1975
▁Jav	-1976
▁дня	-1977
Луисе	-1978
▁Indi	-1979
pleton	-1980
томоби	-1981
▁альтернатив	-1982
Альб	-1983
кета	-1984
ville	-1985
▁1000	-1986
▁этой	-1987
музыки	-1988
▁клуба	-1989
▁Appleton	-1990
▁Азербайдж	-1991
▁Technology	-1992
az	-1993
лей	-1994
Асад	-1995
ттер	-1996
▁Пер	-1997
▁посту	-1998
▁длиной	-1999
▁рекорд	-2000
▁расположенный	-2001
▁Q	-2002
▁Ay	-2003
▁Jo	-2004
ction	-2005
illar	-2006
енедж	-2007
▁Rest	-2008
▁Елиза	-2009
▁чемпи	-2010
▁Мэриленд	-2011
ich	-2012
ies	-2013
igh	-2014
▁Ее	-2015
more	-2016
тика	-2017
▁Ала	-2018
ewell	-2019
▁Audi	-2020
ruction	-2021
▁полосу	-2022
▁Компания	-2023
посадочную	-2024
▁миллиметра	-2025
▁называется	-2026
▁Restruction	-2027
th	-2028
ens	-2029
▁Ти	-2030
▁Сара	-2031
BQ	-2032
илл	-2033
▁Sh	-2034
едаль	-2035
▁Джор	-2036
▁Дэви	-2037
▁отно	-2038
▁Сарава	-2039
anco	-2040
ilom	-2041
▁100	-2042
▁Уруг	-2043
▁Abarth	-2044
▁Альбер	-2045
▁популяр	-2046
▁Карнатака	-2047
▁спроектирован	-2048
че	-2049
raz	-2050
▁му	-2051
ress	-2052
▁Беан	-2053
▁исто	-2054
емориал	-2055
▁лидеры	-2056
▁Румынии	-2057
,5	-2058
▁их	-2059
анима	-2060
▁Герм	-2061
▁занима	-2062
▁органи	-2063
▁Sportiva	-2064
▁автомоби	-2065
▁подписан	-2066
30	-2067
97	-2068
деж	-2069
▁лю	-2070
▁ти	-2071
▁метал	-2072
▁опера	-2073
▁Эллиот	-2074
▁страна	-2075
▁Лондоне	-2076
12	-2077
Don	-2078
ster	-2079
▁Фон	-2080
▁Уайт	-2081
catraz	-2082
▁Махмуд	-2083
▁Альберт	-2084
бра	-2085
сси	-2086
▁Gu	-2087
acon	-2088
▁11-	-2089
▁еда	-2090
▁сти	-2091
▁чья	-2092
▁NRBQ	-2093
▁Зита	-2094
▁Мекси	-2095
влением	-2096
ud	-2097
ун	-2098
той	-2099
▁Br	-2100
тура	-2101
▁Сар	-2102
aterp	-2103
▁глав	-2104
емником	-2105
▁Антвер	-2106
▁Зитарро	-2107
▁000	-2108
▁Пар	-2109
lanco	-2110
▁авгу	-2111
емо	-2112
▁1-	-2113
▁Абу	-2114
▁Vers	-2115
Donnell	-2116
▁Аргенти	-2117
▁Королевства	-2118
вое	-2119
лим	-2120
ited	-2121
Айам	-2122
▁Далла	-2123
Адольфо	-2124
▁Asilom	-2125
▁Versus	-2126
▁националь	-2127
CLC	-2128
▁Inc	-2129
▁окт	-2130
атлан	-2131
онико	-2132
▁Хуан	-2133
▁выпол	-2134
атланти	-2135
▁октября	-2136
▁Asilomar	-2137
▁Зитарроса	-2138
id	-2139
var	-2140
льо	-2141
▁Pi	-2142
ares	-2143
ject	-2144
ладе	-2145
лами	-2146
▁армии	-2147
▁Англии	-2148
▁входят	-2149
jecttura	-2150
неатланти	-2151
▁организа	-2152
aterpillar	-2153
▁студентов	-2154
▁Projecttura	-2155
orn	-2156
дрю	-2157
▁Ам	-2158
▁что	-2159
▁было	-2160
▁июня	-2161
ческим	-2162
ьюстон	-2163
▁Грузии	-2164
ov	-2165
Ло	-2166
▁34	-2167
▁лет	-2168
Андер	-2169
▁Acura	-2170
▁Серии	-2171
▁истори	-2172
80	-2173
Ро	-2174
лоу	-2175
antry	-2176
arter	-2177
▁2015	-2178
▁Пара	-2179
▁группу	-2180
▁Далласе	-2181
▁Ассоциацией	-2182
▁Й	-2183
own	-2184
жет	-2185
стин	-2186
▁Pal	-2187
Барай	-2188
печен	-2189
▁Alfa	-2190
▁John	-2191
▁Ayers	-2192
▁может	-2193
▁Иллинойс	-2194
ene	-2195
▁Об	-2196
неса	-2197
▁дом	-2198
Орхус	-2199
льную	-2200
4.	-2201
▁Vi	-2202
▁биз	-2203
▁1932	-2204
▁OCLC	-2205
▁гражданин	-2206
▁управляет	-2207
сп	-2208
▁b	-2209
▁бизнеса	-2210
▁d	-2211
тся	-2212
▁"1	-2213
лина	-2214
▁Фели	-2215
▁Атлан	-2216
▁Грузия	-2217
▁языков	-2218
▁обнаружен	-2219
вые	-2220
▁26	-2221
▁Бо	-2222
енно	-2223
▁Ста	-2224
▁Уот	-2225
▁Coup	-2226
▁Expl	-2227
▁Город	-2228
▁Ракета	-2229
▁валюта	-2230
▁провин	-2231
▁страни	-2232
▁связана	-2233
aw	-2234
сун	-2235
час	-2236
unch	-2237
▁Бра	-2238
ейчас	-2239
▁Launch	-2240
▁Турции	-2241
▁музыкант	-2242
▁испанский	-2243
▁Гражданской	-2244
дес	-2245
лон	-2246
▁То	-2247
ческое	-2248
▁сплав	-2249
музыкант	-2250
▁университетом	-2251
32	-2252
За	-2253
▁Од	-2254
link	-2255
▁чей	-2256
▁клас	-2257
▁Фелипе	-2258
▁Соединенного	-2259
Ат	-2260
ins	-2261
rap	-2262
зий	-2263
ales	-2264
▁Май	-2265
▁поп	-2266
▁Тайб	-2267
▁сент	-2268
▁Klink	-2269
▁километр	-2270
▁квадратный	-2271
▁предшество	-2272
▁представлял	-2273
▁Is	-2274
▁зд	-2275
писа	-2276
стро	-2277
▁600	-2278
▁ово	-2279
▁сот	-2280
еньет	-2281
ступен	-2282
▁районе	-2283
▁исполни	-2284
▁Бангалор	-2285
▁сентября	-2286
▁построена	-2287
Ри	-2288
ley	-2289
ric	-2290
▁Ге	-2291
▁Аля	-2292
▁соб	-2293
uburn	-2294
енных	-2295
матер	-2296
▁Evil	-2297
▁Auburn	-2298
▁компании	-2299
▁использует	-2300
LCO	-2301
fer	-2302
нос	-2303
тур	-2304
хра	-2305
▁RS	-2306
▁0,0	-2307
▁Музыкальный	-2308
уб	-2309
ras	-2310
eric	-2311
▁101	-2312
▁Абуба	-2313
▁Основные	-2314
▁Прудников	-2315
бал	-2316
хип	-2317
хоп	-2318
oyal	-2319
онте	-2320
туре	-2321
лимпи	-2322
енеджер	-2323
▁Ariane	-2324
▁Вермонт	-2325
▁Елизавета	-2326
▁Александра	-2327
ons	-2328
рис	-2329
stit	-2330
▁107	-2331
▁джа	-2332
билен	-2333
▁Acta	-2334
датель	-2335
▁квадратных	-2336
75	-2337
hs	-2338
rim	-2339
ссе	-2340
▁22	-2341
баль	-2342
охан	-2343
хаба	-2344
▁Крей	-2345
▁кита	-2346
stitute	-2347
Барайас	-2348
▁Мэдисон	-2349
▁запущен	-2350
▁Institute	-2351
▁Caterpillar	-2352
sta	-2353
onda	-2354
▁Сер	-2355
шхаба	-2356
▁Геор	-2357
▁Запа	-2358
ческих	-2359
▁Эндрю	-2360
▁Bakewell	-2361
▁Гонконге	-2362
▁обнаружил	-2363
▁3-	-2364
▁Ик	-2365
▁Ир	-2366
вшая	-2367
ирми	-2368
▁Honda	-2369
▁сыгра	-2370
▁United	-2371
▁Швейцарии	-2372
48	-2373
600	-2374
ама	-2375
▁VI	-2376
лама	-2377
▁Alp	-2378
▁Way	-2379
▁базируется	-2380
гиа	-2381
етти	-2382
▁Ell	-2383
▁соу	-2384
▁Band	-2385
гиадис	-2386
ческую	-2387
▁Bella	-2388
▁Икбал	-2389
▁Альбина	-2390
▁заверши	-2391
DAS	-2392
вый	-2393
▁PE	-2394
▁PEDAS	-2395
▁Марти	-2396
▁найденная	-2397
ASA	-2398
гун	-2399
щим	-2400
щую	-2401
▁32	-2402
▁Лу	-2403
поли	-2404
▁and	-2405
▁Фин	-2406
ilene	-2407
▁Adams	-2408
▁Георгиадис	-2409
лиге	-2410
▁Ram	-2411
▁Row	-2412
▁пра	-2413
▁1996	-2414
утерброд	-2415
▁молодеж	-2416
зов	-2417
кий	-2418
цуз	-2419
квар	-2420
ника	-2421
нинг	-2422
▁ALV	-2423
▁Джен	-2424
кварти	-2425
амятник	-2426
▁Colmore	-2427
▁сборную	-2428
▁Дженнинг	-2429
▁Сингапуре	-2430
▁расположение	-2431
бин	-2432
Сент	-2433
стан	-2434
ancer	-2435
isaire	-2436
▁Infantry	-2437
нер	-2438
▁Ant	-2439
▁Alison	-2440
▁Dancer	-2441
▁Ачарья	-2442
▁уровне	-2443
▁Charter	-2444
▁художником	-2445
▁архитектором	-2446
юр	-2447
аны	-2448
▁Се	-2449
▁Адо	-2450
▁1923	-2451
▁Java	-2452
▁говя	-2453
ристиан	-2454
▁завершен	-2455
гно	-2456
ним	-2457
▁Be	-2458
▁Th	-2459
orth	-2460
▁Кант	-2461
марльо	-2462
oblanco	-2463
бальеро	-2464
▁Abilene	-2465
▁Alcatraz	-2466
▁основана	-2467
▁Кабальеро	-2468
▁скончался	-2469
6.	-2470
бу	-2471
ama	-2472
man	-2473
шой	-2474
▁Bo	-2475
▁GT	-2476
▁Liv	-2477
▁пос	-2478
лянди	-2479
▁1998	-2480
▁Tenn	-2481
▁Гарт	-2482
▁конф	-2483
▁Bacon	-2484
▁Аддис	-2485
▁Афины	-2486
▁Площад	-2487
Александ	-2488
▁которых	-2489
▁Финлянди	-2490
ash	-2491
ona	-2492
son	-2493
деш	-2494
рин	-2495
комо	-2496
олет	-2497
▁See	-2498
▁жив	-2499
▁мая	-2500
татюр	-2501
▁Глен	-2502
▁печа	-2503
ностью	-2504
комотив	-2505
▁Teisaire	-2506
▁Германии	-2507
▁х	-2508
▁Fr	-2509
▁кг	-2510
itra	-2511
кова	-2512
▁Sch	-2513
▁Loyal	-2514
▁Джона	-2515
Lx	-2516
au	-2517
iot	-2518
etro	-2519
▁TLx	-2520
▁зака	-2521
▁пала	-2522
ландии	-2523
▁Ангола	-2524
▁области	-2525
7.	-2526
ej	-2527
»,	-2528
Ар	-2529
раз	-2530
исси	-2531
▁Дей	-2532
▁Поль	-2533
▁Реги	-2534
▁того	-2535
▁живут	-2536
ствовал	-2537
▁Чикаго	-2538
▁истребителя	-2539
evy	-2540
дах	-2541
рэн	-2542
▁Po	-2543
aisa	-2544
usic	-2545
жара	-2546
▁Levy	-2547
▁владе	-2548
▁Albert	-2549
тя	-2550
eja	-2551
бре	-2552
▁Dy	-2553
▁Дже	-2554
▁гла	-2555
▁Math	-2556
▁Asser	-2557
▁блюза	-2558
▁Elliot	-2559
▁тестов	-2560
▁говорит	-2561
▁музыкан	-2562
▁Альфредо	-2563
▁Королевстве	-2564
8.	-2565
Бар	-2566
имн	-2567
▁ас	-2568
ippi	-2569
отти	-2570
▁Рам	-2571
▁Рим	-2572
issippi	-2573
▁аренда	-2574
эт	-2575
ади	-2576
кер	-2577
кри	-2578
▁Cr	-2579
мени	-2580
ради	-2581
▁164	-2582
▁185	-2583
▁Япо	-2584
▁хип	-2585
жения	-2586
▁Miss	-2587
▁Эрте	-2588
000,0.	-2589
▁орган	-2590
▁медаль	-2591
▁сделан	-2592
радицион	-2593
▁Mississippi	-2594
▁Нидерландах	-2595
чер	-2596
pool	-2597
▁Гви	-2598
тельный	-2599
▁Pietro	-2600
▁Antares	-2601
▁Bandeja	-2602
▁сборной	-2603
if	-2604
oll	-2605
▁Sk	-2606
ruis	-2607
iller	-2608
▁NASA	-2609
▁Roma	-2610
▁Пена	-2611
▁paisa	-2612
▁Дания	-2613
▁получил	-2614
▁музыкальным	-2615
,6	-2616
тон	-2617
burg	-2618
otel	-2619
дери	-2620
▁Aar	-2621
▁Гро	-2622
▁Сам	-2623
йской	-2624
ровой	-2625
▁Aust	-2626
▁Cruis	-2627
ference	-2628
ливленде	-2629
министром	-2630
▁Blackpool	-2631
▁гражданской	-2632
49	-2633
agg	-2634
анр	-2635
мма	-2636
▁Из	-2637
дний	-2638
onica	-2639
торой	-2640
▁Dagg	-2641
▁Бель	-2642
▁Hotel	-2643
▁Книга	-2644
CN	-2645
▁s	-2646
бес	-2647
умер	-2648
▁Они	-2649
▁Оре	-2650
▁Пол	-2651
▁вну	-2652
▁Алек	-2653
▁Холлоу	-2654
▁пеньет	-2655
▁Alberto	-2656
▁Саравак	-2657
▁тестовым	-2658
▁сотрудников	-2659
▁исторических	-2660
se	-2661
ню	-2662
вор	-2663
▁Av	-2664
▁Рад	-2665
▁фон	-2666
▁чис	-2667
▁Grou	-2668
Спарта	-2669
▁Бирми	-2670
▁диско	-2671
▁клубе	-2672
▁традицион	-2673
▁предшествовал	-2674
уэ	-2675
шего	-2676
▁Adv	-2677
▁Ban	-2678
▁Met	-2679
▁бер	-2680
▁1927	-2681
▁Рома	-2682
Атланта	-2683
▁играют	-2684
▁Daggett	-2685
9.	-2686
▁c	-2687
ach	-2688
▁же	-2689
▁па	-2690
онне	-2691
писана	-2692
▁Мисси	-2693
▁Сабин	-2694
▁длина	-2695
▁стили	-2696
▁Miller	-2697
▁Джеймс	-2698
Андерсон	-2699
▁поступа	-2700
▁Conference	-2701
Ад	-2702
кун	-2703
тик	-2704
▁Ag	-2705
▁LC	-2706
illi	-2707
вого	-2708
ланд	-2709
туру	-2710
▁Stat	-2711
▁штаб	-2712
Аллама	-2713
▁секун	-2714
Мемориал	-2715
▁мировой	-2716
▁Холлоуэй	-2717
пы	-2718
▁0-	-2719
▁Ор	-2720
▁мэ	-2721
▁пев	-2722
erona	-2723
▁1036	-2724
▁LCCN	-2725
▁вице	-2726
▁Aaron	-2727
▁Орего	-2728
▁главе	-2729
▁внутри	-2730
стическое	-2731
▁производ	-2732
▁технологи	-2733
ero	-2734
дой	-2735
кус	-2736
хим	-2737
anes	-2738
Ридж	-2739
сипи	-2740
цами	-2741
▁код	-2742
ision	-2743
ческая	-2744
▁площадью	-2745
▁Миссисипи	-2746
дил	-2747
▁Pl	-2748
ight	-2749
▁Эпо	-2750
Север	-2751
сбург	-2752
▁Willi	-2753
▁Ковач	-2754
▁награжден	-2755
▁Филиппинах	-2756
▁преемником	-2757
▁среднеатланти	-2758
LA	-2759
vo	-2760
iti	-2761
▁Га	-2762
ievo	-2763
лана	-2764
▁AIP	-2765
▁Хор	-2766
▁дис	-2767
▁клю	-2768
Сумер	-2769
гноли	-2770
▁Васп	-2771
▁гимн	-2772
редери	-2773
▁North	-2774
▁Press	-2775
▁перед	-2776
Сумерки	-2777
▁Адонис	-2778
▁округе	-2779
▁Кливленде	-2780
▁Нидерландов	-2781
▁управлением	-2782
▁Европейского	-2783
хе	-2784
med	-2785
▁35	-2786
▁Ber	-2787
▁1962	-2788
▁Gany	-2789
▁Упра	-2790
▁тело	-2791
звание	-2792
▁Эрнан	-2793
▁берет	-2794
▁малай	-2795
▁Ganymed	-2796
▁самолет	-2797
46	-2798
ии	-2799
ave	-2800
riv	-2801
una	-2802
фан	-2803
bury	-2804
едер	-2805
▁Pol	-2806
▁мин	-2807
▁Марк	-2808
▁апре	-2809
▁масло	-2810
▁Chievo	-2811
▁Филиппин	-2812
▁Ромагноли	-2813
▁двигателем	-2814
IT	-2815
тый	-2816
шем	-2817
ders	-2818
орис	-2819
тего	-2820
▁Гор	-2821
▁Ска	-2822
▁бан	-2823
riott	-2824
Андже	-2825
▁1986	-2826
▁Arap	-2827
▁Гроз	-2828
▁Фрэн	-2829
салами	-2830
▁Скалес	-2831
▁жителя	-2832
Анджелес	-2833
▁Andrews	-2834
▁секунду	-2835
▁Альберта	-2836
▁британском	-2837
▁международный	-2838
йс	-2839
сей	-2840
пара	-2841
тный	-2842
▁170	-2843
▁300	-2844
▁Sky	-2845
▁юго	-2846
Донне	-2847
сунсь	-2848
▁1910	-2849
▁Pala	-2850
▁Rock	-2851
▁Гуру	-2852
▁Демо	-2853
▁быть	-2854
бесное	-2855
▁music	-2856
▁косми	-2857
▁стади	-2858
еспубли	-2859
▁Андрей	-2860
▁Асунсь	-2861
▁Роберт	-2862
▁начало	-2863
президен	-2864
▁Австрии	-2865
▁Абубакар	-2866
▁Абдулсалами	-2867
Со	-2868
iel	-2869
▁1.	-2870
▁44	-2871
▁Tr	-2872
▁тор	-2873
ената	-2874
▁1989	-2875
▁Сама	-2876
▁лиге	-2877
udding	-2878
лессио	-2879
▁Baths	-2880
▁искус	-2881
▁Гурули	-2882
▁собрани	-2883
Альбукерке	-2884
▁поступает	-2885
11	-2886
▁Y	-2887
ign	-2888
ves	-2889
ыре	-2890
▁AB	-2891
▁Али	-2892
▁Вир	-2893
▁деб	-2894
▁нау	-2895
мпера	-2896
▁дату	-2897
кращен	-2898
ламент	-2899
▁Белый	-2900
▁альма	-2901
▁массу	-2902
▁основан	-2903
Но	-2904
ье	-2905
ark	-2906
aya	-2907
нюю	-2908
рев	-2909
цип	-2910
▁Кей	-2911
Йорка	-2912
деров	-2913
нгтон	-2914
турец	-2915
циали	-2916
▁Валь	-2917
▁Уилл	-2918
рантов	-2919
Амарльо	-2920
▁Форрест	-2921
английски	-2922
▁Республи	-2923
▁Баварский	-2924
▁известный	-2925
8,	-2926
▁Ef	-2927
▁Ne	-2928
▁Ro	-2929
дной	-2930
рист	-2931
aware	-2932
▁Авиа	-2933
▁соль	-2934
erican	-2935
▁лидеров	-2936
▁Delaware	-2937
▁Вашингтона	-2938
ex	-2939
SAM	-2940
unk	-2941
виде	-2942
▁Брю	-2943
Ланка	-2944
восто	-2945
▁ASAM	-2946
Северед	-2947
▁pudding	-2948
▁эпохальную	-2949
88	-2950
93	-2951
inc	-2952
лла	-2953
▁Ру	-2954
▁фи	-2955
вала	-2956
riest	-2957
тяжен	-2958
▁Анто	-2959
▁жена	-2960
▁инди	-2961
▁чемпио	-2962
▁искусств	-2963
▁проживает	-2964
бри	-2965
вич	-2966
alle	-2967
hang	-2968
дает	-2969
▁Агу	-2970
ockhe	-2971
видео	-2972
▁1957	-2973
▁Brem	-2974
▁Хали	-2975
▁цвет	-2976
hangra	-2977
Доннелл	-2978
Спартак	-2979
сточной	-2980
▁Англия	-2981
онтевидео	-2982
▁километра	-2983
BS	-2984
жей	-2985
мон	-2986
фон	-2987
illa	-2988
▁ELA	-2989
▁зна	-2990
▁кан	-2991
60090	-2992
ignit	-2993
▁1918	-2994
▁Aven	-2995
▁Антио	-2996
▁Барбо	-2997
▁сорев	-2998
inignit	-2999
ockheed	-3000
▁Алисон	-3001
▁Аляска	-3002
▁дисцип	-3003
▁Зеландия	-3004
▁Площадка	-3005
▁Ajoblanco	-3006
▁провинции	-3007
▁исполнитель	-3008
▁Региональный	-3009
▁су	-3010
olis	-3011
узей	-3012
▁DBS	-3013
▁Чири	-3014
▁одним	-3015
▁посвя	-3016
▁этажа	-3017
▁560090	-3018
▁Austin	-3019
▁Avenue	-3020
▁авиаба	-3021
▁Arapriv	-3022
▁Испания	-3023
▁темпера	-3024
▁Marriott	-3025
▁Индианаполи	-3026
▁(6	-3027
▁Ma	-3028
тема	-3029
▁Cor	-3030
▁LaS	-3031
▁ван	-3032
▁наз	-3033
▁выше	-3034
▁певи	-3035
▁Анголы	-3036
▁Второй	-3037
▁команду	-3038
▁Lockheed	-3039
▁включают	-3040
▁регионального	-3041
eon	-3042
ара	-3043
гер	-3044
▁UT	-3045
поло	-3046
пыта	-3047
стем	-3048
стру	-3049
▁люди	-3050
▁фран	-3051
▁земля	-3052
▁систем	-3053
▁Барбоса	-3054
▁Альбенни	-3055
▁Эрнандес	-3056
▁написана	-3057
▁Афроамерикан	-3058
ph	-3059
ура	-3060
▁Or	-3061
▁de	-3062
вана	-3063
▁Bur	-3064
▁Мур	-3065
ерала	-3066
varaya	-3067
▁Groun	-3068
▁Вирги	-3069
▁Параг	-3070
▁совет	-3071
▁Werder	-3072
▁Паркер	-3073
▁находя	-3074
▁художника	-3075
ok	-3076
oup	-3077
ust	-3078
где	-3079
▁ос	-3080
etta	-3081
евра	-3082
▁имя	-3083
isves	-3084
винов	-3085
евраля	-3086
▁жанра	-3087
▁карто	-3088
haretta	-3089
▁Бельги	-3090
▁Райель	-3091
▁LaSalle	-3092
▁Взлетно	-3093
▁сделана	-3094
▁февраля	-3095
▁известное	-3096
isvesvaraya	-3097
▁Афроамериканцы	-3098
▁стилистическое	-3099
ni	-3100
qu	-3101
our	-3102
vis	-3103
▁73	-3104
▁ль	-3105
амет	-3106
ербы	-3107
реша	-3108
isham	-3109
сится	-3110
▁1928	-3111
▁Alex	-3112
▁Town	-3113
einoup	-3114
▁Брази	-3115
▁Флинт	-3116
▁Эпоха	-3117
▁Bremen	-3118
▁Джоном	-3119
▁апреля	-3120
▁партия	-3121
▁Grounds	-3122
▁Мексике	-3123
▁Сингапура	-3124
рио	-3125
рои	-3126
itas	-3127
доко	-3128
ксов	-3129
▁14-	-3130
▁Ира	-3131
вилле	-3132
соном	-3133
▁Mary	-3134
Абилен	-3135
щества	-3136
▁публи	-3137
xeinoup	-3138
▁Wilder	-3139
▁Англий	-3140
▁Джорджи	-3141
▁комиксов	-3142
▁аэропортом	-3143
77	-3144
фт	-3145
ian	-3146
бой	-3147
воз	-3148
мус	-3149
Агра	-3150
дама	-3151
коль	-3152
Атлас	-3153
говор	-3154
ерков	-3155
▁2013	-3156
▁Дейр	-3157
▁Хант	-3158
▁Эрик	-3159
▁беко	-3160
▁канц	-3161
▁Горба	-3162
▁одной	-3163
▁этажей	-3164
▁Cruises	-3165
▁августа	-3166
▁American	-3167
▁Небесное	-3168
▁вариатор	-3169
▁Пакистана	-3170
▁Alpharetta	-3171
▁ингредиента	-3172
41	-3173
иса	-3174
луж	-3175
▁Fi	-3176
kins	-3177
▁вме	-3178
ances	-3179
▁евро	-3180
первые	-3181
▁Мартин	-3182
▁Уотсон	-3183
▁Фонтан	-3184
▁Indiana	-3185
▁Фредери	-3186
▁филиппи	-3187
▁Advances	-3188
▁возникла	-3189
▁посвящен	-3190
▁относится	-3191
aj	-3192
way	-3193
дет	-3194
най	-3195
▁AS	-3196
ener	-3197
рджи	-3198
соне	-3199
▁Лин	-3200
▁выс	-3201
▁сра	-3202
делен	-3203
докол	-3204
льной	-3205
▁Dent	-3206
▁Чума	-3207
▁обра	-3208
▁Перон	-3209
▁жарен	-3210
▁Anders	-3211
▁Вирджи	-3212
▁Efxeinoup	-3213
▁Националь	-3214
▁двигателя	-3215
▁Технологическим	-3216
Би	-3217
ние	-3218
щих	-3219
▁иг	-3220
ание	-3221
база	-3222
сбур	-3223
шена	-3224
етыре	-3225
▁Ката	-3226
▁доба	-3227
▁пере	-3228
▁Длина	-3229
▁Манор	-3230
▁Место	-3231
▁Новой	-3232
▁общую	-3233
▁Priest	-3234
▁Ашхаба	-3235
▁Канаде	-3236
▁Camilla	-3237
▁Romance	-3238
▁Авиабаза	-3239
▁средства	-3240
▁Priestley	-3241
▁гражданином	-3242
▁Efxeinoupolis	-3243
Ar	-3244
LT	-3245
WH	-3246
acc	-3247
дор	-3248
юти	-3249
▁гу	-3250
стол	-3251
▁Арми	-3252
▁Дербы	-3253
▁Марса	-3254
▁Филли	-3255
▁вместе	-3256
▁Binignit	-3257
▁разговор	-3258
▁принадлежа	-3259
▁Национальный	-3260
dw	-3261
вен	-3262
лод	-3263
неш	-3264
шир	-3265
▁BLT	-3266
aston	-3267
▁базе	-3268
стреча	-3269
▁откры	-3270
▁турец	-3271
▁дебюти	-3272
▁катего	-3273
▁команд	-3274
▁сейчас	-3275
▁Хьюстон	-3276
▁Эртегун	-3277
▁руковод	-3278
▁Антверпен	-3279
2.	-3280
AI	-3281
enc	-3282
ids	-3283
Пра	-3284
ьет	-3285
вали	-3286
рабо	-3287
фика	-3288
▁пода	-3289
йского	-3290
оттинг	-3291
строве	-3292
▁Costa	-3293
▁Амстер	-3294
▁образо	-3295
тематика	-3296
▁впервые	-3297
▁производит	-3298
47	-3299
бы	-3300
ое	-3301
рук	-3302
▁би	-3303
▁ла	-3304
веро	-3305
далу	-3306
▁110	-3307
▁Dim	-3308
▁Коц	-3309
▁Рей	-3310
▁Рамс	-3311
музыку	-3312
▁имеют	-3313
▁общей	-3314
анского	-3315
▁диамет	-3316
▁Adisham	-3317
▁страниц	-3318
,1	-3319
Хо	-3320
ий	-3321
tle	-3322
кже	-3323
сен	-3324
uart	-3325
коно	-3326
▁Gaz	-3327
▁рис	-3328
мента	-3329
халли	-3330
▁Шнай	-3331
▁араб	-3332
▁матер	-3333
▁своей	-3334
▁Gazett	-3335
▁высшем	-3336
▁Агустин	-3337
▁крупный	-3338
▁столицу	-3339
astonbury	-3340
ванахалли	-3341
▁этническую	-3342
ид	-3343
вел	-3344
вых	-3345
зже	-3346
▁Mc	-3347
▁Sy	-3348
▁Юж	-3349
ение	-3350
зерв	-3351
лось	-3352
▁Pad	-3353
▁Сол	-3354
▁Уор	-3355
iness	-3356
▁1930	-3357
▁1969	-3358
▁Amat	-3359
▁СПИД	-3360
▁Аллен	-3361
▁Сарва	-3362
▁Verona	-3363
▁размер	-3364
antville	-3365
▁художник	-3366
▁Демократи	-3367
▁местополо	-3368
деванахалли	-3369
▁транспорта	-3370
-17	-3371
oci	-3372
rys	-3373
кин	-3374
шнан	-3375
▁Mot	-3376
▁Сте	-3377
енджа	-3378
палли	-3379
▁1099	-3380
▁2004	-3381
▁крас	-3382
Прадеш	-3383
бревиа	-3384
▁Дубли	-3385
▁печати	-3386
▁предсе	-3387
▁Dimitra	-3388
▁Шнайдер	-3389
▁авиации	-3390
▁команды	-3391
▁металли	-3392
▁работает	-3393
▁завершена	-3394
▁ингредиентом	-3395
ão	-3396
ак	-3397
му	-3398
ema	-3399
ата	-3400
кис	-3401
фио	-3402
▁Ки	-3403
orno	-3404
outh	-3405
берг	-3406
людо	-3407
ттар	-3408
▁Pet	-3409
фанте	-3410
▁Пала	-3411
stella	-3412
▁Радха	-3413
▁кораб	-3414
▁стиль	-3415
кришнан	-3416
квартира	-3417
▁Вашингтоне	-3418
▁Сарвапалли	-3419
▁американцем	-3420
RA	-3421
iaç	-3422
one	-3423
pace	-3424
фици	-3425
▁офи	-3426
iação	-3427
▁Блюдо	-3428
▁Крейг	-3429
▁Родри	-3430
▁Джорджия	-3431
▁Монтевидео	-3432
▁Радхакришнан	-3433
dav	-3434
гес	-3435
овя	-3436
цию	-3437
ones	-3438
бсле	-3439
етта	-3440
ктив	-3441
рого	-3442
чных	-3443
▁Vic	-3444
▁Лей	-3445
▁Хес	-3446
davad	-3447
ering	-3448
ходил	-3449
▁Gufa	-3450
▁выпу	-3451
▁лиги	-3452
0000,0	-3453
▁летчи	-3454
▁ракет	-3455
▁Ататюр	-3456
▁Дорога	-3457
▁написа	-3458
▁Amdavad	-3459
стической	-3460
▁Родригес	-3461
▁футбольной	-3462
▁Солдеванахалли	-3463
вае	-3464
душ	-3465
iana	-3466
▁523	-3467
▁Har	-3468
abama	-3469
▁Одна	-3470
▁Delta	-3471
▁Neave	-3472
▁своих	-3473
▁человека	-3474
co	-3475
ft	-3476
Ди	-3477
Ин	-3478
ван	-3479
гре	-3480
нок	-3481
рок	-3482
хас	-3483
fiel	-3484
ship	-3485
энос	-3486
▁Dis	-3487
field	-3488
мисси	-3489
▁1966	-3490
▁боль	-3491
▁Airey	-3492
▁Metap	-3493
▁Баксо	-3494
▁Отель	-3495
▁женат	-3496
▁канцл	-3497
▁литра	-3498
▁Nation	-3499
▁Буэнос	-3500
▁бобсле	-3501
▁Alabama	-3502
▁менеджер	-3503
▁Английский	-3504
▁автомобиль	-3505
▁художниками	-3506
21	-3507
ях	-3508
eed	-3509
мец	-3510
рен	-3511
▁"3	-3512
▁ni	-3513
скую	-3514
▁бас	-3515
▁вол	-3516
▁кре	-3517
берна	-3518
дерни	-3519
сонаж	-3520
▁Bean	-3521
▁Hera	-3522
вления	-3523
▁Coupe	-3524
▁серого	-3525
▁центра	-3526
мический	-3527
▁составе	-3528
▁Township	-3529
▁азиатских	-3530
▁Grantville	-3531
▁руководством	-3532
▁международного	-3533
».	-3534
ork	-3535
oug	-3536
вес	-3537
лив	-3538
▁--	-3539
миль	-3540
ници	-3541
▁Leg	-3542
денти	-3543
▁льда	-3544
▁цент	-3545
ниципа	-3546
▁Йохан	-3547
▁самый	-3548
дателем	-3549
лингтон	-3550
▁четыре	-3551
▁Livorno	-3552
▁Готтинг	-3553
▁Престол	-3554
бутерброд	-3555
▁Мэдисоне	-3556
▁парламент	-3557
up	-3558
Те	-3559
aka	-3560
oom	-3561
Тер	-3562
даб	-3563
▁03	-3564
ения	-3565
▁Ван	-3566
Акита	-3567
Новая	-3568
▁блюзо	-3569
▁группе	-3570
утболист	-3571
▁Чумаков	-3572
▁чемпионы	-3573
▁Аргентины	-3574
▁афроамериканцев	-3575
62	-3576
ae	-3577
йцы	-3578
тем	-3579
eeds	-3580
даме	-3581
емый	-3582
ница	-3583
▁Ham	-3584
▁учи	-3585
-11".	-3586
Arena	-3587
▁Club	-3588
6000,0	-3589
Ампара	-3590
испыта	-3591
ктором	-3592
ламанд	-3593
▁полное	-3594
▁северо	-3595
ociation	-3596
ступенча	-3597
тельство	-3598
▁разрабо	-3599
еттисбург	-3600
▁дисципли	-3601
▁выступать	-3602
▁Американский	-3603
ок	-3604
▁h	-3605
ung	-3606
Мар	-3607
Хор	-3608
там	-3609
хор	-3610
▁41	-3611
▁Fl	-3612
Фран	-3613
днее	-3614
тора	-3615
▁Тей	-3616
aceae	-3617
ности	-3618
▁1950	-3619
▁ALCO	-3620
▁Эфио	-3621
▁Мендо	-3622
▁автор	-3623
▁блюда	-3624
riciana	-3625
▁Андалу	-3626
▁Пенджа	-3627
▁резерв	-3628
▁уровня	-3629
▁Бионико	-3630
▁Самарас	-3631
▁колледж	-3632
▁находятся	-3633
roc	-3634
yat	-3635
Ард	-3636
глу	-3637
лда	-3638
▁хо	-3639
aiti	-3640
reet	-3641
вуто	-3642
кара	-3643
перь	-3644
▁Sci	-3645
▁Squ	-3646
▁Бай	-3647
Амман	-3648
▁Khar	-3649
▁Жанр	-3650
▁Сити	-3651
▁дата	-3652
▁кана	-3653
▁коро	-3654
Ардмор	-3655
▁Музей	-3656
▁присо	-3657
▁совер	-3658
aitiyat	-3659
вутоглу	-3660
денберг	-3661
▁Street	-3662
▁Поттер	-3663
▁джазов	-3664
▁Science	-3665
▁Бельгии	-3666
▁городом	-3667
▁Давутоглу	-3668
▁Комический	-3669
▁Kharaitiyat	-3670
▁дебютировал	-3671
▁расположены	-3672
▁обслуживается	-3673
aus	-3674
erb	-3675
воч	-3676
хар	-3677
щие	-3678
▁33	-3679
▁ве	-3680
arem	-3681
запа	-3682
роме	-3683
стра	-3684
Абеба	-3685
ерный	-3686
▁1995	-3687
▁этом	-3688
мерики	-3689
▁17068	-3690
▁Азиат	-3691
▁Захра	-3692
▁Йоханн	-3693
▁Эфиопи	-3694
сположен	-3695
▁Индианы	-3696
▁научных	-3697
▁публику	-3698
000000,0.	-3699
ashington	-3700
дентифика	-3701
▁Коренные	-3702
▁обнаружена	-3703
33	-3704
йц	-3705
Бай	-3706
▁45	-3707
млад	-3708
▁сек	-3709
aries	-3710
irond	-3711
енным	-3712
исвес	-3713
котор	-3714
рожен	-3715
▁York	-3716
▁Ахма	-3717
▁Соус	-3718
orision	-3719
овядина	-3720
▁Battle	-3721
▁минист	-3722
irondack	-3723
▁Индиане	-3724
▁Кристиан	-3725
▁последний	-3726
▁Adirondack	-3727
▁Explorision	-3728
▁Университета	-3729
Об	-3730
788	-3731
ban	-3732
pop	-3733
чев	-3734
▁Ле	-3735
land	-3736
rage	-3737
Анта	-3738
ствую	-3739
▁1089	-3740
▁Алаа	-3741
▁Майк	-3742
▁поги	-3743
▁поль	-3744
▁Бекон	-3745
▁Square	-3746
▁Байден	-3747
▁музыке	-3748
▁Запечен	-3749
▁Мадриде	-3750
▁острове	-3751
▁размере	-3752
Локомотив	-3753
▁операцион	-3754
▁Washington	-3755
Чи	-3756
Тур	-3757
гом	-3758
пов	-3759
▁АЗ	-3760
▁аб	-3761
нгеме	-3762
пость	-3763
dweeds	-3764
▁Алаба	-3765
▁Север	-3766
▁домом	-3767
Антарес	-3768
исвесва	-3769
министр	-3770
▁курица	-3771
▁футбол	-3772
rimiação	-3773
▁Грозный	-3774
▁Джонсон	-3775
▁Williams	-3776
▁графство	-3777
▁филиппин	-3778
тяженность	-3779
▁Азиатские	-3780
президентом	-3781
▁трансмисси	-3782
▁Glastonbury	-3783
рож	-3784
ecem	-3785
ibal	-3786
ouse	-3787
ерен	-3788
макс	-3789
▁der	-3790
Терек	-3791
город	-3792
скими	-3793
▁Frew	-3794
▁Этот	-3795
▁Jones	-3796
▁среди	-3797
▁федер	-3798
Баймакс	-3799
▁Virage	-3800
▁Мастер	-3801
▁Мендри	-3802
▁Филлип	-3803
▁Японии	-3804
▁17068,8	-3805
▁Country	-3806
▁bhangra	-3807
▁Памятник	-3808
▁национальный	-3809
yl	-3810
ез	-3811
фа	-3812
фек	-3813
▁29	-3814
▁He	-3815
brie	-3816
egre	-3817
elic	-3818
▁Бор	-3819
нером	-3820
стеро	-3821
▁Clau	-3822
▁Тома	-3823
▁поли	-3824
воздуш	-3825
▁Negre	-3826
▁Акрон	-3827
▁Арбор	-3828
▁космо	-3829
▁прави	-3830
ливково	-3831
▁Брюссе	-3832
▁Журнал	-3833
▁играть	-3834
▁класси	-3835
anespace	-3836
ecembrie	-3837
▁Джонатан	-3838
▁домашняя	-3839
▁командой	-3840
▁Мендрисио	-3841
▁президента	-3842
▁Amatriciana	-3843
ist	-3844
хэт	-3845
▁39	-3846
▁фу	-3847
choy	-3848
diom	-3849
ylde	-3850
▁Lib	-3851
▁Чар	-3852
▁Энн	-3853
▁Язы	-3854
▁все	-3855
▁1974	-3856
▁Char	-3857
▁Один	-3858
▁гита	-3859
▁пока	-3860
accone	-3861
лдатам	-3862
▁Abner	-3863
▁Корне	-3864
▁Лахор	-3865
манской	-3866
▁Военно	-3867
▁метрах	-3868
▁Институ	-3869
▁департа	-3870
▁металла	-3871
▁Claudiom	-3872
▁decembrie	-3873
▁Восточной	-3874
▁государствен	-3875
▁Claudiomaccone	-3876
so	-3877
ick	-3878
osa	-3879
-130	-3880
Турк	-3881
дена	-3882
ерфт	-3883
кмар	-3884
писы	-3885
▁ACM	-3886
▁том	-3887
▁хле	-3888
вление	-3889
▁Андра	-3890
▁погиб	-3891
▁Авраама	-3892
▁Западная	-3893
исвесварай	-3894
▁классифици	-3895
af	-3896
bi	-3897
ФК	-3898
dor	-3899
ier	-3900
гбе	-3901
ерт	-3902
нен	-3903
рода	-3904
▁Sol	-3905
▁Хай	-3906
igner	-3907
▁1933	-3908
▁Силь	-3909
▁дело	-3910
▁мину	-3911
▁прис	-3912
▁слад	-3913
альный	-3914
уджара	-3915
▁2014-	-3916
▁Atlas	-3917
▁Disco	-3918
▁Менде	-3919
▁белые	-3920
igneria	-3921
▁доктор	-3922
▁дорога	-3923
▁занимал	-3924
▁Малайзия	-3925
▁основные	-3926
▁Финляндии	-3927
▁Альбукерке	-3928
▁организация	-3929
▁Азербайджане	-3930
▁Индианаполис	-3931
▁используется	-3932
циалистической	-3933
96	-3934
▁Se	-3935
вшим	-3936
дним	-3937
щего	-3938
▁Pes	-3939
▁Рок	-3940
▁чес	-3941
вшего	-3942
хигбе	-3943
▁1983	-3944
▁всей	-3945
▁раст	-3946
▁твер	-3947
сбурге	-3948
▁Alvis	-3949
▁Fylde	-3950
▁пенси	-3951
▁соуса	-3952
мократи	-3953
родился	-3954
▁префек	-3955
▁учился	-3956
министра	-3957
▁Алессио	-3958
▁деловых	-3959
▁последо	-3960
▁Figneria	-3961
▁Соединенном	-3962
ai	-3963
ng	-3964
ьи	-3965
led	-3966
кта	-3967
трам	-3968
▁май	-3969
▁Libr	-3970
▁боях	-3971
▁живет	-3972
▁улица	-3973
репость	-3974
▁Италия	-3975
▁Керала	-3976
▁пенсию	-3977
▁теперь	-3978
▁Бертрам	-3979
▁управля	-3980
▁конферен	-3981
▁Wildweeds	-3982
▁Готтингена	-3983
▁Азербайджана	-3984
▁Протяженность	-3985
▁возглавляется	-3986
53	-3987
264	-3988
охия	-3989
рета	-3990
▁700	-3991
▁Ser	-3992
▁Tex	-3993
▁Род	-3994
▁кел	-3995
▁кни	-3996
мером	-3997
циско	-3998
▁аспи	-3999
Алкмар	-4000
грамма	-4001
▁11264	-4002
▁Испан	-4003
▁колес	-4004
▁собой	-4005
▁входил	-4006
▁Америки	-4007
▁космосе	-4008
▁материн	-4009
Франциско	-4010
▁Брюсселе	-4011
▁испанском	-4012
St	-4013
КА	-4014
oma	-4015
арг	-4016
ере	-4017
кия	-4018
▁36	-4019
▁ны	-4020
рант	-4021
сарг	-4022
сток	-4023
усон	-4024
▁Бен	-4025
▁Кад	-4026
▁эти	-4027
▁Моск	-4028
▁Джефф	-4029
▁Уттар	-4030
▁Доусон	-4031
▁блюзов	-4032
Говядина	-4033
саргетта	-4034
▁колумби	-4035
▁содержа	-4036
▁Anderson	-4037
▁Персонаж	-4038
▁келвинов	-4039
▁собрание	-4040
▁публикует	-4041
исвесварайя	-4042
▁Хессаргетта	-4043
Ре	-4044
ech	-4045
las	-4046
ака	-4047
вод	-4048
▁4-	-4049
▁Ly	-4050
▁Ces	-4051
▁Ful	-4052
▁гре	-4053
▁сви	-4054
▁сле	-4055
▁Carr	-4056
▁Lipp	-4057
▁Luna	-4058
▁посе	-4059
Чикаго	-4060
▁House	-4061
▁Андре	-4062
▁Афинах	-4063
▁Канады	-4064
▁Центра	-4065
▁присут	-4066
▁Lippinc	-4067
▁Poaceae	-4068
▁Wilkins	-4069
▁Линколь	-4070
▁губерна	-4071
▁известны	-4072
▁коренных	-4073
▁солдатам	-4074
▁Асунсьоне	-4075
▁Дженнингса	-4076
ho	-4077
ys	-4078
777	-4079
bus	-4080
ler	-4081
кос	-4082
рол	-4083
тая	-4084
хио	-4085
▁FD	-4086
косо	-4087
▁Eng	-4088
▁Губ	-4089
▁Мум	-4090
▁Рют	-4091
▁пор	-4092
800,0	-4093
Аддис	-4094
жение	-4095
▁Ларс	-4096
▁Sibal	-4097
▁овощи	-4098
▁Серхио	-4099
▁жители	-4100
▁индоне	-4101
льзуется	-4102
ociatione	-4103
▁Бразилии	-4104
▁добавлен	-4105
▁Бангалоре	-4106
▁Lippincott	-4107
▁эксплуатиру	-4108
▁традиционное	-4109
RE	-4110
439	-4111
NAI	-4112
nam	-4113
баи	-4114
дей	-4115
▁мм	-4116
епту	-4117
ерий	-4118
педо	-4119
▁III	-4120
10777	-4121
NAIRE	-4122
shire	-4123
релла	-4124
хаджи	-4125
часть	-4126
▁Макк	-4127
▁Сума	-4128
▁идет	-4129
iction	-4130
Олимпи	-4131
▁Banan	-4132
▁Матта	-4133
▁Рютте	-4134
▁ключе	-4135
▁общая	-4136
▁части	-4137
младший	-4138
▁Кадхим	-4139
▁Местом	-4140
▁Мумбаи	-4141
▁Hamburg	-4142
▁Libraries	-4143
▁Маттарелла	-4144
▁конференции	-4145
▁k	-4146
ast	-4147
nth	-4148
Ала	-4149
аго	-4150
лба	-4151
▁0.	-4152
▁88	-4153
▁RO	-4154
aman	-4155
алер	-4156
лиги	-4157
смус	-4158
▁Com	-4159
▁Лай	-4160
▁Ско	-4161
▁дру	-4162
-12".	-4163
▁Асад	-4164
eneral	-4165
nthpop	-4166
yshire	-4167
орпедо	-4168
▁Верфт	-4169
▁немец	-4170
Алдерни	-4171
смуссен	-4172
▁миндаль	-4173
▁Виргиния	-4174
▁занимает	-4175
▁Bananaman	-4176
▁Расмуссен	-4177
▁Бертрамвай	-4178
▁аспирантов	-4179
▁Arianespace	-4180
ka	-4181
чь	-4182
oho	-4183
вли	-4184
уда	-4185
уре	-4186
Rosa	-4187
Айре	-4188
андо	-4189
нера	-4190
нова	-4191
роны	-4192
тера	-4193
▁737	-4194
▁Hop	-4195
▁Lum	-4196
▁Лос	-4197
▁год	-4198
▁зве	-4199
▁иму	-4200
▁син	-4201
osion	-4202
ептун	-4203
▁1097	-4204
▁1987	-4205
▁1999	-4206
▁Falc	-4207
▁Park	-4208
▁Орху	-4209
▁мона	-4210
▁Werft	-4211
▁Негре	-4212
uburban	-4213
▁военно	-4214
▁сената	-4215
▁сыграл	-4216
Крепость	-4217
▁Johnson	-4218
▁Уругвая	-4219
▁француз	-4220
▁институт	-4221
▁Explosion	-4222
▁обслужива	-4223
▁пользуется	-4224
▁этнические	-4225
▁спроектировал	-4226
▁f	-4227
atu	-4228
dam	-4229
hol	-4230
ics	-4231
щем	-4232
▁47	-4233
zane	-4234
Себа	-4235
лект	-4236
нача	-4237
стья	-4238
таго	-4239
▁Cit	-4240
▁Mad	-4241
▁Sec	-4242
▁лос	-4243
▁тип	-4244
▁1994	-4245
▁Arem	-4246
▁Кита	-4247
▁зали	-4248
аррант	-4249
▁Legen	-4250
▁Попов	-4251
▁Рейес	-4252
▁Fulton	-4253
▁Абдула	-4254
▁Манхэт	-4255
▁Роттер	-4256
Себастья	-4257
ринвилле	-4258
▁Архитек	-4259
▁команда	-4260
erbyshire	-4261
▁Название	-4262
▁футболист	-4263
Александрия	-4264
▁разговорный	-4265
▁организацией	-4266
▁Демократической	-4267
сы	-4268
dro	-4269
ены	-4270
чок	-4271
▁43	-4272
▁60	-4273
▁Im	-4274
6063	-4275
9255	-4276
eyer	-4277
▁Alb	-4278
▁Ray	-4279
▁мно	-4280
iphol	-4281
▁Doug	-4282
▁Part	-4283
▁Берн	-4284
▁Сред	-4285
▁авто	-4286
дитель	-4287
метров	-4288
▁Charl	-4289
▁Meyer	-4290
▁Motor	-4291
▁Дэвид	-4292
▁Новая	-4293
▁После	-4294
▁белый	-4295
▁клубу	-4296
▁цвету	-4297
lington	-4298
▁Полное	-4299
▁певица	-4300
▁Batchoy	-4301
▁Большой	-4302
▁родиной	-4303
▁Polonica	-4304
▁Антиокия	-4305
▁Антиохия	-4306
▁Больница	-4307
▁Пенджабе	-4308
ars	-4309
ele	-4310
вши	-4311
вык	-4312
сим	-4313
шка	-4314
60,0	-4315
idro	-4316
iput	-4317
uppo	-4318
лены	-4319
▁Bum	-4320
▁Hip	-4321
▁Кам	-4322
essee	-4323
арбор	-4324
анаман	-4325
▁Диско	-4326
▁Кейси	-4327
iputera	-4328
▁Gruppo	-4329
▁Isidro	-4330
▁Альфон	-4331
▁привык	-4332
▁Альпена	-4333
▁Дублине	-4334
▁Фредерик	-4335
▁аббревиа	-4336
▁муниципа	-4337
▁Bumiputera	-4338
▁Расположен	-4339
▁американец	-4340
▁написанный	-4341
▁популярностью	-4342
▁присутствовал	-4343
AL	-4344
-3,	-4345
els	-4346
kes	-4347
вов	-4348
лот	-4349
ход	-4350
дела	-4351
ирст	-4352
фили	-4353
▁Can	-4354
▁Tit	-4355
рабби	-4356
▁2016	-4357
▁Camp	-4358
▁Gras	-4359
▁Изми	-4360
▁Speed	-4361
▁Trans	-4362
▁Елены	-4363
ернандо	-4364
ирструп	-4365
▁Pesaka	-4366
▁кокосо	-4367
▁молоко	-4368
ливковое	-4369
▁General	-4370
▁Ирландия	-4371
▁говядина	-4372
▁Tennessee	-4373
▁арендатор	-4374
▁Derbyshire	-4375
▁разработан	-4376
▁американского	-4377
гг	-4378
дио	-4379
лор	-4380
ури	-4381
чно	-4382
▁KW	-4383
▁te	-4384
ator	-4385
tone	-4386
Луис	-4387
▁Кла	-4388
хайло	-4389
▁Bers	-4390
▁Funk	-4391
▁Soho	-4392
▁Афин	-4393
▁спор	-4394
▁Rayel	-4395
▁Vicia	-4396
▁Дэвис	-4397
▁Также	-4398
▁Фрэнк	-4399
▁канад	-4400
▁колба	-4401
Торпедо	-4402
кобенда	-4403
стероид	-4404
▁Grasso	-4405
▁Motors	-4406
▁Titans	-4407
▁Орегон	-4408
▁своего	-4409
▁Bersatu	-4410
▁Bertone	-4411
▁Charlie	-4412
▁Мадрида	-4413
▁Михайло	-4414
▁десерта	-4415
▁Пакистан	-4416
▁Фернандо	-4417
▁блюзовой	-4418
▁погибшим	-4419
▁Швейцария	-4420
▁представляет	-4421
ию	-4422
ких	-4423
▁SB	-4424
▁Sa	-4425
▁аф	-4426
▁109	-4427
▁Hum	-4428
Палер	-4429
▁Сини	-4430
namics	-4431
▁Артур	-4432
▁декан	-4433
ologica	-4434
Палермо	-4435
▁Канада	-4436
▁журнал	-4437
▁Гуджара	-4438
▁Таррант	-4439
▁медалью	-4440
Баварский	-4441
▁Dynamics	-4442
▁малайзий	-4443
▁местоположения	-4444
Ва	-4445
-14	-4446
acy	-4447
hit	-4448
био	-4449
тин	-4450
цом	-4451
▁Пу	-4452
6391	-4453
abel	-4454
льно	-4455
рена	-4456
тека	-4457
▁Кем	-4458
верал	-4459
▁Ааро	-4460
▁Куши	-4461
▁Моди	-4462
▁боле	-4463
▁стат	-4464
igator	-4465
▁Coupé	-4466
▁блюде	-4467
▁книга	-4468
▁позже	-4469
▁техни	-4470
гдебург	-4471
ровался	-4472
▁Cesena	-4473
▁Измире	-4474
▁Сиднее	-4475
▁металл	-4476
емориала	-4477
раббиата	-4478
▁Legends	-4479
▁Уильяма	-4480
▁исходит	-4481
▁идентифика	-4482
▁килограмма	-4483
▁футбольный	-4484
29	-4485
Mar	-4486
off	-4487
oth	-4488
жде	-4489
шер	-4490
▁Ак	-4491
Алаа	-4492
емом	-4493
лого	-4494
хуку	-4495
▁Fer	-4496
▁Sam	-4497
▁кгс	-4498
▁мра	-4499
▁сем	-4500
ustom	-4501
Захра	-4502
▁Дани	-4503
▁Праб	-4504
▁Стив	-4505
▁Холл	-4506
▁похо	-4507
▁ушел	-4508
▁Dykes	-4509
▁соусе	-4510
▁Custom	-4511
▁ENAIRE	-4512
▁Palaen	-4513
▁Губбио	-4514
▁Сарана	-4515
▁создал	-4516
▁560090.	-4517
▁Tennant	-4518
▁загород	-4519
▁трансли	-4520
Магдебург	-4521
▁Прабхуку	-4522
▁Канаверал	-4523
▁музыкантом	-4524
▁Palaenologica	-4525
87	-4526
rt	-4527
ais	-4528
ico	-4529
rin	-4530
yde	-4531
сса	-4532
тте	-4533
хом	-4534
▁Ni	-4535
▁ад	-4536
▁ле	-4537
джжи	-4538
нгем	-4539
тони	-4540
▁Big	-4541
▁Wol	-4542
▁ниг	-4543
Абебе	-4544
рикан	-4545
▁Jack	-4546
▁Бога	-4547
▁Хель	-4548
▁здра	-4549
▁deram	-4550
▁Ираке	-4551
▁Клаус	-4552
▁Ларше	-4553
▁Нарен	-4554
▁грани	-4555
▁Эриком	-4556
000000,0	-4557
▁Флинтом	-4558
▁владеет	-4559
▁Suburban	-4560
▁Ирландии	-4561
▁доступен	-4562
▁сокращен	-4563
конодатель	-4564
▁Александре	-4565
▁Антверпена	-4566
▁итальянский	-4567
▁расположенная	-4568
От	-4569
Си	-4570
-20	-4571
мов	-4572
тет	-4573
эйд	-4574
▁Sé	-4575
▁cl	-4576
▁Им	-4577
-8".	-4578
4165	-4579
ALCO	-4580
Сото	-4581
анов	-4582
воох	-4583
кадо	-4584
мбра	-4585
мель	-4586
ольф	-4587
тоне	-4588
чита	-4589
▁Cop	-4590
▁Ent	-4591
▁Тен	-4592
▁фор	-4593
нгрес	-4594
▁2011	-4595
▁AFIT	-4596
▁Глав	-4597
▁даль	-4598
▁запа	-4599
▁стар	-4600
inesse	-4601
▁Felic	-4602
▁Parti	-4603
▁Série	-4604
▁нынеш	-4605
▁этого	-4606
Хьюстон	-4607
воохран	-4608
▁Алексе	-4609
▁родина	-4610
▁чеснок	-4611
▁выпуска	-4612
▁конгрес	-4613
▁National	-4614
▁Ататюрку	-4615
▁Дербышир	-4616
▁известна	-4617
▁ключевой	-4618
▁Дженнингс	-4619
▁Османской	-4620
воохранения	-4621
▁Американец	-4622
▁Araprivinesse	-4623
▁здравоохранения	-4624
.3	-4625
20	-4626
ini	-4627
nal	-4628
гей	-4629
щал	-4630
энд	-4631
вают	-4632
сима	-4633
▁12-	-4634
▁8,3	-4635
▁Сус	-4636
▁них	-4637
▁сня	-4638
вился	-4639
▁1981	-4640
▁Fiat	-4641
ournal	-4642
Алпена	-4643
рована	-4644
▁Croma	-4645
▁Калла	-4646
▁Одним	-4647
▁Чарли	-4648
▁годах	-4649
▁новой	-4650
▁пирож	-4651
▁бекона	-4652
циальным	-4653
▁стадион	-4654
▁выступал	-4655
писывается	-4656
▁транспорт	-4657
▁участвовал	-4658
▁Battlefield	-4659
▁материнская	-4660
▁губернатором	-4661
▁опубликована	-4662
40	-4663
603	-4664
eno	-4665
Кар	-4666
Мон	-4667
▁5,	-4668
гиги	-4669
заде	-4670
рике	-4671
тови	-4672
▁ACE	-4673
▁объ	-4674
▁сто	-4675
Ареша	-4676
литет	-4677
▁1101	-4678
▁teow	-4679
▁Мири	-4680
▁Раси	-4681
вшаяся	-4682
▁0-439	-4683
▁Масса	-4684
▁Хорхе	-4685
▁Ferenc	-4686
▁открыт	-4687
▁растен	-4688
▁Антонис	-4689
▁Француз	-4690
▁пирожки	-4691
▁посещал	-4692
▁фламанд	-4693
филирован	-4694
▁Расизаде	-4695
▁завершил	-4696
▁Felicitas	-4697
▁музыканта	-4698
▁Алькобенда	-4699
▁Михайлович	-4700
Visvesvaraya	-4701
▁эксплуатирует	-4702
▁альтернативное	-4703
gh	-4704
ma	-4705
que	-4706
кке	-4707
мит	-4708
при	-4709
▁TC	-4710
▁Фи	-4711
etal	-4712
▁Moy	-4713
▁руп	-4714
phrys	-4715
▁1907	-4716
▁1993	-4717
▁3500	-4718
▁Hero	-4719
▁Скот	-4720
▁изго	-4721
кончил	-4722
▁актив	-4723
▁певца	-4724
▁синте	-4725
92000,0	-4726
▁Engine	-4727
▁Moyine	-4728
▁Орхусе	-4729
▁Сусана	-4730
▁август	-4731
▁Атланти	-4732
▁Встреча	-4733
▁написал	-4734
▁номером	-4735
▁Президен	-4736
▁Северной	-4737
▁Alligator	-4738
▁резервным	-4739
вш	-4740
эк	-4741
-15	-4742
-8"	-4743
bio	-4744
tra	-4745
Обь	-4746
▁ры	-4747
agle	-4748
даба	-4749
▁Day	-4750
▁Rib	-4751
▁пан	-4752
▁спе	-4753
ichar	-4754
ubbio	-4755
веден	-4756
дском	-4757
йская	-4758
рабан	-4759
тагор	-4760
▁2532	-4761
▁Буха	-4762
борист	-4763
▁Lumes	-4764
▁элект	-4765
▁Contra	-4766
▁Борман	-4767
▁певцом	-4768
▁участи	-4769
▁Douglas	-4770
▁Акхигбе	-4771
▁Манчест	-4772
▁Humphrys	-4773
▁Нарендра	-4774
▁джазовую	-4775
Математика	-4776
▁Футболист	-4777
▁Прабхукумар	-4778
▁приготовлен	-4779
▁международном	-4780
1.	-4781
ЖД	-4782
чу	-4783
кал	-4784
▁Кэ	-4785
otus	-4786
Роза	-4787
Хосе	-4788
динг	-4789
коло	-4790
онна	-4791
роль	-4792
▁5,3	-4793
▁Уол	-4794
aters	-4795
icoff	-4796
▁Джая	-4797
▁имел	-4798
▁обес	-4799
▁речь	-4800
▁служ	-4801
▁Serie	-4802
▁Мануэ	-4803
▁пучок	-4804
ветской	-4805
▁Gubbio	-4806
▁конфли	-4807
▁Алексея	-4808
▁Саранак	-4809
▁запуска	-4810
▁Ribicoff	-4811
▁Джеймсом	-4812
▁Зеландии	-4813
▁Институт	-4814
▁входящем	-4815
▁началось	-4816
▁Lumeszane	-4817
▁Вирджиния	-4818
▁выступает	-4819
▁Engineering	-4820
▁построенная	-4821
-0.	-4822
ass	-4823
min	-4824
osi	-4825
бан	-4826
еди	-4827
лех	-4828
так	-4829
эри	-4830
atis	-4831
гита	-4832
инха	-4833
куда	-4834
лины	-4835
тиба	-4836
▁120	-4837
▁She	-4838
▁НЖД	-4839
▁Том	-4840
▁суд	-4841
6063)	-4842
Ланки	-4843
несси	-4844
ответ	-4845
▁тоже	-4846
вокадо	-4847
оннаис	-4848
▁Dales	-4849
▁Борис	-4850
▁Ковак	-4851
▁Супер	-4852
▁измер	-4853
▁роман	-4854
▁счита	-4855
▁Аарона	-4856
▁(66063)	-4857
▁Cornell	-4858
▁Metapan	-4859
▁Джеффер	-4860
▁Филлипс	-4861
▁Schiphol	-4862
▁чемпиона	-4863
Арраббиата	-4864
▁Пакистане	-4865
▁Запеченная	-4866
▁температуру	-4867
▁американцами	-4868
▁спроектирова	-4869
▁подписывается	-4870
▁альтернативный	-4871
ym	-4872
ИЧ	-4873
Ми	-4874
арт	-4875
хва	-4876
▁DC	-4877
▁мы	-4878
▁оз	-4879
-201	-4880
Инди	-4881
▁131	-4882
▁Alf	-4883
▁Bar	-4884
▁Reg	-4885
▁лап	-4886
едини	-4887
откры	-4888
пенга	-4889
стави	-4890
▁Syst	-4891
▁clem	-4892
▁Уорд	-4893
▁Фонд	-4894
▁рока	-4895
Альфон	-4896
▁Общая	-4897
▁Робер	-4898
▁район	-4899
▁строи	-4900
diction	-4901
▁высоту	-4902
▁откуда	-4903
▁Махмуда	-4904
▁базирую	-4905
▁соответ	-4906
▁clematis	-4907
▁Менеджер	-4908
▁Теннесси	-4909
▁Чирикова	-4910
▁растений	-4911
▁Лайоннаис	-4912
▁Амстердама	-4913
▁архитектур	-4914
DE	-4915
DEN	-4916
iro	-4917
rot	-4918
лэк	-4919
рос	-4920
сал	-4921
▁CO	-4922
▁Ху	-4923
Абра	-4924
Мерт	-4925
льме	-4926
▁Tur	-4927
▁Пат	-4928
▁Рой	-4929
▁Эгг	-4930
лэкпу	-4931
▁Fort	-4932
▁Road	-4933
▁брон	-4934
000,0,	-4935
varosi	-4936
енного	-4937
ерковь	-4938
▁Solan	-4939
▁Бурес	-4940
▁Иохан	-4941
▁Перси	-4942
▁волно	-4943
▁футов	-4944
Альфонс	-4945
▁Region	-4946
▁Анкара	-4947
▁Кембри	-4948
▁Копенга	-4949
▁Манхэтт	-4950
▁Хельсин	-4951
▁китайцы	-4952
▁Canonica	-4953
▁Финляндия	-4954
▁должность	-4955
▁персонажа	-4956
▁Геттисбург	-4957
▁Джефферсон	-4958
▁присоедини	-4959
▁Ferencvarosi	-4960
аф	-4961
цу	-4962
▁Z	-4963
-03	-4964
▁83	-4965
ilan	-4966
onal	-4967
пера	-4968
ться	-4969
▁Бот	-4970
▁ВИЧ	-4971
▁кур	-4972
Альга	-4973
Ланке	-4974
Марсе	-4975
Монре	-4976
дский	-4977
ланте	-4978
▁Mich	-4979
▁Капи	-4980
▁дела	-4981
▁131,6	-4982
▁CODEN	-4983
▁Марио	-4984
▁кухни	-4985
▁перво	-4986
rington	-4987
открыва	-4988
▁Eaters	-4989
▁Маккей	-4990
▁Олимпи	-4991
▁Планте	-4992
▁пилота	-4993
▁ДеМарсе	-4994
▁Эфиопии	-4995
▁майский	-4996
▁системы	-4997
Альгамбра	-4998
▁253260,0	-4999
▁института	-5000
▁Американская	-5001
▁Коннектикуте	-5002
AG	-5003
АЛ	-5004
-3"	-5005
ain	-5006
dio	-5007
ple	-5008
ros	-5009
Сам	-5010
мод	-5011
мой	-5012
уль	-5013
цей	-5014
чой	-5015
-12"	-5016
блио	-5017
верх	-5018
люби	-5019
ссии	-5020
▁Pow	-5021
▁Кан	-5022
▁Пет	-5023
▁гри	-5024
реная	-5025
▁Marc	-5026
▁панк	-5027
▁Магда	-5028
▁Народ	-5029
▁звезд	-5030
▁проек	-5031
▁ритма	-5032
Абрадаб	-5033
▁провел	-5034
▁пудинг	-5035
▁твердо	-5036
▁центре	-5037
Монреаль	-5038
▁Madison	-5039
▁главный	-5040
▁имеется	-5041
▁участво	-5042
▁Бухарест	-5043
▁Иоханнис	-5044
▁Хельсинки	-5045
▁связанный	-5046
▁AIDAstella	-5047
▁Accrington	-5048
▁Манчестере	-5049
▁Associatione	-5050
")	-5051
56	-5052
Ag	-5053
мы	-5054
ят	-5055
ems	-5056
ina	-5057
Бат	-5058
джо	-5059
зви	-5060
чус	-5061
▁Le	-5062
▁Ль	-5063
riet	-5064
Смер	-5065
лади	-5066
него	-5067
нена	-5068
убен	-5069
▁Все	-5070
▁Шар	-5071
▁ден	-5072
urple	-5073
чусет	-5074
▁2001	-5075
▁Rham	-5076
▁Бром	-5077
▁Вори	-5078
▁Луан	-5079
▁Форт	-5080
▁сэнд	-5081
вшимся	-5082
▁Milan	-5083
▁Альве	-5084
▁Ботта	-5085
▁Дорис	-5086
▁паиса	-5087
▁Petrot	-5088
▁Параку	-5089
▁Сейчас	-5090
начально	-5091
▁Воридис	-5092
▁Стеубен	-5093
▁органом	-5094
▁периапз	-5095
▁Арлингтон	-5096
▁Гринвилле	-5097
▁имущества	-5098
▁Массачусет	-5099
▁архитектор	-5100
▁Паркерсбурге	-5101
▁муниципалитет	-5102
1,	-5103
ato	-5104
bol	-5105
ila	-5106
ile	-5107
ook	-5108
гих	-5109
мбу	-5110
сам	-5111
тто	-5112
▁Ja	-5113
enir	-5114
додо	-5115
дона	-5116
илми	-5117
калб	-5118
кило	-5119
туры	-5120
▁Cal	-5121
▁MIT	-5122
▁Sum	-5123
▁Вен	-5124
▁Мор	-5125
▁мис	-5126
▁опы	-5127
▁сли	-5128
Джара	-5129
ланко	-5130
матри	-5131
стема	-5132
чатый	-5133
▁Cand	-5134
▁Guar	-5135
▁tart	-5136
▁лиди	-5137
▁Абнер	-5138
▁Альба	-5139
▁Хилми	-5140
▁более	-5141
▁Видодо	-5142
▁Морган	-5143
▁Стамбу	-5144
▁заливе	-5145
▁миссии	-5146
▁старто	-5147
▁Алабама	-5148
▁Окончил	-5149
▁канцлер	-5150
▁сольным	-5151
▁Альфреда	-5152
▁Линкольн	-5153
▁отставке	-5154
▁выполняет	-5155
▁оливковое	-5156
▁Персидском	-5157
25	-5158
za	-5159
пп	-5160
-04	-5161
ool	-5162
дан	-5163
сай	-5164
▁63	-5165
▁ST	-5166
▁Их	-5167
ment	-5168
чени	-5169
▁пря	-5170
▁фло	-5171
agine	-5172
▁1959	-5173
▁Saab	-5174
▁гвар	-5175
▁Ахмад	-5176
▁Парти	-5177
▁Райан	-5178
▁Хуана	-5179
▁жанре	-5180
▁монар	-5181
▁рупия	-5182
востоку	-5183
дителем	-5184
▁School	-5185
▁Декалб	-5186
▁палаты	-5187
▁подраз	-5188
▁состоя	-5189
женерный	-5190
▁Carroll	-5191
▁Imagine	-5192
▁Богаард	-5193
▁польско	-5194
▁среднюю	-5195
▁Regional	-5196
▁входящий	-5197
▁домашние	-5198
километров	-5199
▁Американцы	-5200
▁Менеджером	-5201
▁Роттердаме	-5202
▁популярное	-5203
▁Центральной	-5204
▁подразделен	-5205
▁Висвесварайя	-5206
▁академический	-5207
83	-5208
ld	-5209
735	-5210
sia	-5211
ало	-5212
пус	-5213
шед	-5214
▁(1	-5215
Alfa	-5216
ands	-5217
dern	-5218
eint	-5219
вать	-5220
вент	-5221
джоб	-5222
мент	-5223
раго	-5224
▁AWH	-5225
▁Бун	-5226
▁Бур	-5227
▁Пор	-5228
▁Тем	-5229
▁Уил	-5230
▁вер	-5231
▁мак	-5232
катто	-5233
уттик	-5234
▁1001	-5235
▁9000	-5236
▁Лира	-5237
▁реда	-5238
rietst	-5239
рупней	-5240
станти	-5241
укерки	-5242
▁Garth	-5243
▁Вольф	-5244
▁имени	-5245
▁назем	-5246
▁следу	-5247
▁числе	-5248
вижения	-5249
▁Тироль	-5250
▁блюдом	-5251
▁космод	-5252
любители	-5253
▁корабля	-5254
▁максима	-5255
▁соверши	-5256
джобланко	-5257
▁Западной	-5258
уттиккатто	-5259
▁Константи	-5260
▁Локомотив	-5261
▁Бирмингеме	-5262
▁производный	-5263
▁присоединился	-5264
age	-5265
ita	-5266
ive	-5267
ках	-5268
мая	-5269
олт	-5270
сан	-5271
akur	-5272
ount	-5273
pard	-5274
well	-5275
Афон	-5276
бира	-5277
итва	-5278
паты	-5279
чные	-5280
▁210	-5281
▁Nix	-5282
▁Tab	-5283
▁Мит	-5284
▁Тан	-5285
▁вет	-5286
▁Риме	-5287
▁Тони	-5288
▁Юлия	-5289
▁Язык	-5290
▁комп	-5291
derney	-5292
Афонсу	-5293
щество	-5294
▁Джоко	-5295
▁Львов	-5296
▁воева	-5297
▁имела	-5298
Альберт	-5299
Бионико	-5300
Карпаты	-5301
▁Gazette	-5302
▁Shepard	-5303
▁Крейгом	-5304
▁Мануэль	-5305
▁Чириков	-5306
▁диаметр	-5307
▁создали	-5308
▁участие	-5309
rietstown	-5310
▁Уотсоном	-5311
▁руководя	-5312
▁Андалусии	-5313
▁выполнена	-5314
▁Ванденберг	-5315
▁футбольную	-5316
▁Альтернатив	-5317
▁аффилирован	-5318
▁американский	-5319
▁Расположенный	-5320
95	-5321
II	-5322
ЕК	-5323
Из	-5324
эр	-5325
-3.	-5326
ZAL	-5327
США	-5328
дят	-5329
мин	-5330
мир	-5331
олы	-5332
сты	-5333
▁09	-5334
▁Пи	-5335
▁мя	-5336
eing	-5337
грес	-5338
мидо	-5339
рави	-5340
штат	-5341
▁252	-5342
▁475	-5343
▁ПФК	-5344
▁Пан	-5345
6391)	-5346
obema	-5347
товое	-5348
▁1979	-5349
▁Arch	-5350
▁Lanc	-5351
▁Стат	-5352
▁база	-5353
вентус	-5354
падает	-5355
▁Veint	-5356
▁Вальс	-5357
▁Томас	-5358
▁отпра	-5359
▁торго	-5360
▁Parker	-5361
▁Thakur	-5362
▁Палата	-5363
▁сливоч	-5364
блиотека	-5365
менистан	-5366
▁Globema	-5367
▁констру	-5368
▁Ашхабаде	-5369
▁группами	-5370
▁памятник	-5371
▁Лейборист	-5372
▁категории	-5373
▁Agrimiação	-5374
▁Burlington	-5375
▁загородной	-5376
▁Globemaster	-5377
▁производная	-5378
,83	-5379
895	-5380
SAF	-5381
ayo	-5382
orb	-5383
per	-5384
Рит	-5385
ила	-5386
▁50	-5387
rist	-5388
Ритм	-5389
жное	-5390
▁125	-5391
▁320	-5392
▁лон	-5393
▁шко	-5394
-12",	-5395
uster	-5396
Остин	-5397
Техас	-5398
ванию	-5399
герти	-5400
лланд	-5401
серва	-5402
▁Adam	-5403
▁Bras	-5404
▁Gorb	-5405
▁Каро	-5406
▁едят	-5407
▁хлеб	-5408
10777)	-5409
eonato	-5410
ileiro	-5411
Аттика	-5412
▁47542	-5413
▁Aenir	-5414
▁Heart	-5415
▁Lotus	-5416
▁Южной	-5417
▁мрамо	-5418
▁полно	-5419
ristian	-5420
Кливлен	-5421
▁Alfons	-5422
▁Статен	-5423
▁заказа	-5424
▁лондон	-5425
▁(66391)	-5426
▁Дугерти	-5427
▁Мендосе	-5428
▁Уругвае	-5429
▁Уругвай	-5430
▁Этничес	-5431
▁Основная	-5432
▁авиабазы	-5433
▁Плотность	-5434
▁бутерброд	-5435
▁индонезий	-5436
▁Brasileiro	-5437
▁Campeonato	-5438
▁крупнейшим	-5439
▁Куттиккатто	-5440
▁Harrietstown	-5441
▁технологический	-5442
22	-5443
74	-5444
76	-5445
бл	-5446
oli	-5447
ues	-5448
вло	-5449
гие	-5450
▁(4	-5451
▁38	-5452
▁70	-5453
▁Бы	-5454
▁Вы	-5455
▁Ци	-5456
atch	-5457
Грей	-5458
воде	-5459
гана	-5460
▁Pop	-5461
▁вар	-5462
копис	-5463
летон	-5464
нгема	-5465
пулос	-5466
столи	-5467
тника	-5468
▁1862	-5469
▁Gaus	-5470
▁Jazz	-5471
▁Ирак	-5472
▁Луна	-5473
▁осно	-5474
ations	-5475
ionico	-5476
Батчой	-5477
дендор	-5478
▁Enter	-5479
▁Quart	-5480
▁Кроме	-5481
▁Павло	-5482
▁Ципра	-5483
▁север	-5484
пплетон	-5485
ческому	-5486
▁клубом	-5487
▁начала	-5488
▁собира	-5489
▁Gaussia	-5490
▁Gorbach	-5491
▁Алексис	-5492
▁Инфанте	-5493
▁бобслеи	-5494
▁нигерий	-5495
▁четырех	-5496
советской	-5497
▁категори	-5498
▁которому	-5499
▁лидирует	-5500
▁страницы	-5501
▁управлял	-5502
▁Christian	-5503
▁связанные	-5504
▁соревнова	-5505
▁Управление	-5506
▁образования	-5507
▁операционная	-5508
▁ингредиентами	-5509
Un	-5510
ct	-5511
pt	-5512
АЗ	-5513
AWH	-5514
акэ	-5515
бар	-5516
тал	-5517
хов	-5518
язы	-5519
▁DA	-5520
▁Jr	-5521
tain	-5522
uner	-5523
дрин	-5524
сота	-5525
▁Rid	-5526
▁Стю	-5527
▁уда	-5528
▁эфи	-5529
enoit	-5530
водит	-5531
льцем	-5532
скому	-5533
▁1956	-5534
▁Бадо	-5535
▁Валю	-5536
▁Хапу	-5537
▁смер	-5538
тивной	-5539
▁Сумат	-5540
Мертвый	-5541
▁Archit	-5542
▁Benoit	-5543
▁Boeing	-5544
▁относя	-5545
tainment	-5546
Аполлона	-5547
▁Bionico	-5548
▁Атланте	-5549
▁жителей	-5550
утерброда	-5551
▁(410777)	-5552
▁волновой	-5553
▁выполнен	-5554
▁народной	-5555
▁Petrotrin	-5556
▁Президент	-5557
▁Аджобланко	-5558
▁Павлопулос	-5559
▁социального	-5560
▁футбольного	-5561
▁производится	-5562
▁Entertainment	-5563
▁председателем	-5564
14	-5565
TU	-5566
dia	-5567
rem	-5568
rom	-5569
дум	-5570
▁94	-5571
▁Wi	-5572
▁См	-5573
▁фа	-5574
▁эк	-5575
egon	-5576
wayd	-5577
есит	-5578
кого	-5579
редо	-5580
таун	-5581
▁610	-5582
▁Gal	-5583
▁Min	-5584
▁Vir	-5585
▁Мин	-5586
▁Оль	-5587
▁Ран	-5588
▁Юсу	-5589
▁ули	-5590
еллос	-5591
▁Cent	-5592
▁Live	-5593
▁Осим	-5594
Грейма	-5595
▁Copen	-5596
▁Jwayd	-5597
▁Иколо	-5598
▁Франк	-5599
▁свини	-5600
▁число	-5601
Ювентус	-5602
печения	-5603
столица	-5604
▁России	-5605
▁одного	-5606
▁прозви	-5607
▁Ледокол	-5608
▁испанцы	-5609
▁электро	-5610
▁министра	-5611
▁стадионе	-5612
▁Ольдендор	-5613
▁правитель	-5614
▁эпохальная	-5615
▁Паракуеллос	-5616
▁конструктор	-5617
▁обеспечения	-5618
▁Технологический	-5619
44	-5620
7,	-5621
Ac	-5622
Bl	-5623
705	-5624
ath	-5625
Вин	-5626
Лос	-5627
ань	-5628
ваю	-5629
вом	-5630
енц	-5631
май	-5632
печ	-5633
рик	-5634
рун	-5635
ыду	-5636
ecut	-5637
lege	-5638
анди	-5639
вилл	-5640
дене	-5641
едет	-5642
енье	-5643
инди	-5644
ранс	-5645
хман	-5646
▁159	-5647
▁26-	-5648
▁Миш	-5649
▁Там	-5650
9255)	-5651
dings	-5652
жноаф	-5653
▁164,	-5654
▁Амар	-5655
▁рейс	-5656
▁Макис	-5657
▁Строи	-5658
▁ведет	-5659
▁война	-5660
▁полуо	-5661
▁стиле	-5662
▁тенни	-5663
ecutive	-5664
Джарама	-5665
тактный	-5666
▁Stuart	-5667
▁Даниил	-5668
▁Джордж	-5669
▁Катало	-5670
▁Рахман	-5671
▁Родные	-5672
▁Стюарт	-5673
▁делает	-5674
▁жанром	-5675
▁ключев	-5676
▁силами	-5677
▁южноаф	-5678
▁(19255)	-5679
▁College	-5680
▁Falcons	-5681
▁Алексей	-5682
▁Всеинди	-5683
▁Карлоса	-5684
▁Конгрес	-5685
воздушными	-5686
▁бобслеист	-5687
▁правления	-5688
▁созданный	-5689
▁Преемником	-5690
▁собирается	-5691
▁Королевство	-5692
▁образованию	-5693
▁южноафрикан	-5694
▁техническому	-5695
км	-5696
aca	-5697
agn	-5698
hel	-5699
Ста	-5700
енс	-5701
▁53	-5702
▁Du	-5703
▁Ve	-5704
ockb	-5705
rock	-5706
Дина	-5707
Юсти	-5708
гене	-5709
лори	-5710
онсу	-5711
рома	-5712
скош	-5713
▁Dia	-5714
▁MTU	-5715
▁Nov	-5716
▁бин	-5717
▁пла	-5718
ctech	-5719
ichsh	-5720
ungar	-5721
лейбл	-5722
▁Stan	-5723
▁rock	-5724
▁Юсуф	-5725
▁влия	-5726
▁подж	-5727
▁смет	-5728
Ашхаба	-5729
Динамо	-5730
▁Monoc	-5731
▁Powys	-5732
Ашхабад	-5733
Инфанте	-5734
востоке	-5735
▁Афонсу	-5736
▁Барков	-5737
▁Бундес	-5738
▁Горбаш	-5739
▁Москва	-5740
▁звание	-5741
▁началь	-5742
▁Arctech	-5743
▁Jwaydan	-5744
▁изготов	-5745
▁черного	-5746
ockbuster	-5747
▁Gazettes	-5748
▁Прокопис	-5749
▁Тирструп	-5750
▁блюзовую	-5751
▁работала	-5752
▁Executive	-5753
▁Суперлиге	-5754
▁изготовлена	-5755
▁насчитывается	-5756
CA	-5757
be	-5758
йн	-5759
-01	-5760
Ram	-5761
bra	-5762
eek	-5763
ino	-5764
вуд	-5765
▁Si	-5766
▁ци	-5767
acew	-5768
afen	-5769
ange	-5770
yard	-5771
аллу	-5772
вано	-5773
елом	-5774
елос	-5775
змер	-5776
раль	-5777
соль	-5778
тале	-5779
▁5,7	-5780
▁Ang	-5781
▁Ran	-5782
▁Дес	-5783
gonal	-5784
riedr	-5785
Амкар	-5786
Барсы	-5787
йское	-5788
▁1913	-5789
▁2008	-5790
▁Cast	-5791
▁Fute	-5792
▁Алва	-5793
▁Крас	-5794
▁Раши	-5795
▁дире	-5796
▁памя	-5797
▁яйца	-5798
abelle	-5799
Айресе	-5800
журнал	-5801
▁Clube	-5802
▁Clyde	-5803
▁DeMar	-5804
▁Gloom	-5805
▁Indie	-5806
▁Афара	-5807
▁Тайба	-5808
Батагор	-5809
▁Amster	-5810
▁Spacew	-5811
▁Карлос	-5812
▁Кристи	-5813
▁инстру	-5814
▁курицу	-5815
сокращен	-5816
▁Futebol	-5817
▁варенье	-5818
▁главные	-5819
▁синтеза	-5820
ichshafen	-5821
чательный	-5822
▁Diagonal	-5823
▁Isabelle	-5824
▁цветущих	-5825
▁возглавля	-5826
▁Spacewatch	-5827
▁происходит	-5828
▁родившимся	-5829
▁чемпионами	-5830
▁арендатором	-5831
▁Константинос	-5832
▁передвижения	-5833
riedrichshafen	-5834
▁подразделение	-5835
AC	-5836
ne	-5837
Ле	-5838
Ли	-5839
яр	-5840
ese	-5841
ove	-5842
Алу	-5843
едь	-5844
юро	-5845
▁24	-5846
▁MB	-5847
788)	-5848
ific	-5849
АЗАЛ	-5850
акад	-5851
грам	-5852
жнее	-5853
нима	-5854
пура	-5855
▁(15	-5856
▁Яку	-5857
ensis	-5858
inghe	-5859
umber	-5860
Алуна	-5861
дении	-5862
▁Mayo	-5863
▁Nova	-5864
▁Ship	-5865
▁Vila	-5866
▁Wick	-5867
▁Кэме	-5868
▁бюро	-5869
▁очер	-5870
▁сооб	-5871
▁фрук	-5872
▁эфир	-5873
тонита	-5874
▁Ranil	-5875
▁Spang	-5876
▁Wiley	-5877
▁mater	-5878
▁metal	-5879
▁Банде	-5880
▁Марии	-5881
▁Никос	-5882
▁предо	-5883
рейской	-5884
▁Banner	-5885
▁Hungar	-5886
▁Нептун	-5887
▁Сената	-5888
▁Ципрас	-5889
▁регион	-5890
енцерков	-5891
▁(15788)	-5892
▁DeMarce	-5893
▁Newport	-5894
▁Альфонс	-5895
▁Бернсом	-5896
▁ведении	-5897
▁имеющий	-5898
▁очередь	-5899
▁подписа	-5900
▁Shipyard	-5901
▁торговли	-5902
блиотекари	-5903
▁конфликта	-5904
▁относятся	-5905
▁сливочное	-5906
▁Этническая	-5907
▁перитонита	-5908
▁Blockbuster	-5909
▁Ольдендорфе	-5910
▁французский	-5911
▁Visvesvaraya	-5912
▁библиотекари	-5913
▁скончавшийся	-5914
▁Университетом	-5915
39	-5916
Во	-5917
нн	-5918
bet	-5919
rov	-5920
йцо	-5921
нец	-5922
тую	-5923
▁AT	-5924
▁ch	-5925
▁sy	-5926
dson	-5927
king	-5928
лага	-5929
рази	-5930
стри	-5931
▁Dol	-5932
▁Ice	-5933
▁Man	-5934
▁Над	-5935
▁Ром	-5936
-1768	-5937
remes	-5938
umbus	-5939
Такад	-5940
▁Cham	-5941
▁Veil	-5942
▁торт	-5943
Ататюр	-5944
руются	-5945
▁Ареша	-5946
▁Бадои	-5947
▁Паиса	-5948
▁Сатем	-5949
▁смени	-5950
Юстиция	-5951
постави	-5952
роженое	-5953
▁Richar	-5954
▁States	-5955
▁Сергей	-5956
▁Тейлор	-5957
▁партию	-5958
▁переда	-5959
▁снялся	-5960
Такаддум	-5961
денепура	-5962
▁Michele	-5963
▁Systems	-5964
▁Альбани	-5965
▁Сараваке	-5966
▁Франклин	-5967
▁военного	-5968
▁картошка	-5969
remesinghe	-5970
▁Техасской	-5971
▁найденное	-5972
▁Richardson	-5973
▁Джонатаном	-5974
▁комический	-5975
открывателем	-5976
▁Копенгагене	-5977
▁Управлением	-5978
▁федеральный	-5979
▁соответствую	-5980
▁Wickremesinghe	-5981
▁муниципалитете	-5982
▁четырехтактный	-5983
▁Friedrichshafen	-5984
In	-5985
pi	-5986
645	-5987
80-	-5988
haj	-5989
Бан	-5990
гой	-5991
нга	-5992
тия	-5993
▁".	-5994
▁Ай	-5995
▁Жи	-5996
ague	-5997
Мэри	-5998
Реал	-5999
вшей	-6000
енат	-6001
еста	-6002
скес	-6003
тным	-6004
▁Par	-6005
▁Sar	-6006
▁мэр	-6007
▁сое	-6008
-11",	-6009
essio	-6010
olini	-6011
Велом	-6012
Откры	-6013
балом	-6014
▁1971	-6015
▁Gard	-6016
▁Grey	-6017
▁Ауре	-6018
▁Пред	-6019
▁муки	-6020
000000	-6021
hambra	-6022
Блэкпу	-6023
▁Angel	-6024
▁Джано	-6025
▁Поакэ	-6026
▁овоща	-6027
▁Oregon	-6028
▁Romagn	-6029
▁Бурбан	-6030
▁Васкес	-6031
▁Гвиана	-6032
▁Капито	-6033
▁Турция	-6034
▁кревет	-6035
▁фасоль	-6036
Смертник	-6037
▁Орегоне	-6038
▁аргенти	-6039
▁включая	-6040
▁летчика	-6041
▁сэндвич	-6042
▁Spangled	-6043
▁Ашхабада	-6044
▁Менделем	-6045
▁Парагвае	-6046
▁Сингапур	-6047
▁сольного	-6048
испытателя	-6049
▁Marcolini	-6050
▁Бананаман	-6051
▁найденный	-6052
▁Международ	-6053
▁вариатором	-6054
Туркменистан	-6055
▁музыкальными	-6056
▁идентификатор	-6057
▁окончательный	-6058
СР	-6059
920	-6060
ice	-6061
ure	-6062
КАО	-6063
ССР	-6064
елл	-6065
наи	-6066
стр	-6067
▁Qu	-6068
▁VK	-6069
▁pl	-6070
▁Фу	-6071
avan	-6072
ival	-6073
Арро	-6074
Боль	-6075
баре	-6076
олес	-6077
ьера	-6078
▁Div	-6079
▁Мон	-6080
▁Пог	-6081
▁Сти	-6082
▁жен	-6083
▁обо	-6084
▁род	-6085
iforn	-6086
Битве	-6087
Флори	-6088
менно	-6089
▁1500	-6090
▁Bent	-6091
▁Gang	-6092
▁arem	-6093
▁kway	-6094
▁Билл	-6095
▁Рама	-6096
▁СССР	-6097
bertig	-6098
entina	-6099
▁17000	-6100
▁Thema	-6101
▁Скотт	-6102
▁Фаллу	-6103
▁приня	-6104
▁семьи	-6105
ifornia	-6106
Ататюрк	-6107
канской	-6108
ретарем	-6109
▁Lancia	-6110
▁Марком	-6111
▁Патрик	-6112
▁Синиша	-6113
▁Халима	-6114
▁этикет	-6115
▁63800,0	-6116
▁Alessio	-6117
▁Journal	-6118
▁Церковь	-6119
▁объемом	-6120
▁регистр	-6121
umberland	-6122
Фенцерков	-6123
демократи	-6124
▁Альберто	-6125
▁Горбахов	-6126
▁Колумбии	-6127
▁Парагвай	-6128
▁Самбалом	-6129
▁подается	-6130
ристианско	-6131
▁Romagnoli	-6132
▁Solanales	-6133
▁Бирмингем	-6134
▁Иллинойсе	-6135
▁твердости	-6136
▁California	-6137
▁Кристианом	-6138
▁отправился	-6139
▁американском	-6140
▁региональном	-6141
▁академической	-6142
▁расположенной	-6143
▁l	-6144
290	-6145
613	-6146
633	-6147
640	-6148
ail	-6149
por	-6150
▁is	-6151
▁Ио	-6152
▁Му	-6153
▁Хо	-6154
Пена	-6155
дели	-6156
енди	-6157
енты	-6158
▁360	-6159
▁Дэн	-6160
▁оба	-6161
▁сил	-6162
Измир	-6163
умбер	-6164
хваты	-6165
▁1904	-6166
▁1931	-6167
▁Croc	-6168
▁USAF	-6169
▁Wolf	-6170
▁Азии	-6171
▁ИКАО	-6172
Медаль	-6173
лектри	-6174
▁Allan	-6175
▁Котте	-6176
▁Лаура	-6177
▁Сенди	-6178
▁земле	-6179
▁значи	-6180
которые	-6181
▁Абилен	-6182
▁мучени	-6183
▁охваты	-6184
▁полити	-6185
▁статус	-6186
▁умерла	-6187
ibbertig	-6188
Греймаши	-6189
неразмер	-6190
▁Caravan	-6191
▁Crocier	-6192
▁Крупней	-6193
▁Кэмерон	-6194
▁Халиско	-6195
▁авиаком	-6196
▁передач	-6197
▁регионе	-6198
▁соевого	-6199
хнический	-6200
▁Апплетон	-6201
▁Бурбанке	-6202
▁Хапутале	-6203
6000000,0.	-6204
▁памятника	-6205
▁сопостави	-6206
▁Cumberland	-6207
▁Инженерный	-6208
▁Калифорний	-6209
▁дисциплину	-6210
▁музыкальную	-6211
▁температура	-6212
▁Среднеатланти	-6213
▁национального	-6214
OL	-6215
На	-6216
тм	-6217
эш	-6218
305	-6219
кто	-6220
пет	-6221
рый	-6222
цио	-6223
▁51	-6224
▁Ши	-6225
80,7	-6226
ense	-6227
Болт	-6228
арда	-6229
зона	-6230
урен	-6231
▁3,0	-6232
▁Sta	-6233
▁Эта	-6234
▁Юго	-6235
▁сгу	-6236
hajan	-6237
othan	-6238
салес	-6239
▁1905	-6240
▁1976	-6241
▁Fior	-6242
▁Mars	-6243
▁Кири	-6244
▁горя	-6245
▁помо	-6246
мидоры	-6247
ранолы	-6248
▁Fount	-6249
▁Lydia	-6250
▁Билли	-6251
▁Гаджи	-6252
▁Ирака	-6253
▁весит	-6254
▁дочер	-6255
▁100305	-6256
▁Dothan	-6257
▁Static	-6258
▁Баджжи	-6259
▁Буурен	-6260
▁Рамафо	-6261
▁Сильви	-6262
▁играли	-6263
▁минуты	-6264
▁роскош	-6265
▁Mahajan	-6266
▁Sumitra	-6267
▁Антиохи	-6268
▁Лондона	-6269
▁ассоциа	-6270
▁овощами	-6271
▁собрана	-6272
▁соревну	-6273
▁стороны	-6274
верхность	-6275
▁Alderney	-6276
▁Columbus	-6277
▁Crociere	-6278
▁Fountain	-6279
▁Астероид	-6280
▁Фаллуджа	-6281
▁считается	-6282
▁молодежную	-6283
▁охватывает	-6284
Фенцерковная	-6285
▁международным	-6286
▁обслуживающий	-6287
Бе	-6288
-2)	-6289
978	-6290
ARA	-6291
orr	-6292
Аен	-6293
рез	-6294
▁FK	-6295
▁чи	-6296
dent	-6297
гуна	-6298
дель	-6299
йцар	-6300
линд	-6301
чная	-6302
▁211	-6303
▁ACF	-6304
▁Val	-6305
▁АЕК	-6306
▁Баа	-6307
▁Рут	-6308
▁Спа	-6309
▁Тек	-6310
▁ана	-6311
▁сло	-6312
жевой	-6313
ющего	-6314
▁0,04	-6315
▁21,2	-6316
▁Hess	-6317
▁Бако	-6318
▁Брук	-6319
▁Дема	-6320
▁Дона	-6321
▁Рахм	-6322
▁базы	-6323
▁мысе	-6324
hitler	-6325
Амманн	-6326
жности	-6327
западе	-6328
санджо	-6329
строва	-6330
▁Белых	-6331
▁Рауль	-6332
▁Рохас	-6333
▁конку	-6334
▁минут	-6335
▁своем	-6336
Альбина	-6337
Пенарол	-6338
▁Trance	-6339
▁Росток	-6340
▁Уилсон	-6341
▁Харбор	-6342
▁Япония	-6343
▁белого	-6344
▁ракеты	-6345
▁черный	-6346
▁Stanley	-6347
▁Румыния	-6348
▁аналоги	-6349
▁колбаса	-6350
▁столице	-6351
▁Сильвано	-6352
▁арабский	-6353
▁издатель	-6354
▁конгресс	-6355
▁красного	-6356
▁средство	-6357
▁Обасанджо	-6358
▁сложности	-6359
▁молодежном	-6360
▁Алькобендас	-6361
▁Орбитальный	-6362
▁официальным	-6363
▁транспортом	-6364
▁национальную	-6365
82	-6366
Ор	-6367
ип	-6368
кт	-6369
ret	-6370
АИД	-6371
оло	-6372
цеп	-6373
чне	-6374
▁зе	-6375
амбо	-6376
емая	-6377
ерар	-6378
лусе	-6379
нкан	-6380
сихо	-6381
чной	-6382
▁Los	-6383
▁POL	-6384
▁Ана	-6385
▁губ	-6386
▁дос	-6387
▁ним	-6388
▁сме	-6389
анито	-6390
вышен	-6391
довал	-6392
тации	-6393
химов	-6394
▁AIRA	-6395
▁Fall	-6396
▁King	-6397
▁Кейп	-6398
▁Эрра	-6399
▁верх	-6400
▁игры	-6401
▁Texas	-6402
▁Union	-6403
▁Арави	-6404
▁Армин	-6405
▁Жерар	-6406
▁Олусе	-6407
▁Пинха	-6408
▁Понте	-6409
▁заказ	-6410
▁короб	-6411
▁реест	-6412
▁ураль	-6413
hitleri	-6414
Олимпик	-6415
▁Дункан	-6416
▁Манито	-6417
▁Сендич	-6418
▁Табаре	-6419
▁Тексты	-6420
▁похожа	-6421
▁служит	-6422
ждествен	-6423
хождение	-6424
▁Angeles	-6425
▁Рахимов	-6426
▁беконом	-6427
▁опытным	-6428
единенные	-6429
▁synthpop	-6430
▁Асунсьон	-6431
▁Ауреолес	-6432
▁Гонсалес	-6433
▁аргентин	-6434
▁диаметре	-6435
▁креветки	-6436
▁Addiction	-6437
▁Аргентина	-6438
▁Конгресса	-6439
▁городской	-6440
министратив	-6441
▁0-439-1768	-6442
▁Fiorentina	-6443
▁Recordings	-6444
▁Гвианского	-6445
▁базируются	-6446
▁государств	-6447
▁математика	-6448
▁космического	-6449
▁максимальная	-6450
AM	-6451
tl	-6452
án	-6453
Бо	-6454
900	-6455
Inf	-6456
ase	-6457
ого	-6458
пел	-6459
чуп	-6460
ьей	-6461
▁6,	-6462
▁al	-6463
aska	-6464
ties	-6465
Абеб	-6466
кови	-6467
лини	-6468
нехо	-6469
рито	-6470
сейн	-6471
▁978	-6472
▁Пал	-6473
▁ара	-6474
eleon	-6475
Андра	-6476
Бекон	-6477
дином	-6478
етчуп	-6479
мести	-6480
▁1958	-6481
▁2003	-6482
▁3180	-6483
▁Comm	-6484
▁Palo	-6485
▁Plym	-6486
▁Seco	-6487
▁Thun	-6488
▁Кури	-6489
▁Мари	-6490
▁Плех	-6491
▁Ритм	-6492
ichita	-6493
rimera	-6494
станов	-6495
урнала	-6496
▁Bloom	-6497
▁Адама	-6498
▁Баэйд	-6499
▁много	-6500
▁немцы	-6501
▁парла	-6502
▁сража	-6503
Алессио	-6504
▁Alaska	-6505
▁Purple	-6506
▁Конехо	-6507
▁Кумбер	-6508
▁Польше	-6509
▁грамма	-6510
▁короле	-6511
▁палате	-6512
▁смерти	-6513
венником	-6514
▁Shivers	-6515
▁Государ	-6516
▁карьера	-6517
▁найдена	-6518
▁поджанр	-6519
▁ротации	-6520
▁Plymouth	-6521
▁канцлера	-6522
▁лидерами	-6523
▁итальянцы	-6524
варденепура	-6525
ступенчатую	-6526
▁AIRAstella	-6527
▁используют	-6528
▁государства	-6529
▁региональный	-6530
."	-6531
HE	-6532
АР	-6533
gin	-6534
ord	-6535
uzz	-6536
зас	-6537
ида	-6538
мию	-6539
чем	-6540
шла	-6541
▁Op	-6542
9343	-6543
9942	-6544
Альф	-6545
кинг	-6546
ксон	-6547
фаль	-6548
▁399	-6549
▁Гус	-6550
▁Лан	-6551
▁ЮАР	-6552
леные	-6553
▁0,01	-6554
▁1856	-6555
▁1988	-6556
▁32,2	-6557
▁Blue	-6558
▁Гали	-6559
▁Грац	-6560
▁День	-6561
▁Руле	-6562
▁Член	-6563
▁тонн	-6564
Мастер	-6565
ментом	-6566
▁Admin	-6567
▁Blues	-6568
▁Peter	-6569
▁землю	-6570
▁лимон	-6571
tlantic	-6572
амбоанг	-6573
▁179942	-6574
▁479343	-6575
▁Alpena	-6576
▁Дербыш	-6577
▁Джалан	-6578
▁Саммит	-6579
▁Эррате	-6580
▁исполь	-6581
▁получа	-6582
▁фильме	-6583
▁цилинд	-6584
▁Primera	-6585
▁Армином	-6586
▁Галисии	-6587
▁Мадином	-6588
▁Мендель	-6589
▁журнала	-6590
Себастьян	-6591
▁Консерва	-6592
▁колесная	-6593
▁турецкая	-6594
▁демократи	-6595
▁известная	-6596
▁Кумберленд	-6597
▁сопоставима	-6598
▁колумбийской	-6599
▁академическую	-6600
зз	-6601
юй	-6602
,29	-6603
2,8	-6604
7,1	-6605
Ван	-6606
аце	-6607
кор	-6608
лец	-6609
нам	-6610
пио	-6611
усо	-6612
▁("	-6613
▁0,	-6614
▁Ны	-6615
argh	-6616
atta	-6617
erce	-6618
зель	-6619
нией	-6620
ссой	-6621
▁546	-6622
▁Aur	-6623
▁Des	-6624
▁Gra	-6625
▁Rev	-6626
▁Апо	-6627
▁Аре	-6628
▁Бал	-6629
▁Ген	-6630
▁Мол	-6631
▁зву	-6632
▁нан	-6633
▁нее	-6634
▁сан	-6635
-14".	-6636
Аенир	-6637
менте	-6638
ренер	-6639
стоне	-6640
▁1850	-6641
▁Agra	-6642
▁Main	-6643
▁Ober	-6644
▁Иусо	-6645
▁Стэн	-6646
helman	-6647
музыке	-6648
▁39971	-6649
▁Creek	-6650
▁индий	-6651
▁мэром	-6652
который	-6653
▁Orange	-6654
▁Луанда	-6655
▁дизель	-6656
▁массой	-6657
Atlantic	-6658
arghatta	-6659
циальный	-6660
▁Thunder	-6661
▁Wichita	-6662
▁William	-6663
▁Корнель	-6664
▁Мендоса	-6665
▁Стамбул	-6666
▁политик	-6667
▁спортив	-6668
▁домашней	-6669
▁изготови	-6670
▁началась	-6671
▁этикетке	-6672
▁Chameleon	-6673
▁Аргентине	-6674
▁Филиппины	-6675
▁построила	-6676
▁Flibbertig	-6677
▁Oberhelman	-6678
▁Республике	-6679
▁Техасского	-6680
▁родившаяся	-6681
▁479343000,0	-6682
▁Hessarghatta	-6683
▁Национальном	-6684
▁законодатель	-6685
▁университетов	-6686
▁спроектировала	-6687
▁Республиканской	-6688
bh	-6689
elk	-6690
ets	-6691
imo	-6692
ами	-6693
вии	-6694
дия	-6695
▁08	-6696
▁Ве	-6697
0002	-6698
ania	-6699
ацея	-6700
дала	-6701
здан	-6702
крип	-6703
лема	-6704
лись	-6705
▁142	-6706
▁Red	-6707
▁UTC	-6708
▁Whe	-6709
▁Ред	-6710
▁Чен	-6711
▁той	-6712
ginia	-6713
Аррос	-6714
ьетро	-6715
▁1980	-6716
▁Arrt	-6717
▁Opel	-6718
▁Rand	-6719
▁Бани	-6720
▁Рима	-6721
▁грун	-6722
западу	-6723
▁1918"	-6724
▁Auron	-6725
▁Baked	-6726
▁chute	-6727
▁Браси	-6728
▁Вален	-6729
▁Вариа	-6730
▁Дугла	-6731
▁Нынеш	-6732
▁Опера	-6733
▁Роман	-6734
▁Рулеу	-6735
▁Темзе	-6736
▁Федер	-6737
▁исход	-6738
▁озеро	-6739
▁рабоч	-6740
▁чтобы	-6741
водится	-6742
▁Berlin	-6743
▁Греция	-6744
▁Джакар	-6745
▁Пьетро	-6746
▁гитаре	-6747
▁заказу	-6748
▁овощей	-6749
▁совета	-6750
Альфредо	-6751
йцарский	-6752
▁Gangsta	-6753
▁Jackets	-6754
▁Банилоу	-6755
▁Вальтер	-6756
▁Джейкоб	-6757
▁Роберта	-6758
▁Сольный	-6759
▁авокадо	-6760
▁систему	-6761
▁столицы	-6762
▁студент	-6763
▁Quarting	-6764
▁авиабазу	-6765
Ванденберг	-6766
▁студентом	-6767
▁человеком	-6768
▁Мендельсон	-6769
▁командиров	-6770
▁космодрома	-6771
▁Европейский	-6772
▁авиакомпани	-6773
▁трансмиссия	-6774
▁музыкального	-6775
▁председатель	-6776
▁среднеразмер	-6777
▁производитель	-6778
28	-6779
FC	-6780
da	-6781
МА	-6782
▁л	-6783
075	-6784
1-8	-6785
HER	-6786
oga	-6787
orm	-6788
oty	-6789
еха	-6790
▁93	-6791
▁Fo	-6792
▁IN	-6793
▁on	-6794
▁Ме	-6795
▁Сы	-6796
вица	-6797
квел	-6798
нием	-6799
оран	-6800
пере	-6801
хель	-6802
▁Cow	-6803
▁Fav	-6804
▁Ило	-6805
▁Иса	-6806
▁дюй	-6807
▁кам	-6808
▁рас	-6809
-2060	-6810
берто	-6811
бурга	-6812
дерей	-6813
зднее	-6814
кусти	-6815
онато	-6816
товым	-6817
▁4410	-6818
▁Stev	-6819
▁Абра	-6820
▁Ахме	-6821
▁Гран	-6822
▁Якуб	-6823
▁игро	-6824
▁окку	-6825
▁типа	-6826
Старый	-6827
▁44075	-6828
▁ASHER	-6829
▁Wheel	-6830
▁Аллан	-6831
▁Джвай	-6832
▁Кампе	-6833
▁Марри	-6834
▁Редди	-6835
▁Филип	-6836
▁таких	-6837
▁1-4165	-6838
▁Castle	-6839
▁Cowper	-6840
▁Жители	-6841
▁Поацея	-6842
▁австри	-6843
▁асфаль	-6844
▁других	-6845
▁здание	-6846
▁назван	-6847
▁получи	-6848
▁реестр	-6849
▁религи	-6850
ormation	-6851
▁Анахайм	-6852
▁Ингреди	-6853
▁Мексики	-6854
▁Робертс	-6855
▁гранита	-6856
▁жареное	-6857
▁установ	-6858
Анджелеса	-6859
Анджелесе	-6860
▁Fortress	-6861
▁Мартинес	-6862
▁Мемориал	-6863
▁канадцем	-6864
▁основным	-6865
▁полнопри	-6866
Себастьяне	-6867
сокращенно	-6868
▁Основными	-6869
▁Последний	-6870
▁построены	-6871
▁проживают	-6872
▁Кампеонато	-6873
▁Манхэттене	-6874
▁арендаторы	-6875
▁изначально	-6876
▁1-4165-2060	-6877
▁441092000,0	-6878
▁нигерийских	-6879
Административ	-6880
▁филиппинский	-6881
▁принадлежащая	-6882
Am	-6883
mi	-6884
tà	-6885
Ах	-6886
,0,	-6887
100	-6888
968	-6889
Ari	-6890
ale	-6891
thm	-6892
жем	-6893
зай	-6894
про	-6895
риж	-6896
рот	-6897
ске	-6898
▁52	-6899
▁99	-6900
▁Ph	-6901
▁Ум	-6902
▁Эд	-6903
-11"	-6904
ital	-6905
omay	-6906
over	-6907
ythm	-6908
белл	-6909
вора	-6910
жным	-6911
щими	-6912
▁INF	-6913
▁Lam	-6914
▁MBA	-6915
▁Roy	-6916
▁hop	-6917
▁Тим	-6918
▁Фар	-6919
21640	-6920
Akeem	-6921
dmore	-6922
ledon	-6923
дание	-6924
донне	-6925
зация	-6926
лейро	-6927
ссимо	-6928
▁4371	-6929
▁Hels	-6930
▁Mell	-6931
▁Rams	-6932
▁Scri	-6933
▁Буту	-6934
вочный	-6935
▁Above	-6936
▁Aniti	-6937
▁Città	-6938
▁Ident	-6939
▁South	-6940
▁Вопер	-6941
▁ветке	-6942
▁годов	-6943
▁людей	-6944
▁самми	-6945
▁флота	-6946
▁холод	-6947
2164091	-6948
Большой	-6949
эмпбелл	-6950
▁Candle	-6951
▁Pierce	-6952
▁Secret	-6953
▁Texans	-6954
▁Бхаджи	-6955
▁Валюта	-6956
▁Канзас	-6957
▁Ченнаи	-6958
▁премию	-6959
otyledon	-6960
квартиру	-6961
морского	-6962
▁Абрадаб	-6963
▁Грозном	-6964
▁Корнели	-6965
▁Массимо	-6966
▁Умберто	-6967
▁декабре	-6968
▁корабль	-6969
▁перипет	-6970
▁тенниса	-6971
▁Virginia	-6972
▁Виргинии	-6973
▁Каролины	-6974
▁Макдонне	-6975
▁Музыкант	-6976
▁влиянием	-6977
▁ключевым	-6978
▁прозвище	-6979
▁162164091	-6980
▁Sehitleri	-6981
▁Амстердам	-6982
▁Корейской	-6983
▁временным	-6984
▁измерение	-6985
▁население	-6986
▁Бундеслиге	-6987
▁Вирджинией	-6988
▁440756000,0	-6989
▁Коннектикута	-6990
▁американских	-6991
▁Лейбористской	-6992
▁эксплуатирова	-6993
▁спроектирована	-6994
72	-6995
As	-6996
ah	-6997
Аб	-6998
unc	-6999
Куб	-7000
ахи	-7001
кре	-7002
нал	-7003
эйн	-7004
▁"0	-7005
▁Di	-7006
▁Vf	-7007
▁Ев	-7008
▁Ок	-7009
4300	-7010
iazz	-7011
orld	-7012
tica	-7013
umai	-7014
Анти	-7015
верс	-7016
виси	-7017
вует	-7018
гаме	-7019
емля	-7020
ензи	-7021
кеем	-7022
ниса	-7023
фель	-7024
чард	-7025
ьето	-7026
ющей	-7027
▁1,5	-7028
▁512	-7029
▁Est	-7030
▁rap	-7031
▁Арп	-7032
▁Гва	-7033
▁выи	-7034
▁тер	-7035
73513	-7036
ating	-7037
pture	-7038
агона	-7039
алтон	-7040
вание	-7041
емого	-7042
льным	-7043
риант	-7044
ффало	-7045
▁3,04	-7046
▁Kids	-7047
▁Буре	-7048
▁Йенс	-7049
▁Мала	-7050
▁Одди	-7051
▁коды	-7052
iazzia	-7053
висимо	-7054
ладипо	-7055
телями	-7056
щенное	-7057
▁43717	-7058
▁Arena	-7059
▁Metal	-7060
▁Stell	-7061
▁Автор	-7062
▁Драго	-7063
▁Елена	-7064
▁Мадин	-7065
▁Милан	-7066
▁Монро	-7067
▁Нотти	-7068
▁Ньето	-7069
▁Петра	-7070
▁Ранее	-7071
▁бывши	-7072
▁говяж	-7073
▁корот	-7074
▁печат	-7075
▁площа	-7076
▁улице	-7077
▁языка	-7078
Альбани	-7079
вшегося	-7080
гигиены	-7081
матриче	-7082
▁373513	-7083
▁Mellow	-7084
▁Польши	-7085
▁Ричард	-7086
▁измель	-7087
▁страну	-7088
ниверсал	-7089
▁Metapán	-7090
▁Piazzia	-7091
▁Гвадала	-7092
▁большой	-7093
▁гранолы	-7094
▁дальний	-7095
▁замести	-7096
▁мрамора	-7097
▁саммита	-7098
▁Synthpop	-7099
▁колледже	-7100
▁частично	-7101
Agrimiação	-7102
▁Amsterdam	-7103
▁Scripture	-7104
▁Гуджарате	-7105
▁Уильямсон	-7106
▁выводится	-7107
▁институте	-7108
▁картофель	-7109
▁китайский	-7110
▁Александры	-7111
▁Брасилейро	-7112
▁владельцем	-7113
▁директором	-7114
▁докторской	-7115
▁последовал	-7116
▁Information	-7117
▁транспортный	-7118
▁классифицирован	-7119
-9	-7120
ek	-7121
ik	-7122
Де	-7123
Па	-7124
eef	-7125
her	-7126
ide	-7127
mus	-7128
oek	-7129
org	-7130
Сан	-7131
йме	-7132
руз	-7133
тул	-7134
хан	-7135
▁75	-7136
▁Re	-7137
▁аг	-7138
▁см	-7139
,722	-7140
5589	-7141
omst	-7142
park	-7143
Юлия	-7144
дион	-7145
мезз	-7146
мира	-7147
туми	-7148
▁280	-7149
▁911	-7150
▁Abh	-7151
▁Ace	-7152
▁RCA	-7153
▁Rou	-7154
▁Вал	-7155
▁Деп	-7156
▁Дия	-7157
▁Кос	-7158
▁Три	-7159
▁Яве	-7160
▁ави	-7161
▁оке	-7162
2,846	-7163
Black	-7164
Dodge	-7165
hythm	-7166
ахини	-7167
ейном	-7168
моном	-7169
ричне	-7170
▁1513	-7171
▁AZAL	-7172
▁Harb	-7173
▁Hard	-7174
▁Toek	-7175
▁Гера	-7176
▁Джер	-7177
▁Перм	-7178
▁Тама	-7179
▁Шест	-7180
▁лира	-7181
▁мясо	-7182
▁общи	-7183
▁степ	-7184
Ariane	-7185
Кубань	-7186
▁70634	-7187
▁Arros	-7188
▁Citta	-7189
▁Eagle	-7190
▁World	-7191
▁Гвиан	-7192
▁Демак	-7193
▁Салем	-7194
▁агент	-7195
▁завое	-7196
▁психо	-7197
Диагона	-7198
▁135589	-7199
▁142603	-7200
▁Attica	-7201
▁Benton	-7202
▁Ахмета	-7203
▁Батуми	-7204
▁Гарвар	-7205
▁Иахини	-7206
▁Роймер	-7207
▁Шиверс	-7208
▁Энрике	-7209
▁дюймов	-7210
▁сиквел	-7211
Alcatraz	-7212
АИДАлуна	-7213
Вашингто	-7214
Кливленд	-7215
▁Главная	-7216
▁Стадион	-7217
▁конкури	-7218
▁найдены	-7219
правочный	-7220
▁1513,722	-7221
▁Toekomst	-7222
▁Германия	-7223
▁Кейптаун	-7224
▁Кембридж	-7225
▁использо	-7226
▁подавать	-7227
▁собствен	-7228
▁Капитолии	-7229
▁Понтезона	-7230
▁сделанная	-7231
▁Архитектор	-7232
▁ассоциацию	-7233
▁373513000,0	-7234
▁437170000,0	-7235
▁Макдоннелем	-7236
▁комического	-7237
▁соревнуется	-7238
▁электрогита	-7239
▁Университете	-7240
▁департамента	-7241
50	-7242
AN	-7243
Qu	-7244
329	-7245
ota	-7246
аве	-7247
оре	-7248
риф	-7249
сиф	-7250
тие	-7251
▁05	-7252
▁Ah	-7253
▁Ча	-7254
andl	-7255
Арем	-7256
Кори	-7257
Сити	-7258
арем	-7259
енго	-7260
ному	-7261
▁1,2	-7262
▁108	-7263
▁973	-7264
▁Bus	-7265
▁Def	-7266
▁Hal	-7267
▁aus	-7268
▁dem	-7269
▁Еще	-7270
▁два	-7271
▁дей	-7272
▁тем	-7273
▁теп	-7274
achie	-7275
endam	-7276
ungen	-7277
ссекс	-7278
уанку	-7279
▁2160	-7280
▁Comp	-7281
▁Shan	-7282
▁Star	-7283
▁Ганг	-7284
▁Фрей	-7285
▁отде	-7286
000270	-7287
rasmus	-7288
rysler	-7289
разиль	-7290
ьетнам	-7291
▁Ridge	-7292
▁Wolfs	-7293
▁Бенго	-7294
▁Иосиф	-7295
▁Неаве	-7296
▁Нийме	-7297
▁Самый	-7298
▁банан	-7299
▁стала	-7300
▁школа	-7301
андиром	-7302
делению	-7303
▁523329	-7304
▁Center	-7305
▁Siomay	-7306
▁Stadio	-7307
▁Transl	-7308
▁Viking	-7309
▁Барные	-7310
▁Сабина	-7311
▁Туанку	-7312
▁Эссекс	-7313
▁австра	-7314
▁банано	-7315
▁народа	-7316
Кэмпбелл	-7317
▁8000270	-7318
▁Апофеоз	-7319
▁Бурером	-7320
▁Митсота	-7321
▁Система	-7322
▁автором	-7323
▁бразиль	-7324
▁коричне	-7325
▁предыду	-7326
andlungen	-7327
▁Олусегун	-7328
▁Рамафоса	-7329
▁Эртегуна	-7330
▁летчиком	-7331
▁предоста	-7332
Геттисбург	-7333
▁Sportpark	-7334
▁издателем	-7335
▁состоялся	-7336
▁Stellendam	-7337
▁Бирмингема	-7338
▁Командиром	-7339
▁Крупнейший	-7340
▁Ноттингеме	-7341
▁Понтезонах	-7342
▁Мичиганском	-7343
▁архитектора	-7344
▁государство	-7345
▁полуострова	-7346
▁авиакомпании	-7347
▁руководителем	-7348
19	-7349
86	-7350
nc	-7351
ns	-7352
uc	-7353
Ко	-7354
йя	-7355
.12	-7356
3,9	-7357
608	-7358
70.	-7359
aza	-7360
onn	-7361
uch	-7362
Кол	-7363
Ман	-7364
дол	-7365
ефа	-7366
жий	-7367
исе	-7368
мей	-7369
нав	-7370
▁US	-7371
▁Фа	-7372
▁жа	-7373
4071	-7374
8749	-7375
9515	-7376
acao	-7377
base	-7378
enza	-7379
lins	-7380
Хоре	-7381
вота	-7382
грии	-7383
груп	-7384
смен	-7385
ступ	-7386
чино	-7387
▁Ajo	-7388
▁Bay	-7389
▁Mas	-7390
▁Бол	-7391
▁анг	-7392
▁тру	-7393
▁фин	-7394
49895	-7395
Bacon	-7396
adash	-7397
anese	-7398
erham	-7399
iacao	-7400
Аллан	-7401
Арена	-7402
дабад	-7403
ландо	-7404
митра	-7405
форма	-7406
ществ	-7407
▁Fenc	-7408
▁play	-7409
▁Куру	-7410
▁Хайн	-7411
▁арти	-7412
▁втор	-7413
▁яйцо	-7414
Андерс	-7415
Харбор	-7416
Черный	-7417
▁Burns	-7418
▁Plaza	-7419
▁State	-7420
▁Владе	-7421
▁Китае	-7422
▁Лацио	-7423
▁Локке	-7424
▁Номер	-7425
▁Тихом	-7426
▁Тосун	-7427
▁долла	-7428
▁нанят	-7429
▁парка	-7430
▁черни	-7431
меззане	-7432
стронав	-7433
▁288749	-7434
▁Парана	-7435
▁Тичино	-7436
▁авиано	-7437
▁бронзы	-7438
▁гварде	-7439
▁жанров	-7440
▁живота	-7441
▁океане	-7442
▁следую	-7443
Атлантой	-7444
▁2549895	-7445
▁5239515	-7446
▁6004071	-7447
▁Ardmore	-7448
▁Company	-7449
▁Альдрин	-7450
▁Атланта	-7451
▁Воперез	-7452
▁Итальян	-7453
▁Каталон	-7454
▁граждан	-7455
▁дискоте	-7456
▁жареная	-7457
▁повышен	-7458
▁програм	-7459
▁рабочей	-7460
▁средней	-7461
▁странах	-7462
▁Division	-7463
▁Faverham	-7464
▁Джакарта	-7465
▁Федераль	-7466
▁построил	-7467
▁совершен	-7468
▁Shanachie	-7469
▁Wolfsburg	-7470
▁Бутунером	-7471
▁Каталонии	-7472
▁австралий	-7473
▁завершено	-7474
▁коллектив	-7475
▁универсал	-7476
▁Митсотакис	-7477
▁молодежной	-7478
▁представля	-7479
▁произведен	-7480
▁рождествен	-7481
▁Translations	-7482
▁аббревиатуру	-7483
▁гражданского	-7484
▁Строительство	-7485
▁Великобритания	-7486
▁Массачусетский	-7487
▁афроамериканка	-7488
Ad	-7489
ög	-7490
Ша	-7491
,48	-7492
-07	-7493
-1-	-7494
-42	-7495
-9.	-7496
528	-7497
53-	-7498
718	-7499
75)	-7500
823	-7501
Mon	-7502
ald	-7503
arn	-7504
ata	-7505
ron	-7506
und	-7507
Зве	-7508
гне	-7509
слу	-7510
▁07	-7511
▁1,	-7512
▁5"	-7513
▁65	-7514
▁Ge	-7515
▁SK	-7516
▁Vo	-7517
▁Ке	-7518
aber	-7519
alli	-7520
elin	-7521
жной	-7522
жный	-7523
кеан	-7524
нады	-7525
терз	-7526
шого	-7527
ёкке	-7528
▁Cul	-7529
▁Her	-7530
▁Hus	-7531
▁Lee	-7532
▁Rab	-7533
▁Дом	-7534
▁Оли	-7535
▁чьи	-7536
60815	-7537
Stars	-7538
ennie	-7539
ersey	-7540
также	-7541
тарио	-7542
▁(290	-7543
▁164"	-7544
▁1857	-7545
▁5115	-7546
▁Beef	-7547
▁High	-7548
▁Зума	-7549
▁Пана	-7550
▁Штаб	-7551
▁доби	-7552
▁купе	-7553
▁саго	-7554
▁сосе	-7555
▁таки	-7556
-4253-	-7557
000823	-7558
Керала	-7559
вающий	-7560
водная	-7561
дабаде	-7562
единен	-7563
скачев	-7564
▁Faber	-7565
▁Stars	-7566
▁Алана	-7567
▁Колле	-7568
▁Маран	-7569
▁Пермь	-7570
▁париж	-7571
▁санти	-7572
-1-4165	-7573
Univers	-7574
Барабан	-7575
гигиена	-7576
▁Airbus	-7577
▁League	-7578
▁blanco	-7579
▁Анголе	-7580
▁Андрея	-7581
▁Африке	-7582
▁Грассо	-7583
▁Оливер	-7584
▁Сталин	-7585
▁Шарлот	-7586
▁здания	-7587
▁земель	-7588
▁кетчуп	-7589
ландский	-7590
▁(29075)	-7591
▁560090,	-7592
▁Airbase	-7593
▁Cullins	-7594
▁Helsing	-7595
▁Адольфо	-7596
▁Гренады	-7597
▁Гунером	-7598
▁Онтарио	-7599
▁Пантерз	-7600
▁Эфиопия	-7601
▁верхнюю	-7602
▁обороны	-7603
▁религия	-7604
▁террито	-7605
▁Albennie	-7606
▁Chrysler	-7607
▁Rabadash	-7608
▁астронав	-7609
▁компенси	-7610
▁обладает	-7611
▁Hamburger	-7612
▁Абубакара	-7613
емориальный	-7614
▁префектура	-7615
▁Bloomington	-7616
▁автомобилем	-7617
▁последовала	-7618
▁фламандским	-7619
-1-4165-4253-	-7620
▁используемый	-7621
▁малайзийские	-7622
зербайджанской	-7623
▁южноафриканцы	-7624
▁местоположение	-7625
.)	-7626
AB	-7627
AT	-7628
кк	-7629
хэ	-7630
Ass	-7631
Bak	-7632
les	-7633
Афи	-7634
гас	-7635
жал	-7636
под	-7637
ряд	-7638
сия	-7639
ули	-7640
эла	-7641
▁aj	-7642
▁Ат	-7643
000,	-7644
5718	-7645
Buzz	-7646
auce	-7647
hens	-7648
iden	-7649
pdor	-7650
rove	-7651
ydor	-7652
анин	-7653
баго	-7654
еппе	-7655
ллен	-7656
мках	-7657
ории	-7658
терн	-7659
умай	-7660
цифи	-7661
чный	-7662
▁3,8	-7663
▁520	-7664
▁560	-7665
▁Pac	-7666
▁Pag	-7667
▁Кен	-7668
▁Нии	-7669
▁Офи	-7670
▁Тес	-7671
▁Хяр	-7672
▁Шко	-7673
▁бор	-7674
▁кру	-7675
▁нес	-7676
▁пуд	-7677
▁руб	-7678
▁чье	-7679
▁югу	-7680
kties	-7681
lands	-7682
Бенго	-7683
Океан	-7684
ключи	-7685
лодеж	-7686
лоязы	-7687
питал	-7688
стина	-7689
чного	-7690
▁107,	-7691
▁1936	-7692
▁1982	-7693
▁Abel	-7694
▁McQu	-7695
▁Rich	-7696
▁Turk	-7697
▁Пери	-7698
▁Эрни	-7699
▁длин	-7700
▁конц	-7701
▁куби	-7702
▁маги	-7703
pdoria	-7704
конода	-7705
узеппе	-7706
▁1,524	-7707
▁347,1	-7708
▁Elect	-7709
▁Grand	-7710
▁Grove	-7711
▁Габри	-7712
▁Крест	-7713
▁Лёкке	-7714
▁Позже	-7715
▁Саули	-7716
▁Шеста	-7717
▁затем	-7718
▁латин	-7719
▁605718	-7720
▁Albany	-7721
▁Athens	-7722
▁Jersey	-7723
▁Seagle	-7724
▁Дуглас	-7725
▁Паллес	-7726
▁Пеории	-7727
▁Тесдом	-7728
▁Эндрюс	-7729
▁автома	-7730
▁приеха	-7731
▁принял	-7732
▁рамках	-7733
▁Pacific	-7734
▁Pagnell	-7735
▁Polydor	-7736
▁Revival	-7737
▁Австрия	-7738
▁Молодеж	-7739
▁Стеллен	-7740
▁Хяртель	-7741
▁авианос	-7742
▁специфи	-7743
▁степень	-7744
▁футболе	-7745
▁чернила	-7746
Blackwell	-7747
футболист	-7748
▁1202,846	-7749
▁Business	-7750
▁Commelin	-7751
▁Javanese	-7752
▁Вермонта	-7753
▁Гонконга	-7754
▁Гусейном	-7755
▁Джвайдан	-7756
▁Саскачев	-7757
▁магистра	-7758
▁окружным	-7759
▁предлага	-7760
▁протяжен	-7761
▁регистре	-7762
▁Sampdoria	-7763
▁Ахмедабад	-7764
▁Испанской	-7765
▁банановой	-7766
▁провинция	-7767
▁скоростью	-7768
Universitas	-7769
▁Ахмадабаде	-7770
▁Бананамане	-7771
▁командовал	-7772
▁разделению	-7773
▁475426000,0	-7774
▁Каталонской	-7775
▁Соединенное	-7776
▁участвовали	-7777
конодательный	-7778
▁Законодатель	-7779
▁департаменте	-7780
▁национальном	-7781
▁изготовленный	-7782
▁происхождения	-7783
▁эксплуатируют	-7784
▁Джаяварденепура	-7785
17	-7786
85	-7787
ny	-7788
-02	-7789
-16	-7790
447	-7791
ade	-7792
eca	-7793
Том	-7794
але	-7795
кур	-7796
суа	-7797
юма	-7798
▁AE	-7799
▁Af	-7800
▁Ol	-7801
▁Гю	-7802
lint	-7803
onet	-7804
день	-7805
дете	-7806
пила	-7807
раса	-7808
спол	-7809
ству	-7810
▁139	-7811
▁2,0	-7812
▁393	-7813
▁AFB	-7814
▁Hil	-7815
▁Mam	-7816
▁Mer	-7817
▁Wet	-7818
▁Дол	-7819
▁Кай	-7820
▁Как	-7821
▁Нэш	-7822
▁Обь	-7823
▁При	-7824
▁ммс	-7825
▁мощ	-7826
▁пес	-7827
▁поя	-7828
▁сжа	-7829
▁шве	-7830
Monoc	-7831
cover	-7832
Милан	-7833
горот	-7834
джанг	-7835
мануэ	-7836
тавли	-7837
шение	-7838
▁18,5	-7839
▁1901	-7840
▁Alma	-7841
▁Fons	-7842
▁Forr	-7843
▁Mata	-7844
▁Mech	-7845
▁Tama	-7846
▁View	-7847
▁Vinc	-7848
▁Ашер	-7849
▁Джаз	-7850
▁Кочи	-7851
▁Тейш	-7852
▁виды	-7853
Бостон	-7854
Нептун	-7855
▁39447	-7856
▁52090	-7857
▁523,9	-7858
▁Allen	-7859
▁Flint	-7860
▁Mason	-7861
▁sauce	-7862
▁Грена	-7863
▁Декан	-7864
▁Земля	-7865
▁Эмиль	-7866
▁арабы	-7867
▁выход	-7868
▁дизай	-7869
▁источ	-7870
▁свобо	-7871
▁центр	-7872
тийская	-7873
▁107,43	-7874
▁Ампара	-7875
▁Кирилл	-7876
▁Создан	-7877
▁Стивен	-7878
▁Эмануэ	-7879
▁бывшая	-7880
▁звезды	-7881
▁класса	-7882
▁многие	-7883
▁общины	-7884
▁продол	-7885
▁тренер	-7886
▁Fonseca	-7887
▁Forrest	-7888
▁Hopkins	-7889
▁Jackson	-7890
▁Vincent	-7891
▁Департа	-7892
▁Джексон	-7893
▁Пинхаис	-7894
▁Роландо	-7895
▁Суматры	-7896
▁Франсуа	-7897
▁Хайнлей	-7898
▁грантов	-7899
▁добился	-7900
▁заключи	-7901
▁найдете	-7902
▁районов	-7903
▁свинина	-7904
▁являлся	-7905
6000000,0	-7906
Восточной	-7907
воздушные	-7908
▁125800,0	-7909
▁252000,0	-7910
▁Вольфман	-7911
▁Джузеппе	-7912
▁Петраков	-7913
▁арабском	-7914
▁исходным	-7915
▁наземные	-7916
▁попадает	-7917
▁специаль	-7918
Греймашина	-7919
▁McDonnell	-7920
▁ajoblanco	-7921
▁кокосовые	-7922
▁средством	-7923
▁цилиндров	-7924
Диагональная	-7925
▁Стеллендаме	-7926
▁завершилась	-7927
▁истребитель	-7928
▁миллиметров	-7929
▁присоединен	-7930
▁трансмиссию	-7931
▁Abhandlungen	-7932
▁аббревиатура	-7933
▁Всеиндийского	-7934
▁Индианаполиса	-7935
▁строительство	-7936
▁1-4165-2060-0.	-7937
▁протяженностью	-7938
Аа	-7939
Га	-7940
МС	-7941
мм	-7942
мя	-7943
сс	-7944
шу	-7945
,57	-7946
843	-7947
aan	-7948
asp	-7949
eme	-7950
ous	-7951
rid	-7952
Тей	-7953
мес	-7954
пру	-7955
пци	-7956
хой	-7957
цах	-7958
этл	-7959
▁Az	-7960
▁Ty	-7961
▁Ты	-7962
▁ир	-7963
▁лу	-7964
▁ме	-7965
▁ту	-7966
7055	-7967
chen	-7968
dier	-7969
udor	-7970
Грин	-7971
Рома	-7972
Уайт	-7973
ерны	-7974
жная	-7975
коба	-7976
мена	-7977
нида	-7978
пциг	-7979
▁497	-7980
▁7,5	-7981
▁Буш	-7982
▁Пес	-7983
▁Пла	-7984
▁поч	-7985
.3528	-7986
843,8	-7987
night	-7988
raero	-7989
Айрес	-7990
Лидия	-7991
денан	-7992
дитер	-7993
нодар	-7994
полни	-7995
стоку	-7996
▁1972	-7997
▁5,57	-7998
▁8823	-7999
▁Asad	-8000
▁Deer	-8001
▁Jens	-8002
▁Line	-8003
▁VIAG	-8004
▁Whit	-8005
▁Диас	-8006
▁Марг	-8007
▁Ридж	-8008
▁Тури	-8009
▁Турк	-8010
▁воды	-8011
▁выхо	-8012
▁гриб	-8013
▁силы	-8014
▁чили	-8015
▁элем	-8016
etonil	-8017
undelk	-8018
Айреса	-8019
Барные	-8020
маркет	-8021
▁Grena	-8022
▁Johns	-8023
▁Кушик	-8024
▁Одной	-8025
▁Рашид	-8026
▁Созда	-8027
▁бинта	-8028
▁звуки	-8029
▁клубы	-8030
▁орден	-8031
▁ремес	-8032
▁сдела	-8033
erschen	-8034
Блэкпул	-8035
Туркмен	-8036
зийский	-8037
электри	-8038
▁Garden	-8039
▁Аденан	-8040
▁Здание	-8041
▁Погсон	-8042
▁Тобаго	-8043
▁Уорден	-8044
▁Шестан	-8045
▁заводе	-8046
▁менедж	-8047
▁федера	-8048
▁фрукты	-8049
rimiacao	-8050
▁Coronet	-8051
▁Erasmus	-8052
▁Колледж	-8053
▁Тринида	-8054
▁востоку	-8055
▁жареную	-8056
▁измельч	-8057
▁сладкая	-8058
Арлингтон	-8059
▁88234300	-8060
▁Wetlands	-8061
▁Большого	-8062
▁Габриэла	-8063
▁Елизавет	-8064
▁Магдален	-8065
▁Мичигана	-8066
▁Паллесен	-8067
▁Скорость	-8068
▁Эмануэле	-8069
▁блюзовый	-8070
▁вариации	-8071
▁возникли	-8072
▁королева	-8073
▁Grenadier	-8074
▁Ачарского	-8075
▁Корнелием	-8076
▁Краснодар	-8077
▁земельных	-8078
▁кокосовое	-8079
▁менеджера	-8080
▁мороженое	-8081
ступенчатая	-8082
▁Palaetonil	-8083
▁Альбукерки	-8084
▁автомобили	-8085
▁бутерброда	-8086
▁называются	-8087
▁парламента	-8088
▁511592000,0	-8089
▁Гарвардский	-8090
▁аналогичные	-8091
▁космическом	-8092
▁музыкантами	-8093
▁принадлежал	-8094
▁руководящим	-8095
▁этническими	-8096
▁Архитектором	-8097
▁заключительный	-8098
▁правительством	-8099
16	-8100
Ви	-8101
По	-8102
ад	-8103
кв	-8104
,65	-8105
-06	-8106
2.4	-8107
312	-8108
III	-8109
Вен	-8110
буд	-8111
гут	-8112
жке	-8113
зон	-8114
пдо	-8115
▁40	-8116
▁Kl	-8117
▁UC	-8118
1339	-8119
4.55	-8120
82,3	-8121
akes	-8122
aple	-8123
elen	-8124
eyin	-8125
ical	-8126
luna	-8127
Акта	-8128
Дель	-8129
алли	-8130
вами	-8131
зики	-8132
йсом	-8133
креп	-8134
пкин	-8135
риен	-8136
сент	-8137
спек	-8138
цузы	-8139
ычно	-8140
▁277	-8141
▁Даг	-8142
▁Код	-8143
▁Най	-8144
▁Хек	-8145
,8388	-8146
ibbet	-8147
otaur	-8148
делах	-8149
йцами	-8150
лодка	-8151
стров	-8152
щение	-8153
щения	-8154
▁2597	-8155
▁4191	-8156
▁6603	-8157
▁XIII	-8158
▁alma	-8159
▁Брит	-8160
▁Прей	-8161
▁Пэйн	-8162
▁Служ	-8163
▁гара	-8164
▁прям	-8165
645978	-8166
Verona	-8167
Дельта	-8168
Сампдо	-8169
налльо	-8170
пкинса	-8171
цеплен	-8172
ющийся	-8173
▁Beach	-8174
▁Dolph	-8175
▁Hilmi	-8176
▁Maple	-8177
▁Voice	-8178
▁Арена	-8179
▁Битва	-8180
▁Гетти	-8181
▁Исаак	-8182
▁Санда	-8183
▁Солен	-8184
▁борту	-8185
▁игрок	-8186
▁могут	-8187
2.47055	-8188
4.55312	-8189
82,3968	-8190
Ассоциа	-8191
Индиана	-8192
роженец	-8193
▁139705	-8194
▁Shumai	-8195
▁Австра	-8196
▁Джонса	-8197
▁Кампус	-8198
▁Москве	-8199
▁Певица	-8200
▁Пеньет	-8201
▁Руково	-8202
▁модель	-8203
▁прежде	-8204
▁пришед	-8205
▁физики	-8206
Bakewell	-8207
▁30843,8	-8208
▁6603633	-8209
▁Bundelk	-8210
▁Райхель	-8211
▁Тампере	-8212
▁Фламанд	-8213
▁Фрэнком	-8214
▁бионико	-8215
▁игроком	-8216
▁позднее	-8217
Мемориала	-8218
Сампдория	-8219
ранизация	-8220
▁41911339	-8221
▁93645978	-8222
▁AIDAluna	-8223
▁Mechelen	-8224
▁Minotaur	-8225
▁Замбоанг	-8226
▁Хопкинса	-8227
▁астероид	-8228
▁монархом	-8229
▁немецкий	-8230
▁пределах	-8231
▁сантимет	-8232
▁сотрудни	-8233
бревиатура	-8234
▁Берналльо	-8235
▁наградной	-8236
▁площадкой	-8237
▁сгущенное	-8238
▁собранный	-8239
тавливается	-8240
▁Archittura	-8241
▁демократия	-8242
▁сокращенно	-8243
▁520906000,0	-8244
▁Commelinids	-8245
▁итальянской	-8246
▁полнопривод	-8247
▁Jacksonville	-8248
▁руководитель	-8249
▁традиционный	-8250
▁Monocotyledon	-8251
▁специальности	-8252
▁Куттиккаттооре	-8253
▁419113394.55312	-8254
▁государственных	-8255
XN	-8256
iu	-8257
▁v	-8258
400	-8259
ida	-8260
rab	-8261
rus	-8262
атю	-8263
виз	-8264
жай	-8265
зры	-8266
йсс	-8267
кое	-8268
орт	-8269
▁69	-8270
▁AK	-8271
▁Ау	-8272
2447	-8273
6521	-8274
7670	-8275
Acta	-8276
ncil	-8277
oway	-8278
ссек	-8279
цкий	-8280
▁183	-8281
▁299	-8282
▁490	-8283
▁5,4	-8284
▁AEK	-8285
▁ATK	-8286
▁Art	-8287
▁Qiu	-8288
▁pen	-8289
▁ВМС	-8290
▁Доу	-8291
▁Имя	-8292
▁Мат	-8293
▁Сою	-8294
▁еще	-8295
▁мер	-8296
Аарон	-8297
Аллен	-8298
Афины	-8299
Луиса	-8300
Ордон	-8301
дольф	-8302
ложке	-8303
сиско	-8304
слуги	-8305
▁1299	-8306
▁1533	-8307
▁1990	-8308
▁Azin	-8309
▁Boat	-8310
▁Holl	-8311
▁Isis	-8312
▁Phil	-8313
▁Post	-8314
▁Дата	-8315
▁Слад	-8316
▁батю	-8317
▁дней	-8318
▁запи	-8319
▁каль	-8320
▁свет	-8321
▁чиха	-8322
ареная	-8323
верхно	-8324
деньем	-8325
ремьер	-8326
сменом	-8327
▁"1634	-8328
▁16000	-8329
▁19238	-8330
▁Barny	-8331
▁Diane	-8332
▁Guner	-8333
▁Баада	-8334
▁Белые	-8335
▁Вайсс	-8336
▁Вениз	-8337
▁Дагга	-8338
▁Питер	-8339
▁Сенат	-8340
▁Якоба	-8341
▁земли	-8342
▁сразу	-8343
▁стали	-8344
▁стать	-8345
Атланты	-8346
тирован	-8347
▁162447	-8348
▁296521	-8349
▁Boston	-8350
▁Falcon	-8351
▁Graeme	-8352
▁Олланд	-8353
▁Первой	-8354
▁Синиса	-8355
▁Стадио	-8356
▁госсек	-8357
▁ракови	-8358
▁спорта	-8359
▁эпохой	-8360
ссийской	-8361
▁Council	-8362
▁Defense	-8363
▁Алабаме	-8364
▁Коваком	-8365
▁валютой	-8366
▁главных	-8367
▁ледокол	-8368
▁обложке	-8369
▁площади	-8370
▁прикреп	-8371
▁сцеплен	-8372
Бананаман	-8373
▁25977670	-8374
▁Dolphins	-8375
▁Electric	-8376
▁Holloway	-8377
▁Альфонсо	-8378
▁Антиохии	-8379
▁Ататюрка	-8380
▁Борманом	-8381
▁Куритиба	-8382
▁гитарист	-8383
▁написано	-8384
▁портовым	-8385
▁сиденьем	-8386
▁французы	-8387
Альбукерки	-8388
Ассоциация	-8389
▁399710000	-8390
▁Индонезия	-8391
▁Фредерикс	-8392
▁воевавший	-8393
▁латинское	-8394
▁некоторые	-8395
▁совершила	-8396
испытателем	-8397
▁Республика	-8398
▁авианосцах	-8399
▁азиатскими	-8400
▁используем	-8401
▁опубликова	-8402
▁Французская	-8403
▁оперативной	-8404
▁поверхность	-8405
▁швейцарский	-8406
▁6603633000,0	-8407
▁ChievoVerona	-8408
▁Technologies	-8409
▁национальной	-8410
▁соревновался	-8411
▁металлическую	-8412
▁162164091,8388	-8413
▁Альтернативный	-8414
▁259776702.47055	-8415
AA	-8416
ps	-8417
uw	-8418
vd	-8419
Ка	-8420
уи	-8421
▁e	-8422
,14	-8423
8,0	-8424
att	-8425
eap	-8426
eel	-8427
erm	-8428
its	-8429
ull	-8430
Ари	-8431
Бал	-8432
баб	-8433
бов	-8434
вую	-8435
гле	-8436
иды	-8437
лый	-8438
пут	-8439
▁",	-8440
▁87	-8441
▁са	-8442
▁уч	-8443
42,3	-8444
68,0	-8445
ails	-8446
anta	-8447
fair	-8448
ileo	-8449
ters	-8450
uwer	-8451
Пень	-8452
джер	-8453
жима	-8454
инхэ	-8455
прия	-8456
салм	-8457
спан	-8458
суса	-8459
▁"10	-8460
▁0,2	-8461
▁3,9	-8462
▁573	-8463
▁6,7	-8464
▁Dan	-8465
▁Rol	-8466
▁Мах	-8467
▁Маэ	-8468
▁Мих	-8469
▁Под	-8470
▁бод	-8471
▁имп	-8472
19600	-8473
aiser	-8474
anger	-8475
bital	-8476
Баджи	-8477
Пеньа	-8478
йском	-8479
товые	-8480
успел	-8481
▁"192	-8482
▁2777	-8483
▁4,14	-8484
▁Blvd	-8485
▁Wien	-8486
▁Афри	-8487
▁Жано	-8488
▁Ками	-8489
▁Порт	-8490
▁виде	-8491
▁план	-8492
▁сель	-8493
сподин	-8494
▁34920	-8495
▁Duane	-8496
▁Fight	-8497
▁hails	-8498
▁Адрес	-8499
▁Косми	-8500
▁Майка	-8501
▁Тинхэ	-8502
▁запис	-8503
▁мекси	-8504
▁пуско	-8505
▁работ	-8506
Винсент	-8507
ческими	-8508
ществен	-8509
ющегося	-8510
▁Affair	-8511
▁Arrtus	-8512
▁Cruise	-8513
▁Daniel	-8514
▁Kluwer	-8515
▁Knight	-8516
▁Philip	-8517
▁Roland	-8518
▁Sanger	-8519
▁Восточ	-8520
▁Страну	-8521
▁Языком	-8522
▁доступ	-8523
▁мастер	-8524
▁обычно	-8525
▁органы	-8526
▁палата	-8527
▁певицы	-8528
▁родной	-8529
▁свиные	-8530
Атлантик	-8531
Коритиба	-8532
▁2015-06	-8533
▁Доусона	-8534
▁Лейпциг	-8535
▁Миндаль	-8536
▁Михетти	-8537
▁Стэнфор	-8538
▁барабан	-8539
▁выходцы	-8540
▁голланд	-8541
▁найдено	-8542
▁наполни	-8543
▁прежнее	-8544
▁социали	-8545
▁чихарон	-8546
оранжевой	-8547
▁29919600	-8548
▁Ашертоне	-8549
▁активным	-8550
▁бобслеем	-8551
▁нынешний	-8552
▁операции	-8553
▁поверхно	-8554
▁холодным	-8555
Александре	-8556
Великобрит	-8557
▁греческий	-8558
▁мемориала	-8559
▁уральской	-8560
Технический	-8561
онахождение	-8562
▁Балтийская	-8563
▁редактором	-8564
▁содержится	-8565
▁справочный	-8566
▁являющийся	-8567
▁Государство	-8568
▁Христианско	-8569
▁категоричен	-8570
▁музыкальной	-8571
▁Национальное	-8572
▁операционной	-8573
▁расположенном	-8574
демократической	-8575
▁государственная	-8576
▁технологическом	-8577
▁эксплуатируемый	-8578
67	-8579
Мо	-8580
,94	-8581
648	-8582
670	-8583
eym	-8584
ipz	-8585
ood	-8586
Ави	-8587
Джа	-8588
ваз	-8589
емп	-8590
люз	-8591
пур	-8592
▁da	-8593
▁Эф	-8594
-033	-8595
56-3	-8596
83,1	-8597
eria	-8598
iaol	-8599
ollo	-8600
psis	-8601
Тама	-8602
аний	-8603
вича	-8604
дней	-8605
елли	-8606
енци	-8607
ерой	-8608
ирли	-8609
леон	-8610
мипу	-8611
порт	-8612
ттео	-8613
ющая	-8614
▁Any	-8615
▁for	-8616
▁rom	-8617
▁Хар	-8618
▁кух	-8619
▁спи	-8620
-9255	-8621
aracy	-8622
arese	-8623
biata	-8624
ester	-8625
ipzig	-8626
вития	-8627
джано	-8628
дрини	-8629
латин	-8630
логии	-8631
мерик	-8632
ногда	-8633
рабль	-8634
сными	-8635
стоит	-8636
ураль	-8637
▁0,21	-8638
▁1985	-8639
▁5,75	-8640
▁Apul	-8641
▁Lake	-8642
▁Tyus	-8643
▁Кент	-8644
▁Орос	-8645
▁Тель	-8646
▁Юдин	-8647
▁джаз	-8648
▁оран	-8649
▁путе	-8650
▁сена	-8651
▁цефа	-8652
-92550	-8653
7156-3	-8654
oating	-8655
onnais	-8656
ардкор	-8657
леонто	-8658
сполни	-8659
▁0-670	-8660
▁783,1	-8661
▁99,83	-8662
▁Class	-8663
▁Royce	-8664
▁Sands	-8665
▁Stern	-8666
▁Stock	-8667
▁Альбе	-8668
▁Ареше	-8669
▁Армия	-8670
▁Ларри	-8671
▁Ренци	-8672
▁Тайус	-8673
▁арахи	-8674
▁вырез	-8675
▁докто	-8676
▁перцы	-8677
▁сокра	-8678
▁сопут	-8679
▁суста	-8680
-03380-	-8681
iaolong	-8682
Флорида	-8683
жествен	-8684
ционной	-8685
▁1142,3	-8686
▁Kaiser	-8687
▁Бумипу	-8688
▁Маттео	-8689
▁Сандаш	-8690
▁Турине	-8691
▁выигра	-8692
▁зданий	-8693
▁значим	-8694
▁кампус	-8695
▁северу	-8696
▁январе	-8697
eriapsis	-8698
iverside	-8699
rabbiata	-8700
Гринвилл	-8701
жноураль	-8702
▁Coaracy	-8703
▁Leipzig	-8704
▁Orbital	-8705
▁Wheeler	-8706
▁Wolters	-8707
▁Мексика	-8708
▁Оладипо	-8709
▁заслуги	-8710
▁монарха	-8711
▁обществ	-8712
▁приехал	-8713
▁проспек	-8714
▁советом	-8715
7156-3648	-8716
▁87000823	-8717
▁Lyonnais	-8718
▁Болдрини	-8719
▁Вариатор	-8720
▁Лидерами	-8721
▁долларов	-8722
▁названия	-8723
▁народную	-8724
▁помидоры	-8725
▁путешест	-8726
▁раковины	-8727
▁содержат	-8728
▁сражался	-8729
▁80002709.	-8730
▁Apulensis	-8731
▁Hardcover	-8732
▁Гвианском	-8733
▁говорящим	-8734
▁грунтовое	-8735
▁суставами	-8736
▁сцепления	-8737
▁Bundelkard	-8738
▁Ассоциация	-8739
▁Бумипутера	-8740
▁Нидерланды	-8741
▁обнаружила	-8742
▁сопутствую	-8743
▁0-439-92550	-8744
▁Корнельский	-8745
▁Космическом	-8746
▁являющегося	-8747
▁0-670-03380-	-8748
▁исторический	-8749
▁общественных	-8750
Великобритания	-8751
▁наполнителями	-8752
▁523951582,3968	-8753
▁Альтернативное	-8754
▁Атлантического	-8755
▁металлическими	-8756
▁азербайджанской	-8757
▁законодательный	-8758
▁изготавливается	-8759
ST	-8760
dy	-8761
te	-8762
-1,	-8763
00.	-8764
309	-8765
498	-8766
uda	-8767
wad	-8768
дик	-8769
ций	-8770
▁89	-8771
▁Tw	-8772
▁by	-8773
▁ло	-8774
-8",	-8775
9142	-8776
atar	-8777
oger	-8778
ulia	-8779
öger	-8780
Алва	-8781
илва	-8782
лтон	-8783
мана	-8784
мары	-8785
омай	-8786
синг	-8787
сине	-8788
▁2,7	-8789
▁But	-8790
▁SCI	-8791
▁Коу	-8792
▁Мэн	-8793
▁Пис	-8794
▁Эра	-8795
▁Юха	-8796
▁пен	-8797
▁удо	-8798
-2015	-8799
iffer	-8800
алдор	-8801
емпси	-8802
лижай	-8803
луско	-8804
щихся	-8805
▁1914	-8806
▁Weym	-8807
▁Дома	-8808
▁Коли	-8809
▁Круз	-8810
▁Маха	-8811
▁Сток	-8812
▁Тыус	-8813
498400	-8814
others	-8815
sville	-8816
Баджжи	-8817
Сандеш	-8818
Центра	-8819
сбурга	-8820
▁18,29	-8821
▁490,9	-8822
▁India	-8823
▁Tudor	-8824
▁Адела	-8825
▁Барто	-8826
▁Инфан	-8827
▁Произ	-8828
▁Силва	-8829
▁Томск	-8830
▁Хорри	-8831
▁Ширли	-8832
▁поряд	-8833
▁тапио	-8834
▁титул	-8835
лускони	-8836
▁183309	-8837
▁410777	-8838
▁Apollo	-8839
▁Steven	-8840
▁Бывший	-8841
▁Мишель	-8842
▁Остина	-8843
▁Партии	-8844
▁Прудни	-8845
▁Рекорд	-8846
▁записи	-8847
▁иногда	-8848
▁окончи	-8849
▁ракету	-8850
▁удосто	-8851
Тирструп	-8852
▁Butuner	-8853
▁Chester	-8854
▁Амарльо	-8855
▁Корабль	-8856
▁Лимерик	-8857
▁Площадь	-8858
▁Сильвио	-8859
▁Средняя	-8860
▁Эрасуса	-8861
▁империи	-8862
▁коробка	-8863
▁орденом	-8864
▁сборная	-8865
▁система	-8866
▁состоит	-8867
▁сыграла	-8868
▁41498400	-8869
▁Brothers	-8870
▁Floating	-8871
▁Mamiffer	-8872
▁Xiaolong	-8873
▁Аделаиды	-8874
▁Польской	-8875
▁владелец	-8876
▁завоевал	-8877
▁написали	-8878
▁развития	-8879
▁совершил	-8880
▁элементы	-8881
Александра	-8882
▁Riverside	-8883
▁Венизелос	-8884
▁Манхэттен	-8885
▁добавлены	-8886
▁категорию	-8887
▁подпадает	-8888
▁создатель	-8889
▁Marysville	-8890
▁Берлускони	-8891
▁сообщества	-8892
Висвесварайя	-8893
▁0-7156-3648	-8894
▁Официальным	-8895
▁австрийский	-8896
▁официальный	-8897
▁социалистов	-8898
▁Chesterfield	-8899
▁Магдаленский	-8900
▁Мемориальный	-8901
▁измельченные	-8902
▁Куттиккаттоор	-8903
▁приготовленный	-8904
▁альтернативного	-8905
-5	-8906
ВК	-8907
рт	-8908
фл	-8909
▁a	-8910
-1.	-8911
622	-8912
che	-8913
rag	-8914
tic	-8915
vel	-8916
Дру	-8917
Лум	-8918
бен	-8919
лис	-8920
нна	-8921
унк	-8922
чат	-8923
яхо	-8924
▁01	-8925
▁5-	-8926
▁AD	-8927
▁Pu	-8928
▁От	-8929
▁СК	-8930
▁Ха	-8931
-374	-8932
0068	-8933
6000	-8934
8622	-8935
9224	-8936
aigh	-8937
berg	-8938
elez	-8939
Колн	-8940
Хара	-8941
дова	-8942
лоне	-8943
ноко	-8944
онов	-8945
пута	-8946
тьят	-8947
▁11.	-8948
▁23-	-8949
▁448	-8950
▁Вар	-8951
▁Вин	-8952
▁Гер	-8953
▁Дан	-8954
▁Дэй	-8955
▁Ниг	-8956
▁Ури	-8957
-2613	-8958
Новой	-8959
Шабаб	-8960
ейсон	-8961
екрет	-8962
елого	-8963
еннис	-8964
ериде	-8965
стери	-8966
щейся	-8967
яхога	-8968
▁101.	-8969
▁1873	-8970
▁1953	-8971
▁Eric	-8972
▁Mond	-8973
▁Веро	-8974
▁Есть	-8975
▁Имст	-8976
▁кузо	-8977
▁куль	-8978
▁поет	-8979
▁типи	-8980
▁учре	-8981
80,744	-8982
Винсен	-8983
заводе	-8984
олотая	-8985
▁39371	-8986
▁Halla	-8987
▁Reddy	-8988
▁Брюин	-8989
▁Влади	-8990
▁Еванг	-8991
▁Куала	-8992
▁Псалм	-8993
▁Сиэтл	-8994
▁Телан	-8995
▁Транс	-8996
▁Шарль	-8997
▁Эдвин	-8998
▁книги	-8999
▁минно	-9000
▁своим	-9001
▁семей	-9002
▁фугас	-9003
▁штаба	-9004
мясными	-9005
▁279142	-9006
▁698622	-9007
▁Anyang	-9008
▁Guards	-9009
▁Maiden	-9010
▁Poales	-9011
▁Австри	-9012
▁Демпси	-9013
▁Мадина	-9014
▁Радбуд	-9015
▁Стогер	-9016
▁Халтон	-9017
▁бхаджи	-9018
▁западе	-9019
▁остров	-9020
▁произо	-9021
Харатьят	-9022
ландском	-9023
▁5739224	-9024
▁Harbour	-9025
▁Huseyin	-9026
▁Quarter	-9027
▁Валерий	-9028
▁Куяхога	-9029
▁Лаурауи	-9030
▁Суматра	-9031
▁Уолтера	-9032
▁ракетой	-9033
▁твердой	-9034
-374-2613	-9035
▁Mondelez	-9036
▁Ачарском	-9037
▁Господин	-9038
▁Гуджарат	-9039
▁Манитоба	-9040
▁Парагвая	-9041
▁Хорриган	-9042
▁академия	-9043
▁асфальта	-9044
▁говяжьей	-9045
▁джазовый	-9046
▁кальмары	-9047
▁мексикан	-9048
▁нынешние	-9049
▁открытый	-9050
президента	-9051
▁Stockport	-9052
▁Бартолоне	-9053
▁Кристиной	-9054
▁сменивший	-9055
▁сыгравший	-9056
▁Висконсине	-9057
▁Прудникова	-9058
▁автозаводе	-9059
▁выпускался	-9060
▁дисциплина	-9061
▁основанная	-9062
▁резервного	-9063
▁установлен	-9064
▁построенный	-9065
▁Алькобендасе	-9066
▁американским	-9067
▁компенсирует	-9068
ci	-9069
ez	-9070
uf	-9071
ze	-9072
АД	-9073
кэ	-9074
-6.	-9075
ank	-9076
kab	-9077
ost	-9078
БАД	-9079
Жор	-9080
бас	-9081
зой	-9082
пон	-9083
тай	-9084
тка	-9085
учи	-9086
хис	-9087
эль	-9088
▁04	-9089
▁Яр	-9090
.324	-9091
2497	-9092
4770	-9093
6468	-9094
9618	-9095
acid	-9096
beat	-9097
emos	-9098
kles	-9099
Жорж	-9100
бота	-9101
варя	-9102
десь	-9103
ился	-9104
коны	-9105
льва	-9106
ован	-9107
тона	-9108
шине	-9109
▁155	-9110
▁388	-9111
▁445	-9112
▁Mol	-9113
▁Sal	-9114
▁Tor	-9115
▁Луф	-9116
▁вал	-9117
▁вра	-9118
▁кла	-9119
▁мар	-9120
▁мат	-9121
-0-15	-9122
78885	-9123
ilton	-9124
ulous	-9125
Абебы	-9126
Барсе	-9127
Транс	-9128
довой	-9129
стона	-9130
щийся	-9131
▁1174	-9132
▁1911	-9133
▁1941	-9134
▁5300	-9135
▁8370	-9136
▁Twil	-9137
▁Бара	-9138
▁Бэйд	-9139
▁МБАД	-9140
▁Мура	-9141
▁Памя	-9142
▁Свет	-9143
▁Таит	-9144
▁бума	-9145
▁годы	-9146
▁нера	-9147
▁рыча	-9148
▁сора	-9149
646863	-9150
allero	-9151
robeat	-9152
Балдер	-9153
Гамиль	-9154
Секрет	-9155
Тейлор	-9156
вались	-9157
ванием	-9158
хангра	-9159
▁69618	-9160
▁Bight	-9161
▁Висай	-9162
▁Скрип	-9163
▁выпеч	-9164
▁вышед	-9165
▁лапши	-9166
▁судна	-9167
▁экспо	-9168
-204770	-9169
0000003	-9170
urakles	-9171
черного	-9172
▁"1634:	-9173
▁352497	-9174
▁75.324	-9175
▁878885	-9176
▁Placid	-9177
▁Rhythm	-9178
▁Stöger	-9179
▁Австро	-9180
▁Аттика	-9181
▁Брюинз	-9182
▁Дональ	-9183
▁Игорот	-9184
▁Именно	-9185
▁Кишине	-9186
▁Панучи	-9187
▁Сальва	-9188
▁Стокго	-9189
▁Томаты	-9190
▁севере	-9191
Alhambra	-9192
Infantry	-9193
Пеньарол	-9194
ельвинов	-9195
▁3800,0.	-9196
▁Alexand	-9197
▁Classic	-9198
▁Philips	-9199
▁Vicenza	-9200
▁Бертоне	-9201
▁Болатин	-9202
▁Европар	-9203
▁Крестом	-9204
▁Оросман	-9205
▁Палатой	-9206
▁Памятка	-9207
▁воевала	-9208
▁вьетнам	-9209
▁демоном	-9210
▁партией	-9211
▁соревно	-9212
▁средняя	-9213
▁членами	-9214
▁89646863	-9215
▁Alhambra	-9216
▁Populous	-9217
▁Twilight	-9218
▁Андалуси	-9219
▁Ачарский	-9220
▁Робертом	-9221
▁вращения	-9222
▁играющий	-9223
▁культуры	-9224
▁работают	-9225
▁собрания	-9226
▁учащихся	-9227
бутерброда	-9228
▁2015-06-2	-9229
▁Carrarese	-9230
▁Hungarica	-9231
▁Магдалины	-9232
▁датирован	-9233
▁конгресса	-9234
00000000003	-9235
▁837080,744	-9236
▁Вольфсбург	-9237
▁источником	-9238
▁коричневый	-9239
▁прикреплен	-9240
▁пришедшего	-9241
▁российской	-9242
▁управление	-9243
-0-15-204770	-9244
▁296521000,0	-9245
▁523329000,0	-9246
▁астронавтов	-9247
▁космическим	-9248
▁начальником	-9249
▁участвовала	-9250
▁базирующейся	-9251
▁обнаруживший	-9252
▁фламандскому	-9253
▁архитектурный	-9254
▁госсекретарем	-9255
▁Консервативной	-9256
▁Flibbertigibbet	-9257
AS	-9258
GP	-9259
IS	-9260
ЕД	-9261
Та	-9262
▁g	-9263
-09	-9264
.29	-9265
4,7	-9266
4,9	-9267
6,0	-9268
922	-9269
937	-9270
983	-9271
PGP	-9272
adt	-9273
ann	-9274
egh	-9275
eng	-9276
igw	-9277
ria	-9278
rop	-9279
use	-9280
vaz	-9281
Гра	-9282
ббо	-9283
вил	-9284
дец	-9285
еси	-9286
кие	-9287
лым	-9288
мич	-9289
нар	-9290
сла	-9291
▁Os	-9292
▁Хю	-9293
▁Ша	-9294
▁ам	-9295
back	-9296
ogan	-9297
ombe	-9298
orge	-9299
oyet	-9300
ympi	-9301
анил	-9302
анию	-9303
нгхе	-9304
рети	-9305
удет	-9306
▁140	-9307
▁Hor	-9308
▁SVE	-9309
▁VAM	-9310
▁VfL	-9311
▁van	-9312
▁Хус	-9313
▁ген	-9314
▁шри	-9315
PGPAC	-9316
erics	-9317
ifier	-9318
Авива	-9319
Бирми	-9320
Южное	-9321
енаша	-9322
йским	-9323
расте	-9324
ресло	-9325
уполи	-9326
чение	-9327
ютной	-9328
▁4349	-9329
▁5000	-9330
▁5705	-9331
▁Digw	-9332
▁Punk	-9333
▁Клод	-9334
▁Сыка	-9335
▁день	-9336
▁курс	-9337
▁лист	-9338
▁труб	-9339
elskab	-9340
ustadt	-9341
Лумпур	-9342
ланкий	-9343
ованни	-9344
олиней	-9345
ремеси	-9346
товице	-9347
▁23900	-9348
▁Ahvaz	-9349
▁Logan	-9350
▁Poyet	-9351
▁Short	-9352
▁Альма	-9353
▁Бакин	-9354
▁Певец	-9355
▁Часть	-9356
▁Школы	-9357
▁адрес	-9358
▁будет	-9359
▁класс	-9360
▁лодка	-9361
▁рычаг	-9362
▁семье	-9363
▁хлебо	-9364
▁через	-9365
ympique	-9366
мичелли	-9367
нальный	-9368
▁0,0455	-9369
▁560937	-9370
▁Estegh	-9371
▁Wiener	-9372
▁Аллама	-9373
▁Антони	-9374
▁Белого	-9375
▁Филипп	-9376
▁Франко	-9377
▁Хюсейн	-9378
▁бывший	-9379
▁валюты	-9380
▁депута	-9381
▁играла	-9382
▁книгой	-9383
▁кресло	-9384
▁первый	-9385
▁проект	-9386
▁сжатый	-9387
▁службе	-9388
▁сражен	-9389
▁теплым	-9390
Monocacy	-9391
▁5705922	-9392
▁Digweed	-9393
▁Palaeon	-9394
▁Whitman	-9395
▁Премьер	-9396
▁вариант	-9397
▁встреча	-9398
▁городка	-9399
▁горячем	-9400
▁женился	-9401
▁информа	-9402
▁канадцы	-9403
▁куриное	-9404
▁несколь	-9405
▁региону	-9406
▁этажами	-9407
Ньюмаркет	-9408
▁Berliner	-9409
▁Candombe	-9410
▁Neustadt	-9411
▁Джованни	-9412
▁Кишиневе	-9413
▁Нынешний	-9414
▁автомати	-9415
▁возрасте	-9416
▁клубного	-9417
▁народный	-9418
▁неработа	-9419
▁появился	-9420
▁удостоен	-9421
испытатель	-9422
ремесингхе	-9423
сполнитель	-9424
▁2014-2015	-9425
▁475426000	-9426
▁93645978.	-9427
▁Alexandra	-9428
▁Olympique	-9429
▁Гражданин	-9430
▁Индийский	-9431
▁Линкольна	-9432
▁Франсиско	-9433
▁подводная	-9434
▁психодели	-9435
▁сельдерей	-9436
ktieselskab	-9437
Соединенные	-9438
▁Стокгольме	-9439
▁Управления	-9440
▁агентством	-9441
▁британские	-9442
▁музыкально	-9443
▁прямолиней	-9444
▁560937000,0	-9445
▁Болатинский	-9446
▁Европейским	-9447
▁Французской	-9448
▁экранизация	-9449
▁американская	-9450
▁заместителем	-9451
▁региональным	-9452
▁рекордсменом	-9453
-0-15-204770-2	-9454
▁опубликованный	-9455
▁предшествовала	-9456
▁расположенного	-9457
,4	-9458
.2	-9459
69	-9460
Ab	-9461
Ну	-9462
тс	-9463
ъе	-9464
-21	-9465
150	-9466
70,	-9467
729	-9468
805	-9469
905	-9470
alt	-9471
end	-9472
ewe	-9473
hig	-9474
ika	-9475
usi	-9476
ärt	-9477
Хип	-9478
вух	-9479
дзо	-9480
дии	-9481
зан	-9482
леб	-9483
нау	-9484
орд	-9485
сум	-9486
хам	-9487
чис	-9488
шли	-9489
▁5.	-9490
▁HA	-9491
▁Uk	-9492
▁Бэ	-9493
▁ду	-9494
6315	-9495
8771	-9496
Kids	-9497
ayam	-9498
iant	-9499
wadh	-9500
Аида	-9501
ЕДАС	-9502
Самт	-9503
алес	-9504
було	-9505
веже	-9506
грия	-9507
зкой	-9508
ллет	-9509
ляют	-9510
реда	-9511
ресс	-9512
роде	-9513
хопа	-9514
чано	-9515
▁1,9	-9516
▁16,	-9517
▁488	-9518
▁767	-9519
▁Fru	-9520
▁Old	-9521
▁Pan	-9522
▁АФК	-9523
▁Веб	-9524
▁Иту	-9525
▁Кир	-9526
▁Тро	-9527
▁Хью	-9528
▁вст	-9529
▁жил	-9530
▁изу	-9531
▁съе	-9532
▁сыр	-9533
ogson	-9534
Барис	-9535
ленде	-9536
редия	-9537
сайай	-9538
спань	-9539
сский	-9540
товый	-9541
▁1820	-9542
▁2776	-9543
▁4000	-9544
▁4150	-9545
▁7729	-9546
▁8364	-9547
▁8805	-9548
▁Buil	-9549
▁Cant	-9550
▁Conn	-9551
▁Parc	-9552
▁from	-9553
▁Айри	-9554
▁Лиге	-9555
▁Линн	-9556
▁Обер	-9557
▁Роса	-9558
▁Сооб	-9559
▁Фуад	-9560
▁Хама	-9561
▁Ямай	-9562
▁боро	-9563
▁веду	-9564
▁двух	-9565
▁знак	-9566
▁имен	-9567
▁море	-9568
▁осна	-9569
▁рода	-9570
▁рома	-9571
▁хотя	-9572
ДеСото	-9573
вавший	-9574
ретить	-9575
▁344,9	-9576
▁78771	-9577
▁Babel	-9578
▁Carpi	-9579
▁Frank	-9580
▁Mario	-9581
▁Ukrop	-9582
▁Акеем	-9583
▁Анбар	-9584
▁Бернс	-9585
▁Биббо	-9586
▁Генри	-9587
▁Делав	-9588
▁Кенни	-9589
▁Матер	-9590
▁ПЕДАС	-9591
▁Рутай	-9592
▁Среди	-9593
▁Стерн	-9594
▁джазо	-9595
▁кузов	-9596
▁масла	-9597
▁масса	-9598
▁цвета	-9599
▁школе	-9600
Барисан	-9601
Манчест	-9602
стерикс	-9603
харский	-9604
▁445895	-9605
▁767983	-9606
▁Fruits	-9607
▁Halton	-9608
▁Гамиль	-9609
▁ДеСото	-9610
▁Десале	-9611
▁Луфкин	-9612
▁Фултон	-9613
▁западу	-9614
▁картош	-9615
▁многих	-9616
▁наград	-9617
▁низкой	-9618
▁олимпи	-9619
▁отдела	-9620
▁ракета	-9621
▁теннис	-9622
▁эспань	-9623
poration	-9624
usiensis	-9625
▁8805735	-9626
▁Fighter	-9627
▁Opelika	-9628
▁Джерард	-9629
▁Скоттом	-9630
▁Спаллет	-9631
▁Суматре	-9632
▁Франция	-9633
▁Хайлема	-9634
▁капитал	-9635
▁музыкой	-9636
▁плантан	-9637
▁проекте	-9638
▁служить	-9639
▁участок	-9640
Addiction	-9641
Самтредия	-9642
▁83646315	-9643
▁Bighting	-9644
▁Building	-9645
▁Мичигане	-9646
▁Плеханов	-9647
▁англоязы	-9648
▁значимых	-9649
▁основной	-9650
▁преуспел	-9651
Вашингтона	-9652
▁Babelberg	-9653
▁Matherics	-9654
▁Евангелос	-9655
▁Хайнлейна	-9656
▁встретить	-9657
▁дискотеку	-9658
▁основного	-9659
▁рекордный	-9660
▁роскошный	-9661
▁Identifier	-9662
▁Ассоциации	-9663
▁автомобиля	-9664
▁институтом	-9665
▁начальника	-9666
▁управления	-9667
▁0-439-17684	-9668
▁605718000,0	-9669
▁Азербайджан	-9670
▁Дербышского	-9671
▁встречается	-9672
▁художествен	-9673
электрическая	-9674
▁Департамента	-9675
▁датированную	-9676
▁управляемого	-9677
▁Атлантический	-9678
▁принадлежащий	-9679
▁скончавшегося	-9680
▁соревновались	-9681
▁конструкторское	-9682
Ис	-9683
СВ	-9684
ея	-9685
рн	-9686
фу	-9687
,54	-9688
,80	-9689
637	-9690
715	-9691
abi	-9692
ghe	-9693
ome	-9694
ral	-9695
ury	-9696
uss	-9697
Аба	-9698
Лоу	-9699
бле	-9700
вие	-9701
вым	-9702
зин	-9703
кед	-9704
льм	-9705
пин	-9706
тен	-9707
уло	-9708
ьше	-9709
▁Dr	-9710
▁KV	-9711
▁Лю	-9712
-932	-9713
4,33	-9714
7701	-9715
92,8	-9716
AZAL	-9717
achs	-9718
arts	-9719
deon	-9720
otta	-9721
Амин	-9722
Нала	-9723
арни	-9724
бори	-9725
гаум	-9726
етра	-9727
оном	-9728
ролл	-9729
сише	-9730
тена	-9731
того	-9732
утра	-9733
чена	-9734
▁127	-9735
▁167	-9736
▁265	-9737
▁292	-9738
▁368	-9739
▁746	-9740
▁Bor	-9741
▁Cle	-9742
▁Don	-9743
▁Hap	-9744
▁Rov	-9745
▁Йин	-9746
▁Лам	-9747
▁НВК	-9748
▁Ней	-9749
▁Пуи	-9750
▁Тха	-9751
▁Хип	-9752
▁слу	-9753
,8024	-9754
organ	-9755
uncan	-9756
Альма	-9757
Пинха	-9758
Уттар	-9759
анием	-9760
джайя	-9761
дящим	-9762
жевый	-9763
разби	-9764
свеже	-9765
следо	-9766
стоке	-9767
▁2215	-9768
▁3000	-9769
▁7715	-9770
▁Macc	-9771
▁Puig	-9772
▁Roll	-9773
▁Sand	-9774
▁Ximo	-9775
▁ayam	-9776
▁Блан	-9777
▁Мога	-9778
▁Мула	-9779
▁Таро	-9780
▁Энда	-9781
achsen	-9782
veland	-9783
Викинг	-9784
Звезда	-9785
Налажи	-9786
ворачи	-9787
льянец	-9788
нгтона	-9789
самбле	-9790
ствует	-9791
▁1080-	-9792
▁125,8	-9793
▁144,7	-9794
▁15788	-9795
▁16,55	-9796
▁37701	-9797
▁41613	-9798
▁74,33	-9799
▁Awadh	-9800
▁Botta	-9801
▁Group	-9802
▁Odeon	-9803
▁Roule	-9804
▁Касти	-9805
▁Китая	-9806
▁Корни	-9807
▁Коста	-9808
▁Масум	-9809
▁Пресс	-9810
▁Путра	-9811
▁Ранил	-9812
▁СПИДа	-9813
▁губча	-9814
▁музей	-9815
▁пилот	-9816
▁седан	-9817
▁смены	-9818
▁супру	-9819
▁участ	-9820
journal	-9821
Венгрии	-9822
кометра	-9823
стоянии	-9824
▁0,0068	-9825
▁0,0112	-9826
▁0,0473	-9827
▁360.29	-9828
▁Duncan	-9829
▁Pogson	-9830
▁	-9831
о	-9832
а	-9833
е	-9834
и	-9835
н	-9836
р	-9837
т	-9838
с	-9839
л	-9840
в	-9841
д	-9842
к	-9843
м	-9844
я	-9845
у	-9846
п	-9847
.	-9848
,	-9849
г	-9850
ы	-9851
й	-9852
a	-9853
б	-9854
e	-9855
"	-9856
з	-9857
-	-9858
А	-9859
n	-9860
i	-9861
r	-9862
ь	-9863
o	-9864
0	-9865
t	-9866
ж	-9867
х	-9868
l	-9869
1	-9870
ч	-9871
A	-9872
s	-9873
С	-9874
ю	-9875
ц	-9876
э	-9877
ш	-9878
c	-9879
2	-9880
u	-9881
9	-9882
d	-9883
К	-9884
C	-9885
3	-9886
ф	-9887
М	-9888
Ш	-9889
m	-9890
О	-9891
Б	-9892
h	-9893
Д	-9894
6	-9895
В	-9896
S	-9897
y	-9898
5	-9899
4	-9900
p	-9901
8	-9902
П	-9903
И	-9904
7	-9905
g	-9906
Р	-9907
B	-9908
Т	-9909
I	-9910
Н	-9911
Г	-9912
M	-9913
щ	-9914
b	-9915
R	-9916
Л	-9917
Ф	-9918
L	-9919
D	-9920
k	-9921
v	-9922
F	-9923
P	-9924
T	-9925
У	-9926
(	-9927
)	-9928
Э	-9929
V	-9930
f	-9931
N	-9932
H	-9933
G	-9934
Х	-9935
w	-9936
E	-9937
W	-9938
Е	-9939
z	-9940
З	-9941
O	-9942
J	-9943
K	-9944
x	-9945
/	-9946
U	-9947
Ч	-9948
«	-9949
»	-9950
j	-9951
Й	-9952
:	-9953
Ю	-9954
Ж	-9955
'	-9956
Я	-9957
Q	-9958
;	-9959
X	-9960
Ц	-9961
q	-9962
&	-9963
Y	-9964
é	-9965
Z	-9966
ъ	-9967
ã	-9968
ç	-9969
ё	-9970
á	-9971
ö	-9972
ä	-9973
à	-9974
@	-9975
!	-9976
ü	-9977
â	-9978
ó	-9979
í	-9980
ñ	-9981
#	-9982
ß	-9983
è	-9984
>	-9985
×	-9986
_	-9987
+	-9988
ı	-9989
ş	-9990
<	-9991
|	-9992
~	-9993
Щ	-9994
?	-9995
Ё	-9996
